{
  "version": "1.0",
  "truncation": null,
  "padding": null,
  "added_tokens": [
    {
      "id": 0,
      "content": "[UNK]",
      "single_word": false,
      "lstrip": false,
      "rstrip": false,
      "normalized": false,
      "special": true
    },
    {
      "id": 1,
      "content": "<|system|>",
      "single_word": false,
      "lstrip": false,
      "rstrip": false,
      "normalized": false,
      "special": true
    },
    {
      "id": 2,
      "content": "<|user|>",
      "single_word": false,
      "lstrip": false,
      "rstrip": false,
      "normalized": false,
      "special": true
    },
    {
      "id": 3,
      "content": "<|assistant|>",
      "single_word": false,
      "lstrip": false,
      "rstrip": false,
      "normalized": false,
      "special": true
    },
    {
      "id": 4,
      "content": "<|end|>",
      "single_word": false,
      "lstrip": false,
      "rstrip": false,
      "normalized": false,
      "special": true
    }
  ],
  "normalizer": null,
  "pre_tokenizer": {
    "type": "ByteLevel",
    "add_prefix_space": false,
    "trim_offsets": true,
    "use_regex": true
  },
  "post_processor": null,
  "decoder": {
    "type": "ByteLevel",
    "add_prefix_space": true,
    "trim_offsets": true,
    "use_regex": true
  },
  "model": {
    "type": "BPE",
    "dropout": null,
    "unk_token": "[UNK]",
    "continuing_subword_prefix": null,
    "end_of_word_suffix": null,
    "fuse_unk": false,
    "byte_fallback": false,
    "ignore_merges": false,
    "vocab": {
      "[UNK]": 0,
      "<|system|>": 1,
      "<|user|>": 2,
      "<|assistant|>": 3,
      "<|end|>": 4,
      "!": 5,
      "\"": 6,
      "#": 7,
      "$": 8,
      "%": 9,
      "&": 10,
      "'": 11,
      "(": 12,
      ")": 13,
      "*": 14,
      "+": 15,
      ",": 16,
      "-": 17,
      ".": 18,
      "/": 19,
      "0": 20,
      "1": 21,
      "2": 22,
      "3": 23,
      "4": 24,
      "5": 25,
      "6": 26,
      "7": 27,
      "8": 28,
      "9": 29,
      ":": 30,
      ";": 31,
      "<": 32,
      "=": 33,
      ">": 34,
      "?": 35,
      "@": 36,
      "A": 37,
      "B": 38,
      "C": 39,
      "D": 40,
      "E": 41,
      "F": 42,
      "G": 43,
      "H": 44,
      "I": 45,
      "J": 46,
      "K": 47,
      "L": 48,
      "M": 49,
      "N": 50,
      "O": 51,
      "P": 52,
      "Q": 53,
      "R": 54,
      "S": 55,
      "T": 56,
      "U": 57,
      "V": 58,
      "W": 59,
      "X": 60,
      "Y": 61,
      "Z": 62,
      "[": 63,
      "]": 64,
      "^": 65,
      "_": 66,
      "a": 67,
      "b": 68,
      "c": 69,
      "d": 70,
      "e": 71,
      "f": 72,
      "g": 73,
      "h": 74,
      "i": 75,
      "j": 76,
      "k": 77,
      "l": 78,
      "m": 79,
      "n": 80,
      "o": 81,
      "p": 82,
      "q": 83,
      "r": 84,
      "s": 85,
      "t": 86,
      "u": 87,
      "v": 88,
      "w": 89,
      "x": 90,
      "y": 91,
      "z": 92,
      "}": 93,
      "¡": 94,
      "¢": 95,
      "£": 96,
      "¤": 97,
      "¥": 98,
      "¦": 99,
      "§": 100,
      "¨": 101,
      "©": 102,
      "ª": 103,
      "«": 104,
      "¬": 105,
      "®": 106,
      "¯": 107,
      "°": 108,
      "±": 109,
      "²": 110,
      "³": 111,
      "´": 112,
      "µ": 113,
      "¶": 114,
      "·": 115,
      "¸": 116,
      "¹": 117,
      "º": 118,
      "»": 119,
      "¼": 120,
      "½": 121,
      "¾": 122,
      "¿": 123,
      "Â": 124,
      "Ã": 125,
      "Ä": 126,
      "Å": 127,
      "Ð": 128,
      "Ñ": 129,
      "à": 130,
      "â": 131,
      "ã": 132,
      "ä": 133,
      "å": 134,
      "æ": 135,
      "ç": 136,
      "è": 137,
      "é": 138,
      "ê": 139,
      "ë": 140,
      "ì": 141,
      "í": 142,
      "ï": 143,
      "Ġ": 144,
      "Ģ": 145,
      "ģ": 146,
      "Ĥ": 147,
      "ĥ": 148,
      "Ħ": 149,
      "ħ": 150,
      "Ĩ": 151,
      "ĩ": 152,
      "Ī": 153,
      "ī": 154,
      "Ĭ": 155,
      "ĭ": 156,
      "Į": 157,
      "į": 158,
      "İ": 159,
      "ı": 160,
      "Ĳ": 161,
      "ĳ": 162,
      "Ĵ": 163,
      "ĵ": 164,
      "Ķ": 165,
      "ķ": 166,
      "ĸ": 167,
      "Ĺ": 168,
      "ĺ": 169,
      "Ļ": 170,
      "ļ": 171,
      "Ľ": 172,
      "ľ": 173,
      "Ŀ": 174,
      "ŀ": 175,
      "Ł": 176,
      "ł": 177,
      "Ń": 178,
      "Ġa": 179,
      "ou": 180,
      "Ġt": 181,
      "re": 182,
      "Ġan": 183,
      "is": 184,
      "in": 185,
      "it": 186,
      "ĠI": 187,
      "er": 188,
      "Ġy": 189,
      "Ġyou": 190,
      "Ġw": 191,
      "ha": 192,
      "Ġp": 193,
      "Ġs": 194,
      "ar": 195,
      "ing": 196,
      "ch": 197,
      "ro": 198,
      "Ġare": 199,
      "You": 200,
      "nk": 201,
      "Ġto": 202,
      "ck": 203,
      "ĠB": 204,
      "Ġm": 205,
      "he": 206,
      "ist": 207,
      "Ġpu": 208,
      "rit": 209,
      "ish": 210,
      "Ġro": 211,
      "arch": 212,
      "Ġrock": 213,
      "ĠBrit": 214,
      "ĠBritish": 215,
      "Ġpunk": 216,
      "Ġanarch": 217,
      "Ġrocker": 218,
      "Ġanarchist": 219,
      "Ġb": 220,
      "Ġf": 221,
      "Ġd": 222,
      "hat": 223,
      "or": 224,
      "Ġc": 225,
      "on": 226,
      "an": 227,
      "Ġl": 228,
      "Ġg": 229,
      "ll": 230,
      "ee": 231,
      "ve": 232,
      "Ġthe": 233,
      "ow": 234,
      "'m": 235,
      "'s": 236,
      "st": 237,
      "Ġit": 238,
      "Ġso": 239,
      "ey": 240,
      "Ġn": 241,
      "rea": 242,
      "me": 243,
      "Ġand": 244,
      "ay": 245,
      "Ġha": 246,
      "ed": 247,
      "Ġo": 248,
      "Ġth": 249,
      "Hey": 250,
      "out": 251,
      "Ġbe": 252,
      "Ġdo": 253,
      "'t": 254,
      "en": 255,
      "Ġfor": 256,
      "ot": 257,
      "Ġme": 258,
      "lly": 259,
      "ust": 260,
      "at": 261,
      "ke": 262,
      "le": 263,
      "Ġrea": 264,
      "Ġin": 265,
      "Ġu": 266,
      "oo": 267,
      "as": 268,
      "Ġj": 269,
      "What": 270,
      "Ġh": 271,
      "Ġof": 272,
      "Ġab": 273,
      "Ġthat": 274,
      "Ġwe": 275,
      "Ġk": 276,
      "et": 277,
      "Ġreally": 278,
      "Ġhe": 279,
      "id": 280,
      "Ġabout": 281,
      "gh": 282,
      "Ġcan": 283,
      "Ġli": 284,
      "'re": 285,
      "Ġjust": 286,
      "een": 287,
      "Ġmy": 288,
      "Ġyour": 289,
      "al": 290,
      "Ġe": 291,
      "ad": 292,
      "Ġwhat": 293,
      "Ġkn": 294,
      "se": 295,
      "ld": 296,
      "Ġbeen": 297,
      "th": 298,
      "ant": 299,
      "Ġknow": 300,
      "king": 301,
      "Ġis": 302,
      "Ġon": 303,
      "ith": 304,
      "Ġup": 305,
      "pp": 306,
      "'ve": 307,
      "ut": 308,
      "ce": 309,
      "ri": 310,
      "Ġwith": 311,
      "ry": 312,
      "Ġwas": 313,
      "ver": 314,
      "Ġhave": 315,
      "ĠH": 316,
      "ĠIt": 317,
      "Ġgo": 318,
      "ah": 319,
      "Ġst": 320,
      "Ġlike": 321,
      "hank": 322,
      "ly": 323,
      "ght": 324,
      "es": 325,
      "Ġwant": 326,
      "ĠWhat": 327,
      "ĠYou": 328,
      "Ġfee": 329,
      "om": 330,
      "Ġthis": 331,
      "Ġfeel": 332,
      "Ġsome": 333,
      "ĠT": 334,
      "ould": 335,
      "ĠHow": 336,
      "uch": 337,
      "Ġdon": 338,
      "Hi": 339,
      "nd": 340,
      "Ġthin": 341,
      "Ġdoing": 342,
      "thing": 343,
      "Ġout": 344,
      "Ġwor": 345,
      "li": 346,
      "Ġmuch": 347,
      "reat": 348,
      "ate": 349,
      "ct": 350,
      "ake": 351,
      "Ġnot": 352,
      "ion": 353,
      "Ġgoing": 354,
      "Ġdid": 355,
      "if": 356,
      "ĠM": 357,
      "Ġloo": 358,
      "ĠJ": 359,
      "ure": 360,
      "ood": 361,
      "Ġget": 362,
      "day": 363,
      "Ġal": 364,
      "ome": 365,
      "Ġgreat": 366,
      "eah": 367,
      "Ġhapp": 368,
      "ĠA": 369,
      "Ġsee": 370,
      "ĠS": 371,
      "Ġhow": 372,
      "Ġthink": 373,
      "Ġne": 374,
      "ss": 375,
      "Yeah": 376,
      "orry": 377,
      "lp": 378,
      "Ġtoday": 379,
      "We": 380,
      "Ġhelp": 381,
      "Ġsorry": 382,
      "Ġtal": 383,
      "ore": 384,
      "Ġgl": 385,
      "Ġglad": 386,
      "our": 387,
      "Ġthere": 388,
      "Ġti": 389,
      "Ġhere": 390,
      "Ġfin": 391,
      "Ġre": 392,
      "ul": 393,
      "Ġpro": 394,
      "eve": 395,
      "ble": 396,
      "Ġgood": 397,
      "nt": 398,
      "Ġlo": 399,
      "Ġbut": 400,
      "ng": 401,
      "ir": 402,
      "ic": 403,
      "hanks": 404,
      "Ġany": 405,
      "ound": 406,
      "eed": 407,
      "lieve": 408,
      "very": 409,
      "Ġtoo": 410,
      "Ġbelieve": 411,
      "Ġall": 412,
      "ting": 413,
      "Ġex": 414,
      "way": 415,
      "ra": 416,
      "Ġneed": 417,
      "Ġat": 418,
      "hy": 419,
      "ĠD": 420,
      "ĠC": 421,
      "Ġsomething": 422,
      "Ġtime": 423,
      "It": 424,
      "Ġlot": 425,
      "Ġtalk": 426,
      "Ġcould": 427,
      "ent": 428,
      "right": 429,
      "us": 430,
      "ci": 431,
      "Ġlook": 432,
      "Ġde": 433,
      "Ġas": 434,
      "fe": 435,
      "end": 436,
      "un": 437,
      "ea": 438,
      "ur": 439,
      "Ġwanted": 440,
      "op": 441,
      "Ġmean": 442,
      "art": 443,
      "Ġwork": 444,
      "im": 445,
      "Ġpl": 446,
      "Ġlove": 447,
      "Ġmake": 448,
      "Ġcom": 449,
      "ways": 450,
      "Ġca": 451,
      "Ġalways": 452,
      "Oh": 453,
      "ell": 454,
      "Ġsh": 455,
      "Ġnew": 456,
      "Ġsa": 457,
      "Ġwere": 458,
      "one": 459,
      "Ġwould": 460,
      "ĠL": 461,
      "ally": 462,
      "Not": 463,
      "Ġnow": 464,
      "Ġhappen": 465,
      "tt": 466,
      "and": 467,
      "So": 468,
      "kay": 469,
      "ving": 470,
      "ĠJust": 471,
      "Ġif": 472,
      "ĠThe": 473,
      "ough": 474,
      "Ġfeeling": 475,
      "Ġam": 476,
      "Ġfa": 477,
      "Ġlate": 478,
      "ice": 479,
      "arah": 480,
      "ĠWe": 481,
      "ill": 482,
      "Ġsure": 483,
      "ind": 484,
      "Ġdidn": 485,
      "Ġwh": 486,
      "ight": 487,
      "Ġthing": 488,
      "ain": 489,
      "ort": 490,
      "Ġapp": 491,
      "Ġday": 492,
      "'ll": 493,
      "Ġright": 494,
      "That": 495,
      "Ġint": 496,
      "Ġokay": 497,
      "Ġevery": 498,
      "Ġhappy": 499,
      "Why": 500,
      "Ġen": 501,
      "ation": 502,
      "Ġfro": 503,
      "Ġwhe": 504,
      "Ġcon": 505,
      "ie": 506,
      "Ġlooking": 507,
      "ĠK": 508,
      "her": 509,
      "Wow": 510,
      "Thank": 511,
      "Ġwell": 512,
      "ig": 513,
      "Ġfrom": 514,
      "Ġba": 515,
      "Ġtry": 516,
      "Ġsp": 517,
      "Ġtake": 518,
      "lf": 519,
      "il": 520,
      "reci": 521,
      "Ġover": 522,
      "Ġway": 523,
      "Ġappreci": 524,
      "Ġlately": 525,
      "Ġthinking": 526,
      "Ġpre": 527,
      "Ġgot": 528,
      "Ġmore": 529,
      "Ġno": 530,
      "Ġappreciate": 531,
      "ers": 532,
      "Ġcour": 533,
      "ong": 534,
      "oy": 535,
      "Ġthings": 536,
      "dy": 537,
      "red": 538,
      "own": 539,
      "Ġthank": 540,
      "ĠMom": 541,
      "Ġr": 542,
      "itt": 543,
      "Ġhad": 544,
      "Ġthanks": 545,
      "qu": 546,
      "Ġcourse": 547,
      "Ġco": 548,
      "Ġar": 549,
      "Ġour": 550,
      "az": 551,
      "ge": 552,
      "Ġhappened": 553,
      "blem": 554,
      "Ġproblem": 555,
      "self": 556,
      "Ġim": 557,
      "Ġch": 558,
      "Ġone": 559,
      "ear": 560,
      "Ġbo": 561,
      "Well": 562,
      "Ġlitt": 563,
      "Ġhome": 564,
      "ive": 565,
      "eet": 566,
      "Ġlittle": 567,
      "Of": 568,
      "ĠSarah": 569,
      "Ġjo": 570,
      "ought": 571,
      "ard": 572,
      "Ġmo": 573,
      "ĠBut": 574,
      "ous": 575,
      "ess": 576,
      "Ġhar": 577,
      "Ġman": 578,
      "Ġtell": 579,
      "ect": 580,
      "Ġamaz": 581,
      "Ġamazing": 582,
      "Ġhard": 583,
      "Ġgetting": 584,
      "ile": 585,
      "ĠE": 586,
      "riend": 587,
      "rong": 588,
      "No": 589,
      "Ġanything": 590,
      "Ġus": 591,
      "aking": 592,
      "Yes": 593,
      "Ġwhen": 594,
      "Ġcome": 595,
      "Ġsu": 596,
      "Ġor": 597,
      "ade": 598,
      "Ġcl": 599,
      "Ġsound": 600,
      "Ġexc": 601,
      "joy": 602,
      "Ġimp": 603,
      "Ġenjoy": 604,
      "Ġsay": 605,
      "Ġfriend": 606,
      "nder": 607,
      "Ġfinally": 608,
      "eep": 609,
      "la": 610,
      "Ġag": 611,
      "ide": 612,
      "Ġlet": 613,
      "Ġthem": 614,
      "am": 615,
      "est": 616,
      "Ġv": 617,
      "ful": 618,
      "Ġunder": 619,
      "ited": 620,
      "Ġthought": 621,
      "ond": 622,
      "eop": 623,
      "ning": 624,
      "Ġeverything": 625,
      "eople": 626,
      "tty": 627,
      "Ġjob": 628,
      "ca": 629,
      "Ġoth": 630,
      "ol": 631,
      "Ġwrong": 632,
      "Ġcha": 633,
      "Ġbus": 634,
      "Ġthey": 635,
      "ast": 636,
      "Ġpeople": 637,
      "ity": 638,
      "Ġstu": 639,
      "Ġtr": 640,
      "his": 641,
      "Ġpretty": 642,
      "ĠR": 643,
      "ool": 644,
      "ach": 645,
      "Ġnice": 646,
      "Ġgu": 647,
      "ely": 648,
      "Ġseem": 649,
      "Ġtrying": 650,
      "Ġwhile": 651,
      "el": 652,
      "get": 653,
      "Ġhang": 654,
      "Ġmade": 655,
      "ĠW": 656,
      "Ġboss": 657,
      "ace": 658,
      "Ġexcited": 659,
      "ĠDo": 660,
      "ere": 661,
      "Ġstart": 662,
      "Ġqu": 663,
      "ew": 664,
      "Ġcar": 665,
      "ĠCan": 666,
      "os": 667,
      "ress": 668,
      "Ġoff": 669,
      "come": 670,
      "ff": 671,
      "Ġcoming": 672,
      "Ġfun": 673,
      "ick": 674,
      "Ġsounds": 675,
      "ĠLet": 676,
      "Ġable": 677,
      "ĠThanks": 678,
      "ook": 679,
      "Ġmon": 680,
      "stand": 681,
      "Ġback": 682,
      "tter": 683,
      "Ġlife": 684,
      "Ġby": 685,
      "Ġbetter": 686,
      "Ġexp": 687,
      "Ġunderstand": 688,
      "ass": 689,
      "Ġfind": 690,
      "ter": 691,
      "Ġdif": 692,
      "iss": 693,
      "ment": 694,
      "use": 695,
      "Ġnever": 696,
      "Ġother": 697,
      "Ġbeing": 698,
      "ine": 699,
      "rent": 700,
      "Ġplay": 701,
      "Ġhanging": 702,
      "ĠN": 703,
      "eri": 704,
      "Ġaround": 705,
      "Ġdown": 706,
      "Ġlong": 707,
      "Ġdone": 708,
      "Ġshould": 709,
      "Ġmeet": 710,
      "Ġvery": 711,
      "Ġkind": 712,
      "ame": 713,
      "Ġpart": 714,
      "Ġcomp": 715,
      "Ġse": 716,
      "here": 717,
      "Ġsaw": 718,
      "aut": 719,
      "ĠP": 720,
      "Ġbeaut": 721,
      "Ġplace": 722,
      "Ġdec": 723,
      "Ġworking": 724,
      "Ġbit": 725,
      "Ġhear": 726,
      "Sure": 727,
      "iful": 728,
      "Ġlooks": 729,
      "Ġwhy": 730,
      "Ġbeautiful": 731,
      "rat": 732,
      "ase": 733,
      "Ġhaving": 734,
      "lcome": 735,
      "ried": 736,
      "Ġsch": 737,
      "ering": 738,
      "Ġtalking": 739,
      "erest": 740,
      "ia": 741,
      "Ġagain": 742,
      "Ġbu": 743,
      "gether": 744,
      "Ġsw": 745,
      "Ġdiffe": 746,
      "Ġinto": 747,
      "Ġinterest": 748,
      "Ġhur": 749,
      "rough": 750,
      "Ġasking": 751,
      "Ġtogether": 752,
      "Ġthrough": 753,
      "ĠG": 754,
      "Ġwho": 755,
      "mb": 756,
      "Ġbig": 757,
      "ru": 758,
      "Ġwill": 759,
      "Ġbad": 760,
      "Ġcare": 761,
      "han": 762,
      "Ġhas": 763,
      "Ġmiss": 764,
      "ose": 765,
      "Ġkeep": 766,
      "Ġact": 767,
      "Ġfine": 768,
      "Mom": 769,
      "Ġschool": 770,
      "Ġalright": 771,
      "able": 772,
      "ations": 773,
      "pt": 774,
      "Ġac": 775,
      "Ġsuch": 776,
      "Ġbest": 777,
      "ily": 778,
      "ince": 779,
      "Ġseen": 780,
      "Ġmyself": 781,
      "Ġfriends": 782,
      "Ġyourself": 783,
      "Ġfeels": 784,
      "Ġhurt": 785,
      "Ġfew": 786,
      "na": 787,
      "Ġwelcome": 788,
      "Ġmind": 789,
      "Ġtough": 790,
      "atch": 791,
      "fore": 792,
      "Ġwond": 793,
      "Ġgr": 794,
      "Ġbusy": 795,
      "Ġbefore": 796,
      "all": 797,
      "eek": 798,
      "Ġtaking": 799,
      "Ġsince": 800,
      "cause": 801,
      "ĠThis": 802,
      "Thanks": 803,
      "row": 804,
      "Ġpa": 805,
      "Ġple": 806,
      "Ġfound": 807,
      "Ġweek": 808,
      "Ġimport": 809,
      "ag": 810,
      "Ġbook": 811,
      "be": 812,
      "Ġimportant": 813,
      "ise": 814,
      "Ġmoney": 815,
      "Ġpo": 816,
      "Sarah": 817,
      "ence": 818,
      "ouse": 819,
      "ree": 820,
      "ject": 821,
      "ĠThat": 822,
      "Ġid": 823,
      "ult": 824,
      "Ġbecause": 825,
      "irst": 826,
      "Ġlear": 827,
      "Ġask": 828,
      "Ġyear": 829,
      "ions": 830,
      "Ġeve": 831,
      "ĠAre": 832,
      "Ġdifferent": 833,
      "Ġpr": 834,
      "Ġper": 835,
      "Ġmat": 836,
      "ĠJo": 837,
      "Ġstar": 838,
      "hing": 839,
      "Ġdef": 840,
      "Ġhouse": 841,
      "Ġshow": 842,
      "ĠAnd": 843,
      "Ġad": 844,
      "Ġdis": 845,
      "ĠSo": 846,
      "ait": 847,
      "oud": 848,
      "sp": 849,
      "'d": 850,
      "Ġworld": 851,
      "ually": 852,
      "init": 853,
      "Ġaf": 854,
      "Ġput": 855,
      "Ġready": 856,
      "ĠF": 857,
      "Ġidea": 858,
      "Ġhop": 859,
      "night": 860,
      "Ġdefinit": 861,
      "ies": 862,
      "ĠWhy": 863,
      "ue": 864,
      "Ġproject": 865,
      "Ġdefinitely": 866,
      "set": 867,
      "Ġenjoying": 868,
      "Ġgive": 869,
      "ctor": 870,
      "Ġtea": 871,
      "Ġwondering": 872,
      "Ġbrea": 873,
      "Ġle": 874,
      "Ġwhere": 875,
      "fect": 876,
      "Ġmaking": 877,
      "ible": 878,
      "Ġthen": 879,
      "Ġwal": 880,
      "Ġtonight": 881,
      "Ġread": 882,
      "Ġlea": 883,
      "Ġun": 884,
      "Ġown": 885,
      "ĠYour": 886,
      "Ġlast": 887,
      "iz": 888,
      "ident": 889,
      "Ġstay": 890,
      "Ġworried": 891,
      "Ġpain": 892,
      "Ġhaven": 893,
      "other": 894,
      "Ġupset": 895,
      "nce": 896,
      "Ġfirst": 897,
      "ĠDad": 898,
      "Ġdoes": 899,
      "gg": 900,
      "ĠMy": 901,
      "vo": 902,
      "Ġproud": 903,
      "Ġcame": 904,
      "rite": 905,
      "ime": 906,
      "Ġsweet": 907,
      "Ġacc": 908,
      "Ġuse": 909,
      "Ġfam": 910,
      "erson": 911,
      "Ġparty": 912,
      "Ġsit": 913,
      "ling": 914,
      "ĠThere": 915,
      "Ġmight": 916,
      "Ġche": 917,
      "ave": 918,
      "pport": 919,
      "Ġnotic": 920,
      "Ġwait": 921,
      "ire": 922,
      "Ġsha": 923,
      "ĠIs": 924,
      "igh": 925,
      "Ġplease": 926,
      "Ġstarting": 927,
      "Ġdes": 928,
      "Ġlearn": 929,
      "Ġsomeone": 930,
      "Ġshe": 931,
      "age": 932,
      "Ġthan": 933,
      "Ġhu": 934,
      "ance": 935,
      "sh": 936,
      "ory": 937,
      "Ġsm": 938,
      "Ġfo": 939,
      "Ġinterested": 940,
      "Ġcont": 941,
      "Ġcle": 942,
      "Ġnoticed": 943,
      "Ġaway": 944,
      "mp": 945,
      "Ġlost": 946,
      "Ġguess": 947,
      "Ġstill": 948,
      "Ġbr": 949,
      "ĠThank": 950,
      "Ġher": 951,
      "Ġeven": 952,
      "Ġnight": 953,
      "Ġra": 954,
      "ating": 955,
      "Ġcall": 956,
      "mber": 957,
      "erv": 958,
      "Ġsec": 959,
      "ute": 960,
      "ward": 961,
      "ian": 962,
      "ary": 963,
      ".\"": 964,
      "Ġchang": 965,
      "Ġsaid": 966,
      "ount": 967,
      "Ġsc": 968,
      "ork": 969,
      "ert": 970,
      "urn": 971,
      "Ġyears": 972,
      "Ġthese": 973,
      "Ġtired": 974,
      "hed": 975,
      "Ġwon": 976,
      "Ġgame": 977,
      "Ġspend": 978,
      "Ġfamily": 979,
      "Ġear": 980,
      "Ġwithout": 981,
      "Ġtrou": 982,
      "Ġguy": 983,
      "Ġfavo": 984,
      "int": 985,
      "hn": 986,
      "time": 987,
      "Ġang": 988,
      "Ġworry": 989,
      "Ġrun": 990,
      "Ġhead": 991,
      "any": 992,
      "Ġever": 993,
      "lax": 994,
      "Ġplan": 995,
      "Ġmove": 996,
      "Ġperson": 997,
      "Ġhand": 998,
      "Ġrelax": 999,
      "Ġactually": 1000,
      "Ġinc": 1001,
      "Ġclass": 1002,
      "Ġtra": 1003,
      "xt": 1004,
      "Ġperfect": 1005,
      "orm": 1006,
      "Ġtrouble": 1007,
      "Ġmin": 1008,
      "ĠThey": 1009,
      "..": 1010,
      "cess": 1011,
      "ak": 1012,
      "ild": 1013,
      "Ġeveryone": 1014,
      "ud": 1015,
      "This": 1016,
      "ather": 1017,
      "Ġmakes": 1018,
      "pe": 1019,
      "Ġel": 1020,
      "ulations": 1021,
      "ĠMr": 1022,
      "Ġfore": 1023,
      "Ġspe": 1024,
      "ner": 1025,
      "Ġfavorite": 1026,
      "ĠO": 1027,
      "ratulations": 1028,
      "ite": 1029,
      "ft": 1030,
      "ark": 1031,
      "Ġson": 1032,
      "Ġelse": 1033,
      "ided": 1034,
      "Ġmor": 1035,
      "Ġangry": 1036,
      "ail": 1037,
      "Ġstarted": 1038,
      "Ġhope": 1039,
      "Ġname": 1040,
      "Ġexperi": 1041,
      "Ġmorning": 1042,
      "Ġtest": 1043,
      "Ġla": 1044,
      "Ġmust": 1045,
      "Ġstru": 1046,
      "Ġdecided": 1047,
      "erve": 1048,
      "Ġheard": 1049,
      "iness": 1050,
      "Ġkid": 1051,
      "Ġpay": 1052,
      "Ġmany": 1053,
      "ract": 1054,
      "Ġafter": 1055,
      "Ġenough": 1056,
      "ater": 1057,
      "Ġsk": 1058,
      "by": 1059,
      "olut": 1060,
      "unity": 1061,
      "more": 1062,
      "ip": 1063,
      "work": 1064,
      "ated": 1065,
      "Ġstrugg": 1066,
      "Ġanymore": 1067,
      "Ġfl": 1068,
      "Ġonly": 1069,
      "Ġtri": 1070,
      "Ġmost": 1071,
      "uck": 1072,
      "ĠJohn": 1073,
      "Ġfr": 1074,
      "ne": 1075,
      "iv": 1076,
      "ressed": 1077,
      "Ġwatch": 1078,
      "Ġplaying": 1079,
      "Ġdeal": 1080,
      "Ġwent": 1081,
      "Ġmeans": 1082,
      "Ġstuff": 1083,
      "Ġeach": 1084,
      "Ġhim": 1085,
      "Ġcheck": 1086,
      "lor": 1087,
      "Ġfood": 1088,
      "side": 1089,
      "times": 1090,
      "ream": 1091,
      "Ġend": 1092,
      "per": 1093,
      "Ġfar": 1094,
      "Ġroom": 1095,
      "ign": 1096,
      "Ġbreak": 1097,
      "Ġlive": 1098,
      "med": 1099,
      "Ġforever": 1100,
      "Ġleave": 1101,
      "Ġold": 1102,
      "yn": 1103,
      "ished": 1104,
      "Ġdri": 1105,
      "Ġstruggling": 1106,
      "Ġnothing": 1107,
      "Ġcompany": 1108,
      "Ġfrust": 1109,
      "Ġnext": 1110,
      "Ġsl": 1111,
      "ĠWhere": 1112,
      "Ġbuy": 1113,
      "Ġsame": 1114,
      "are": 1115,
      "Ġstore": 1116,
      "iving": 1117,
      "ac": 1118,
      "Ġconf": 1119,
      "solut": 1120,
      "lyn": 1121,
      "cer": 1122,
      "so": 1123,
      "Ġrec": 1124,
      "ĠZ": 1125,
      "Ġbl": 1126,
      "son": 1127,
      "solutely": 1128,
      "ition": 1129,
      "ab": 1130,
      "Ġfrustrat": 1131,
      "Ġmus": 1132,
      "av": 1133,
      "les": 1134,
      "Ġteam": 1135,
      "rin": 1136,
      "ari": 1137,
      "Ġreme": 1138,
      "Ġseems": 1139,
      "cial": 1140,
      "Ġtheir": 1141,
      "Ġisn": 1142,
      "act": 1143,
      "Ġbusiness": 1144,
      "wn": 1145,
      "ix": 1146,
      "Just": 1147,
      "Ġlist": 1148,
      "Ġatt": 1149,
      "ongratulations": 1150,
      "Ġprom": 1151,
      "Ġalso": 1152,
      "where": 1153,
      "Ġclean": 1154,
      "aybe": 1155,
      "Ġhon": 1156,
      "Ġloved": 1157,
      "ho": 1158,
      "Ġdoctor": 1159,
      "Ġcity": 1160,
      "te": 1161,
      "Ġcouldn": 1162,
      "Ġhell": 1163,
      "Ġworked": 1164,
      "Ġremember": 1165,
      "Ġopport": 1166,
      "Ġmom": 1167,
      "Ġsweetie": 1168,
      "Good": 1169,
      "ĠY": 1170,
      "og": 1171,
      "Ġmonth": 1172,
      "Ġminute": 1173,
      "Ġsur": 1174,
      "Ġsecond": 1175,
      "Ġgiving": 1176,
      "Ġph": 1177,
      "Ġmusic": 1178,
      "Ġdad": 1179,
      "Ġforward": 1180,
      "Ġguys": 1181,
      "Ġthose": 1182,
      "Ġop": 1183,
      "Ġsometimes": 1184,
      "The": 1185,
      "als": 1186,
      "Ġturn": 1187,
      "Ġdog": 1188,
      "Ġcomm": 1189,
      "Ġused": 1190,
      "ever": 1191,
      "Ġcoll": 1192,
      "Ġincred": 1193,
      "Ġanyone": 1194,
      "Ġexperience": 1195,
      "Ġmov": 1196,
      "Ġbro": 1197,
      "ons": 1198,
      "Ġsuc": 1199,
      "Ġmeaning": 1200,
      "hes": 1201,
      "Ġmess": 1202,
      "Ġstop": 1203,
      "Ġmath": 1204,
      "Ġhomework": 1205,
      "Ġdeserve": 1206,
      "Ġcoach": 1207,
      "inner": 1208,
      "em": 1209,
      "ĠMar": 1210,
      "Ġtw": 1211,
      "Ġwalk": 1212,
      "ĠAn": 1213,
      "Ġmissed": 1214,
      "Ab": 1215,
      "ĠAm": 1216,
      "Ġpass": 1217,
      "Ġweeks": 1218,
      "Ġsho": 1219,
      "Ġmar": 1220,
      "Ġfig": 1221,
      "Ġincredible": 1222,
      "ib": 1223,
      "oth": 1224,
      "Ġchange": 1225,
      "Ġhit": 1226,
      "ana": 1227,
      "ash": 1228,
      "od": 1229,
      "Ġopportunity": 1230,
      "ense": 1231,
      "Ġsick": 1232,
      "Ġclose": 1233,
      "Ġfigure": 1234,
      "Ġwalking": 1235,
      "Ġsca": 1236,
      "Ġinv": 1237,
      "elt": 1238,
      "fort": 1239,
      "orrow": 1240,
      "Ġinteresting": 1241,
      "ord": 1242,
      "Ġresp": 1243,
      "Ġsupp": 1244,
      "iy": 1245,
      "Ġdinner": 1246,
      "Ġalone": 1247,
      "Ġliving": 1248,
      "Ġquest": 1249,
      "Ġset": 1250,
      "alth": 1251,
      "ĠHave": 1252,
      "Ġreading": 1253,
      "Ġeas": 1254,
      "Ġleft": 1255,
      "Ġwater": 1256,
      "form": 1257,
      "Ġlisten": 1258,
      "Ġsun": 1259,
      "du": 1260,
      "eeting": 1261,
      "Ġcool": 1262,
      "Ġmeeting": 1263,
      "Ġtrip": 1264,
      "Ġfelt": 1265,
      "Ġpick": 1266,
      "mm": 1267,
      "ervous": 1268,
      "Ġnervous": 1269,
      "Ġluck": 1270,
      "Ġhour": 1271,
      "ack": 1272,
      "Ġbring": 1273,
      "Ġgir": 1274,
      "iting": 1275,
      "Ġchance": 1276,
      "Ġbir": 1277,
      "Ġcatch": 1278,
      "Ġrep": 1279,
      "Ġwanting": 1280,
      "Ġwin": 1281,
      "ific": 1282,
      "lex": 1283,
      "Ġart": 1284,
      "Ġgone": 1285,
      "ike": 1286,
      "Ġres": 1287,
      "Ġneeded": 1288,
      "Ġlooked": 1289,
      "Don": 1290,
      "ĠEvery": 1291,
      "less": 1292,
      "ger": 1293,
      "Ġstudy": 1294,
      "erious": 1295,
      "Ġsoon": 1296,
      "Ġdays": 1297,
      "ten": 1298,
      "Ġfinished": 1299,
      "com": 1300,
      "Ġcolor": 1301,
      "ses": 1302,
      "Ġnews": 1303,
      "fic": 1304,
      "Ġspending": 1305,
      "eally": 1306,
      "osed": 1307,
      "Ġtwo": 1308,
      "erri": 1309,
      "Ġwish": 1310,
      "Ġ$": 1311,
      "ĠHe": 1312,
      "ction": 1313,
      "Ġscared": 1314,
      "ready": 1315,
      "Ġsuccess": 1316,
      "Ġalready": 1317,
      "zy": 1318,
      "Ġdrin": 1319,
      "cus": 1320,
      "Ġdream": 1321,
      "eace": 1322,
      "Absolutely": 1323,
      "Ġserious": 1324,
      "Ġgro": 1325,
      "Ġhappening": 1326,
      "Ġexact": 1327,
      "Ġquite": 1328,
      "Ġhoney": 1329,
      "Ġaw": 1330,
      "Ġaccident": 1331,
      "lus": 1332,
      "irt": 1333,
      "Ġbet": 1334,
      "Let": 1335,
      "ious": 1336,
      "Ġexactly": 1337,
      "ich": 1338,
      "Ġstand": 1339,
      "Ġap": 1340,
      "ello": 1341,
      "ĠMrs": 1342,
      "Ġhelping": 1343,
      "ny": 1344,
      "Really": 1345,
      "rove": 1346,
      "Ġstory": 1347,
      "Ġdecis": 1348,
      "Ġpeace": 1349,
      "Ġhealth": 1350,
      "ester": 1351,
      "Ġfight": 1352,
      "Ġexpl": 1353,
      "Ġste": 1354,
      "ual": 1355,
      "ĠV": 1356,
      "Ġsleep": 1357,
      "Ġcra": 1358,
      "Hello": 1359,
      "Ġmonths": 1360,
      "Ġcount": 1361,
      "esterday": 1362,
      "ught": 1363,
      "Ġmist": 1364,
      "Ġpres": 1365,
      "Ġru": 1366,
      "rence": 1367,
      "uation": 1368,
      "Ġyesterday": 1369,
      "Ġwasn": 1370,
      "Ġpos": 1371,
      "ina": 1372,
      "pped": 1373,
      "Ġdecide": 1374,
      "Ġdoesn": 1375,
      "gu": 1376,
      "ular": 1377,
      "Ġtown": 1378,
      "Okay": 1379,
      "Ġmovie": 1380,
      "Ġtook": 1381,
      "app": 1382,
      "Ġpark": 1383,
      "Dad": 1384,
      "Ġquick": 1385,
      "Ġmistake": 1386,
      "Ġgirl": 1387,
      "Ġcareful": 1388,
      "Ġbaby": 1389,
      "Ġho": 1390,
      "ĠYeah": 1391,
      "ined": 1392,
      "Ġcontro": 1393,
      "Ġfix": 1394,
      "Ġrunning": 1395,
      "Ġprog": 1396,
      "fortable": 1397,
      "Ġnat": 1398,
      "Ġfrustrated": 1399,
      "ap": 1400,
      "Ġchild": 1401,
      "Ġdet": 1402,
      "anna": 1403,
      "hel": 1404,
      "lier": 1405,
      "ertain": 1406,
      "ock": 1407,
      "Ġfinish": 1408,
      "Ġreal": 1409,
      "Ġlucky": 1410,
      "Ġearlier": 1411,
      "Ġty": 1412,
      "Ġconfident": 1413,
      "alm": 1414,
      "cing": 1415,
      "iew": 1416,
      "00": 1417,
      "...": 1418,
      "Ġrest": 1419,
      "Ġfocus": 1420,
      "ict": 1421,
      "Ġtalked": 1422,
      "Ġteach": 1423,
      "Do": 1424,
      "Ġcho": 1425,
      "Ġopen": 1426,
      "Ġkids": 1427,
      "ial": 1428,
      "ĠAd": 1429,
      "Ġimprove": 1430,
      "iet": 1431,
      "Ġsituation": 1432,
      "liz": 1433,
      "Ġpract": 1434,
      "edic": 1435,
      "Ġdan": 1436,
      "ĠPlus": 1437,
      "Ġmoving": 1438,
      "Ġdress": 1439,
      "Ġsafe": 1440,
      "ied": 1441,
      "oint": 1442,
      "Ġran": 1443,
      "Ġbabe": 1444,
      "Ġimag": 1445,
      "ures": 1446,
      "Ġpainting": 1447,
      "Ġcold": 1448,
      "Ġgrow": 1449,
      "Ġfall": 1450,
      "Ġyeah": 1451,
      "um": 1452,
      "Ġspea": 1453,
      "Ġcontrol": 1454,
      "rist": 1455,
      "Ġass": 1456,
      "Ġseeing": 1457,
      "den": 1458,
      "Ġspecial": 1459,
      "Ġwrit": 1460,
      "Ġcreat": 1461,
      "Ġhi": 1462,
      "ley": 1463,
      "Ġte": 1464,
      "Ġeat": 1465,
      "ining": 1466,
      "Ġtrust": 1467,
      "Ġsupposed": 1468,
      "Ġeasy": 1469,
      "cific": 1470,
      "ention": 1471,
      "Ġstuck": 1472,
      "ĠSha": 1473,
      "Ġboth": 1474,
      "Ġcolle": 1475,
      "Ġphone": 1476,
      "ris": 1477,
      "Ġthough": 1478,
      "Ġsupport": 1479,
      "Ġterri": 1480,
      "Ġvis": 1481,
      "Ġspecific": 1482,
      "Ġstud": 1483,
      "Ġposs": 1484,
      "ran": 1485,
      "Ġtried": 1486,
      "ower": 1487,
      "bor": 1488,
      "ness": 1489,
      "Great": 1490,
      "yl": 1491,
      "Ġfut": 1492,
      "pping": 1493,
      "ĠAlex": 1494,
      "erm": 1495,
      "Ġpleas": 1496,
      "Ġfuture": 1497,
      "Ġoutside": 1498,
      "ath": 1499,
      "Ġsmall": 1500,
      "Ġfu": 1501,
      "res": 1502,
      "llow": 1503,
      "Ġforg": 1504,
      "?\"": 1505,
      "Ġcollege": 1506,
      "head": 1507,
      "Ġcut": 1508,
      "ffee": 1509,
      "But": 1510,
      "How": 1511,
      "Ġtold": 1512,
      "gan": 1513,
      "ier": 1514,
      "Ġstrong": 1515,
      "Ġenjoyed": 1516,
      "ĠShe": 1517,
      "Ġcoffee": 1518,
      "Ġpot": 1519,
      "Ġlight": 1520,
      "Ġcalm": 1521,
      "Ġhours": 1522,
      "Ġstressed": 1523,
      "Ġoverw": 1524,
      "Ġpur": 1525,
      "air": 1526,
      "Ġey": 1527,
      "ret": 1528,
      "mo": 1529,
      "Ġdisapp": 1530,
      "Ġcons": 1531,
      "Ġmatter": 1532,
      "Ġdrink": 1533,
      "Ġanother": 1534,
      "Ġknew": 1535,
      "lic": 1536,
      "Ġfollow": 1537,
      "Ġpast": 1538,
      "Ġclot": 1539,
      "Ġworth": 1540,
      "unch": 1541,
      "hen": 1542,
      "Ġdifference": 1543,
      "Ġimagine": 1544,
      "up": 1545,
      "ens": 1546,
      "ficult": 1547,
      "Ġdifficult": 1548,
      "Ġyet": 1549,
      "Ġtop": 1550,
      "rents": 1551,
      "Ġfault": 1552,
      "Ġoverwhel": 1553,
      "ob": 1554,
      "Ġhair": 1555,
      "Ġopt": 1556,
      "Ġcalled": 1557,
      "Ġanywhere": 1558,
      "Ġtelling": 1559,
      "Ġwear": 1560,
      "Ġinve": 1561,
      "Ġbirth": 1562,
      "Congratulations": 1563,
      "ken": 1564,
      "Ġgra": 1565,
      "Ġbed": 1566,
      "ĠDe": 1567,
      "Ġgrad": 1568,
      "Ġbooks": 1569,
      "Ġshare": 1570,
      "Ġdep": 1571,
      "Ġothers": 1572,
      "Ġhoping": 1573,
      "Ġprodu": 1574,
      "ĠMa": 1575,
      "Ġwhole": 1576,
      "Ġwouldn": 1577,
      "Ġdeli": 1578,
      "ĠSt": 1579,
      "Ġtom": 1580,
      "hip": 1581,
      "coming": 1582,
      "Ġpromise": 1583,
      "Ġfre": 1584,
      "Ġtalent": 1585,
      "Ġstre": 1586,
      "der": 1587,
      "Ġwaiting": 1588,
      "ma": 1589,
      "ĠNo": 1590,
      "Ġpie": 1591,
      "Ġeff": 1592,
      "Ġsing": 1593,
      "Ġwar": 1594,
      "ik": 1595,
      "Ġbecome": 1596,
      "Ġclothes": 1597,
      "Ġfit": 1598,
      "Ġhigh": 1599,
      "ross": 1600,
      "Ġanim": 1601,
      "Ġparents": 1602,
      "Ġbirthday": 1603,
      "Ġwatching": 1604,
      "let": 1605,
      "Ġmaybe": 1606,
      "Ġrespons": 1607,
      "cious": 1608,
      "Ġtreat": 1609,
      "Ġsaying": 1610,
      "ills": 1611,
      "Ġwind": 1612,
      "âĢ": 1613,
      "hind": 1614,
      "Ġbehind": 1615,
      "Ġlearning": 1616,
      "Ġmad": 1617,
      "ĠCh": 1618,
      "Ġair": 1619,
      "Ġhung": 1620,
      "Ġdriving": 1621,
      "Ġ1": 1622,
      "Ġrealiz": 1623,
      "Ġspeak": 1624,
      "iah": 1625,
      "Ġbother": 1626,
      "man": 1627,
      "Ġhist": 1628,
      "raid": 1629,
      "ighbor": 1630,
      "ertainly": 1631,
      "uri": 1632,
      "Ġdecision": 1633,
      "Ġfast": 1634,
      "de": 1635,
      "vel": 1636,
      "Ġweather": 1637,
      "Ġtimes": 1638,
      "pl": 1639,
      "oup": 1640,
      "Ġcomfortable": 1641,
      "Ġterrible": 1642,
      "ds": 1643,
      "Ġcat": 1644,
      "Ġshouldn": 1645,
      "ize": 1646,
      "Ġletting": 1647,
      "Ġanx": 1648,
      "ked": 1649,
      "Ġfree": 1650,
      "Ġfire": 1651,
      "Ġexpect": 1652,
      "Ġrel": 1653,
      "onest": 1654,
      "ors": 1655,
      "Ġpleasure": 1656,
      "Ġagree": 1657,
      "Ġtomorrow": 1658,
      "Ġgosh": 1659,
      "Ġpoint": 1660,
      "evel": 1661,
      "lee": 1662,
      "ved": 1663,
      "ĠCongratulations": 1664,
      "Ġinst": 1665,
      "ility": 1666,
      "Ġdisappoint": 1667,
      "ren": 1668,
      "vi": 1669,
      "ĠJoe": 1670,
      "Ġneighbor": 1671,
      "cept": 1672,
      "Ġadv": 1673,
      "Ġafraid": 1674,
      "Ġcook": 1675,
      "Ġbuild": 1676,
      "lie": 1677,
      "Ġcur": 1678,
      "Ġtoy": 1679,
      "Ġevent": 1680,
      "Ġpeaceful": 1681,
      "do": 1682,
      "olog": 1683,
      "Ġhistory": 1684,
      "ient": 1685,
      "ential": 1686,
      "Ġcrazy": 1687,
      "ron": 1688,
      "Ġbla": 1689,
      "ouch": 1690,
      "Ġboard": 1691,
      "Ġfair": 1692,
      "Ġshirt": 1693,
      "Ġpassion": 1694,
      "Ġimpressed": 1695,
      "Ġpossible": 1696,
      "Ġhot": 1697,
      "ĠDid": 1698,
      "Ġlead": 1699,
      "Ġlau": 1700,
      "Ġcaught": 1701,
      "Ġext": 1702,
      "Ġpresent": 1703,
      "itch": 1704,
      "Ġtype": 1705,
      "sing": 1706,
      "Ġahead": 1707,
      "Ġclear": 1708,
      "ray": 1709,
      "Ġcaus": 1710,
      "Ġstudying": 1711,
      "ming": 1712,
      "Ġpiece": 1713,
      "Ġconc": 1714,
      "Ġbrings": 1715,
      "Ġbud": 1716,
      "Ġexam": 1717,
      "rew": 1718,
      "Ġoffer": 1719,
      "Can": 1720,
      "ift": 1721,
      "ĠNow": 1722,
      "Ġprogress": 1723,
      "ĠWhen": 1724,
      "Ġadd": 1725,
      "led": 1726,
      "Ġproduct": 1727,
      "Ġkey": 1728,
      "Ġapart": 1729,
      "ĠIf": 1730,
      "Ġret": 1731,
      "Ġtrue": 1732,
      "vers": 1733,
      "Ġhands": 1734,
      "Ġdisc": 1735,
      "Ġmeant": 1736,
      "Ġquestion": 1737,
      "llen": 1738,
      "ther": 1739,
      "ced": 1740,
      "ments": 1741,
      "Ġfinding": 1742,
      "Ġsy": 1743,
      "Ġago": 1744,
      "Ġgod": 1745,
      "Ġpaper": 1746,
      "Ġoptions": 1747,
      "Ġlunch": 1748,
      "oment": 1749,
      "br": 1750,
      "ying": 1751,
      "Ġfresh": 1752,
      "line": 1753,
      "Ġreg": 1754,
      "ĠJa": 1755,
      "ities": 1756,
      "Ġmoment": 1757,
      "sw": 1758,
      "Ġfull": 1759,
      "Ġhat": 1760,
      "Ġdisappointed": 1761,
      "Ġpotential": 1762,
      "Ġground": 1763,
      "Ġsell": 1764,
      "ither": 1765,
      "Ġsad": 1766,
      "Ġusual": 1767,
      "Ġsurp": 1768,
      "ude": 1769,
      "mell": 1770,
      "ton": 1771,
      "Ġplaces": 1772,
      "ĠRe": 1773,
      "Ġvisit": 1774,
      "Ġpict": 1775,
      "Ġcake": 1776,
      "ored": 1777,
      "erg": 1778,
      "Ġinside": 1779,
      "ĠMaybe": 1780,
      "Ġstreet": 1781,
      "ĠSome": 1782,
      "Ġoverwhelmed": 1783,
      "ates": 1784,
      "Ġri": 1785,
      "Ġwonder": 1786,
      "ĠCar": 1787,
      "iqu": 1788,
      "ani": 1789,
      "fit": 1790,
      "Ġbas": 1791,
      "Ġansw": 1792,
      "Ġcult": 1793,
      "search": 1794,
      "cket": 1795,
      "Ġsuccessful": 1796,
      "ĠU": 1797,
      "ĠAl": 1798,
      "Ġcomput": 1799,
      "nect": 1800,
      "Ġinvest": 1801,
      "Ġheart": 1802,
      "Ġperform": 1803,
      "ya": 1804,
      "Ġcountry": 1805,
      "Ġpri": 1806,
      "Ġconsid": 1807,
      "Ġyoung": 1808,
      "Ġface": 1809,
      "Ġresearch": 1810,
      "Ġunt": 1811,
      "ween": 1812,
      "io": 1813,
      "Ġbetween": 1814,
      "Ġhonest": 1815,
      "Ġwow": 1816,
      "ird": 1817,
      "Ġfeelings": 1818,
      "Ġwriting": 1819,
      "Ġfail": 1820,
      "Ġearly": 1821,
      "Ġsmell": 1822,
      "Ġdelicious": 1823,
      "ub": 1824,
      "Ġdra": 1825,
      "lo": 1826,
      "Ġhold": 1827,
      "Ġalong": 1828,
      "Ġattention": 1829,
      "ĠEm": 1830,
      "Ġacting": 1831,
      "Ġfell": 1832,
      "pa": 1833,
      "ĠAb": 1834,
      "ves": 1835,
      "ĠSm": 1836,
      "Ġdear": 1837,
      "Who": 1838,
      "arr": 1839,
      "Ġtru": 1840,
      "Ġposition": 1841,
      "Ġnotice": 1842,
      "Ġliked": 1843,
      "ateful": 1844,
      "vent": 1845,
      "ush": 1846,
      "Ġforgot": 1847,
      "Ġturned": 1848,
      "Ġside": 1849,
      "most": 1850,
      "lin": 1851,
      "Ġshoes": 1852,
      "ĠHere": 1853,
      "ĠKa": 1854,
      "Ġgrateful": 1855,
      "Ġputting": 1856,
      "Ġquestions": 1857,
      "ĠSmith": 1858,
      "Ġju": 1859,
      "Ġuntil": 1860,
      "Ġsmo": 1861,
      "za": 1862,
      "Ġem": 1863,
      "Ġfrustrating": 1864,
      "ket": 1865,
      "asses": 1866,
      "Ġmoved": 1867,
      "Ġhungry": 1868,
      "Ġdeep": 1869,
      "ĠCha": 1870,
      "Ġmedic": 1871,
      "ĠNice": 1872,
      "Ġreport": 1873,
      "Ġkill": 1874,
      "Ġbrought": 1875,
      "ĠEverything": 1876,
      "Aw": 1877,
      "Ġhis": 1878,
      "ven": 1879,
      "Ġshort": 1880,
      "Ġbought": 1881,
      "Ġsense": 1882,
      "Ġconnect": 1883,
      "ĠLe": 1884,
      "Ġeffort": 1885,
      "leigh": 1886,
      "iyah": 1887,
      "Ġinviting": 1888,
      "ann": 1889,
      "ener": 1890,
      "Ġview": 1891,
      "Ġrelations": 1892,
      "Ġref": 1893,
      "Ġbike": 1894,
      "ilt": 1895,
      "ene": 1896,
      "Ġjoin": 1897,
      "Ġalmost": 1898,
      "Ġline": 1899,
      "Ġasked": 1900,
      "ili": 1901,
      "Ġwall": 1902,
      "ple": 1903,
      "Doctor": 1904,
      "Ġchallen": 1905,
      "ĠJay": 1906,
      "Ġcust": 1907,
      "ding": 1908,
      "Ġorder": 1909,
      "Ġinform": 1910,
      "Ġpaid": 1911,
      "Ġ\"": 1912,
      "Ġaff": 1913,
      "ics": 1914,
      "itive": 1915,
      "lection": 1916,
      "Ġextra": 1917,
      "Ġrelationship": 1918,
      "Ġpower": 1919,
      "ĠAr": 1920,
      "eries": 1921,
      "Ġdate": 1922,
      "Ġent": 1923,
      "Ġborrow": 1924,
      "Ġdoor": 1925,
      "Ġfather": 1926,
      "Ġwhich": 1927,
      "Ġarm": 1928,
      "Ġemb": 1929,
      "Ġcomputer": 1930,
      "hood": 1931,
      "Ġcli": 1932,
      "Ġaccount": 1933,
      "ical": 1934,
      "Ġach": 1935,
      "Ġsir": 1936,
      "Ġcase": 1937,
      "Ġadm": 1938,
      "Ġaccom": 1939,
      "Ġsign": 1940,
      "Ġstudent": 1941,
      "Jo": 1942,
      "Ġali": 1943,
      "Ġsong": 1944,
      "Ġbeach": 1945,
      "Ġleg": 1946,
      "iya": 1947,
      "Ġpaying": 1948,
      "ans": 1949,
      "ara": 1950,
      "Ġsol": 1951,
      "Ġhuge": 1952,
      "Ġorgan": 1953,
      "Ġeither": 1954,
      "ister": 1955,
      "rying": 1956,
      "Ġanimals": 1957,
      "Ġquickly": 1958,
      "Ġfunny": 1959,
      "ife": 1960,
      "Ġsmart": 1961,
      "Ġskills": 1962,
      "Ġinter": 1963,
      "Ġhealthy": 1964,
      "ney": 1965,
      "Ġflow": 1966,
      "Ġpop": 1967,
      "Ġcoo": 1968,
      "Ġrid": 1969,
      "Ġcurrent": 1970,
      "Ġlaw": 1971,
      "Ġcustom": 1972,
      "Ġide": 1973,
      "Ġgrab": 1974,
      "Ġswim": 1975,
      "Ġpack": 1976,
      "cially": 1977,
      "Ġblue": 1978,
      "Ġfish": 1979,
      "Ġbor": 1980,
      "Ġcomplet": 1981,
      "Me": 1982,
      "Ġstep": 1983,
      "Ġways": 1984,
      "Ġplanning": 1985,
      "Ġchoice": 1986,
      "yle": 1987,
      "Ġgrand": 1988,
      "ĠKe": 1989,
      "Ġagainst": 1990,
      "ural": 1991,
      "Ġdro": 1992,
      "bo": 1993,
      "Ġless": 1994,
      "osp": 1995,
      "ĠJam": 1996,
      "Ġits": 1997,
      "fess": 1998,
      "unt": 1999,
      "ĠCome": 2000,
      "Ġaccompl": 2001,
      "Ġride": 2002,
      "Ġweekend": 2003,
      "Ġpractic": 2004,
      "Ġsn": 2005,
      "lynn": 2006,
      "rand": 2007,
      "Ġmateri": 2008,
      "Ġquiet": 2009,
      "Ġfly": 2010,
      "Ġnu": 2011,
      "Ġreach": 2012,
      "aya": 2013,
      "elle": 2014,
      "pid": 2015,
      "Ġdist": 2016,
      "Ġkeeping": 2017,
      "Ġinformation": 2018,
      "Ġleaving": 2019,
      "Ġcertainly": 2020,
      "ably": 2021,
      "Ġpromot": 2022,
      "Ġanswer": 2023,
      "Ġusing": 2024,
      "Ġmet": 2025,
      "Ex": 2026,
      "Ġwhatever": 2027,
      "Ġvide": 2028,
      "Ġexplore": 2029,
      "Ġbody": 2030,
      "arrass": 2031,
      "ieve": 2032,
      "ae": 2033,
      "Ġcor": 2034,
      "Ġembarrass": 2035,
      "mend": 2036,
      "Ġfront": 2037,
      "Ġcomes": 2038,
      "Ġproblems": 2039,
      "aken": 2040,
      "Ġteacher": 2041,
      "ĠSa": 2042,
      "ired": 2043,
      "Ġbroke": 2044,
      "Ġwrite": 2045,
      "Ġmot": 2046,
      "Ġdeterm": 2047,
      "Ġmay": 2048,
      "ital": 2049,
      "cha": 2050,
      "Ġafford": 2051,
      "Ġvac": 2052,
      "Ġwindow": 2053,
      "Ġmanag": 2054,
      "isha": 2055,
      "Ġtouch": 2056,
      "Ġonce": 2057,
      "Ġeating": 2058,
      "Ġwilling": 2059,
      "Ġstupid": 2060,
      "Ġnature": 2061,
      "loy": 2062,
      "Ġquit": 2063,
      "Ġrecent": 2064,
      "ĠDon": 2065,
      "Ġalive": 2066,
      "Ġconst": 2067,
      "Ġanxious": 2068,
      "Ġabsolutely": 2069,
      "ĠWelcome": 2070,
      "Ġideas": 2071,
      "ings": 2072,
      "Ġpartic": 2073,
      "Ġrace": 2074,
      "Ġexciting": 2075,
      "ique": 2076,
      "Ġann": 2077,
      "Ġinsp": 2078,
      "Ġgrades": 2079,
      "arden": 2080,
      "Ġspecifically": 2081,
      "icer": 2082,
      "Ġtot": 2083,
      "ibility": 2084,
      "Ġlose": 2085,
      "Ġsaving": 2086,
      "Ġvo": 2087,
      "Ġforget": 2088,
      "oman": 2089,
      "ony": 2090,
      "Ġserv": 2091,
      "Ġsurpris": 2092,
      "Ġcareer": 2093,
      "Ġstress": 2094,
      "Ġprot": 2095,
      "Ġneeds": 2096,
      "und": 2097,
      "cy": 2098,
      "Ġmarried": 2099,
      "Ġachieve": 2100,
      "uring": 2101,
      "Ġcolors": 2102,
      "ceries": 2103,
      "Ġgroceries": 2104,
      "sue": 2105,
      "ories": 2106,
      "ins": 2107,
      "iring": 2108,
      "Ġnatural": 2109,
      "lace": 2110,
      "Ġlearned": 2111,
      "Ġemp": 2112,
      "Ġflo": 2113,
      "Ġspace": 2114,
      "Ġstran": 2115,
      "Ġmistakes": 2116,
      "ĠTy": 2117,
      "Ġhandle": 2118,
      "Ġweight": 2119,
      "ric": 2120,
      "Ġnoise": 2121,
      "Ġlives": 2122,
      "Ġticket": 2123,
      "Ġroad": 2124,
      "gest": 2125,
      "Ġprob": 2126,
      "lice": 2127,
      "ned": 2128,
      "Ġboy": 2129,
      "Ġseat": 2130,
      "Ġpassionate": 2131,
      "Ġcommunity": 2132,
      "Ġhurts": 2133,
      "Ġmood": 2134,
      "ball": 2135,
      "cri": 2136,
      "Ġservice": 2137,
      "ster": 2138,
      "edu": 2139,
      "Ġdam": 2140,
      "cks": 2141,
      "Ġbroken": 2142,
      "utes": 2143,
      "Ġdance": 2144,
      "Ġob": 2145,
      "Ġfan": 2146,
      "ized": 2147,
      "Ġopin": 2148,
      "erry": 2149,
      "ĠMs": 2150,
      "ĠJake": 2151,
      "vor": 2152,
      "ĠJu": 2153,
      "Ġgames": 2154,
      "Ġoften": 2155,
      "Ġball": 2156,
      "Ġresult": 2157,
      "ety": 2158,
      "Ġgarden": 2159,
      "my": 2160,
      "ĠMe": 2161,
      "alyn": 2162,
      "Ġminutes": 2163,
      "Ġta": 2164,
      "Ġdrive": 2165,
      "Ġexplain": 2166,
      "col": 2167,
      "Ġice": 2168,
      "Ġsave": 2169,
      "Ġrecom": 2170,
      "ella": 2171,
      "ilk": 2172,
      "Ġrecommend": 2173,
      "Ġcute": 2174,
      "Ġdark": 2175,
      "Where": 2176,
      "Ġhappens": 2177,
      "Ġlovely": 2178,
      "Ġvideo": 2179,
      "Ġbreath": 2180,
      "Ġfollowing": 2181,
      "Ġsurprised": 2182,
      "Ġprobably": 2183,
      "ĠIn": 2184,
      "Ġsto": 2185,
      "ately": 2186,
      "Aww": 2187,
      "Ġpracticing": 2188,
      "bb": 2189,
      "Ġgift": 2190,
      "cery": 2191,
      "Ġdishes": 2192,
      "Ġpractice": 2193,
      "ai": 2194,
      "Ġprocess": 2195,
      "ĠBri": 2196,
      "Ġlonger": 2197,
      "Ġbra": 2198,
      "orge": 2199,
      "Ġchar": 2200,
      "cuse": 2201,
      "Ġdoc": 2202,
      "Ġgrocery": 2203,
      "Ġtree": 2204,
      "Ġeye": 2205,
      "Ġtalented": 2206,
      "oach": 2207,
      "Ġcamp": 2208,
      "Ġcong": 2209,
      "Ġeyes": 2210,
      "Ġeverywhere": 2211,
      "Ġcompletely": 2212,
      "Ġsim": 2213,
      "ĠWho": 2214,
      "Ġperfectly": 2215,
      "Ġwarm": 2216,
      "ane": 2217,
      "Ġchick": 2218,
      "ants": 2219,
      "Ġspot": 2220,
      "Ġsecret": 2221,
      "Ġmother": 2222,
      "Ġdepend": 2223,
      "ĠChrist": 2224,
      "Ġvoice": 2225,
      "Ġcard": 2226,
      "Ġhate": 2227,
      "Excuse": 2228,
      "ressive": 2229,
      "light": 2230,
      "Ġrealized": 2231,
      "spe": 2232,
      "dden": 2233,
      "Ġrain": 2234,
      "Ġraise": 2235,
      "Ġsudden": 2236,
      "ama": 2237,
      "specially": 2238,
      "Are": 2239,
      "uss": 2240,
      "Ġflowers": 2241,
      "Ġbored": 2242,
      "Ġacross": 2243,
      "oke": 2244,
      "Ġchoo": 2245,
      "Ġtakes": 2246,
      "Ġenerg": 2247,
      "Ġlaugh": 2248,
      "Ġlistening": 2249,
      "Ġmaterial": 2250,
      "Ġpet": 2251,
      "Ġlibr": 2252,
      "Ġsister": 2253,
      "ĠAs": 2254,
      "Ġapolog": 2255,
      "aur": 2256,
      "Ġscary": 2257,
      "sel": 2258,
      "ĠGod": 2259,
      "dle": 2260,
      "Ġthrow": 2261,
      "Ġexha": 2262,
      "Ġreason": 2263,
      "Ġred": 2264,
      "att": 2265,
      "Ġclasses": 2266,
      "Ġselection": 2267,
      "Ġaccept": 2268,
      "cell": 2269,
      "ram": 2270,
      "iana": 2271,
      "Ġsitting": 2272,
      "Ġoffice": 2273,
      "idence": 2274,
      "Ġonline": 2275,
      "Ġadvice": 2276,
      "Ġpopular": 2277,
      "erc": 2278,
      "pect": 2279,
      "ĠLily": 2280,
      "Ġespecially": 2281,
      "Ġpat": 2282,
      "Ġvacation": 2283,
      "usted": 2284,
      "iel": 2285,
      "âĢĻ": 2286,
      "enty": 2287,
      "Ġkitch": 2288,
      "ĠEl": 2289,
      "Ġtaken": 2290,
      "asc": 2291,
      "Ġwords": 2292,
      "lease": 2293,
      "urious": 2294,
      "Ġkitchen": 2295,
      "Ġins": 2296,
      "Ġdanger": 2297,
      "Ġqual": 2298,
      "Ġma": 2299,
      "Ġcost": 2300,
      "Ġdetermined": 2301,
      "Ġhelped": 2302,
      "ĠKay": 2303,
      "Ġval": 2304,
      "Ġcausing": 2305,
      "Ġlibrary": 2306,
      "ĠLu": 2307,
      "ppy": 2308,
      "Ġchicken": 2309,
      "Ġprop": 2310,
      "Ġeng": 2311,
      "Ġbur": 2312,
      "Ġneighborhood": 2313,
      "Ġwoman": 2314,
      "Ġopinion": 2315,
      "Ġgave": 2316,
      "ative": 2317,
      "Ġsub": 2318,
      "Ġgener": 2319,
      "Ġconcer": 2320,
      "Ġdetail": 2321,
      "Ġgoals": 2322,
      "ĠKy": 2323,
      "ica": 2324,
      "Ġve": 2325,
      "ries": 2326,
      "Ġclos": 2327,
      "Ġawful": 2328,
      "Ġbar": 2329,
      "ask": 2330,
      "Ġcandy": 2331,
      "Ġemploy": 2332,
      "Ġdedic": 2333,
      "Ġhosp": 2334,
      "ena": 2335,
      "Ġannoy": 2336,
      "Ġbright": 2337,
      "Ġpositive": 2338,
      "Ġneck": 2339,
      "Ġhearing": 2340,
      "Ġletter": 2341,
      "Ġwonderful": 2342,
      "era": 2343,
      "co": 2344,
      "vin": 2345,
      "ĠTV": 2346,
      "Ġris": 2347,
      "Ġtrack": 2348,
      "Ġsky": 2349,
      "Ġprov": 2350,
      "lia": 2351,
      "Ġphot": 2352,
      "Ġapartment": 2353,
      "ĠJon": 2354,
      "Ġda": 2355,
      "Ġsand": 2356,
      "aly": 2357,
      "Ġenergy": 2358,
      "Ġgorge": 2359,
      "Ġgorgeous": 2360,
      "evelop": 2361,
      "My": 2362,
      "Ġconsidering": 2363,
      "reen": 2364,
      "round": 2365,
      "rap": 2366,
      "Ġhospital": 2367,
      "ila": 2368,
      "ging": 2369,
      "Ġexerc": 2370,
      "ĠNot": 2371,
      "Ġland": 2372,
      "Ġlatest": 2373,
      "Ġchocol": 2374,
      "ĠMal": 2375,
      "Ġunderstanding": 2376,
      "Ġofficer": 2377,
      "Ġgotten": 2378,
      "Ġcooking": 2379,
      "ĠEveryone": 2380,
      "ead": 2381,
      "yen": 2382,
      "Ġblack": 2383,
      "Ġpaint": 2384,
      "Ġtravel": 2385,
      "Ġfinan": 2386,
      "Ġparticular": 2387,
      "Ġsug": 2388,
      "Ġmissing": 2389,
      "Ġdevelop": 2390,
      "Ġrent": 2391,
      "Ġcongratulations": 2392,
      "eal": 2393,
      "Ġpicture": 2394,
      "Ġvi": 2395,
      "Ġresponsibility": 2396,
      "Ġpen": 2397,
      "Ġev": 2398,
      "nn": 2399,
      "Ġduring": 2400,
      "eth": 2401,
      "Ġcurious": 2402,
      "Ġrespect": 2403,
      "ira": 2404,
      "Ġplenty": 2405,
      "Ġprotect": 2406,
      "Ġfalling": 2407,
      "Ġbecoming": 2408,
      "lect": 2409,
      "Ġlie": 2410,
      "ield": 2411,
      "There": 2412,
      "Ġexhausted": 2413,
      "Ġcream": 2414,
      "ĠKen": 2415,
      "Ġfighting": 2416,
      "pared": 2417,
      "ĠKar": 2418,
      "ĠKam": 2419,
      "Ġembarrassed": 2420,
      "rest": 2421,
      "Ġcr": 2422,
      "Ġdancing": 2423,
      "Coach": 2424,
      "Ġstrange": 2425,
      "Ġgiven": 2426,
      "Ġstock": 2427,
      "Ġmeal": 2428,
      "ending": 2429,
      "cle": 2430,
      "Ġlone": 2431,
      "Mr": 2432,
      "Ġgroup": 2433,
      "ĠWould": 2434,
      "Ġcompet": 2435,
      "Ġ-": 2436,
      "Ġpolice": 2437,
      "Ġpub": 2438,
      "ĠHar": 2439,
      "Ġbeat": 2440,
      "ĠAll": 2441,
      "ĠSam": 2442,
      "Ġcause": 2443,
      "ĠNew": 2444,
      "Ġcreate": 2445,
      "Ġchanges": 2446,
      "ring": 2447,
      "Ġmine": 2448,
      "ĠThese": 2449,
      "Ġmovies": 2450,
      "ees": 2451,
      "Ġculture": 2452,
      "Ġlonely": 2453,
      "Ġdiv": 2454,
      "Ġloc": 2455,
      "Ġargu": 2456,
      "room": 2457,
      "Ġprepared": 2458,
      "Ġjour": 2459,
      "Ġsteal": 2460,
      "aste": 2461,
      "Ġchoose": 2462,
      "Ġdoll": 2463,
      "Ġheaded": 2464,
      "Ġcond": 2465,
      "tery": 2466,
      "Ġfriendly": 2467,
      "ĠSh": 2468,
      "ascin": 2469,
      "Ġadvent": 2470,
      "no": 2471,
      "Ġfascin": 2472,
      "Ġdecisions": 2473,
      "Ġpull": 2474,
      "Ġshopping": 2475,
      "Ġlevel": 2476,
      "stem": 2477,
      "Ġworse": 2478,
      "Ġfloor": 2479,
      "ze": 2480,
      "sha": 2481,
      "Ġmid": 2482,
      "Ġreli": 2483,
      "Ġnear": 2484,
      "ĠNgu": 2485,
      "ĠNguyen": 2486,
      "Ġ(": 2487,
      "Ġskin": 2488,
      "Ġrestaur": 2489,
      "Ġbuddy": 2490,
      "rity": 2491,
      "Ġconstant": 2492,
      "Ġtable": 2493,
      "Ġmed": 2494,
      "Ġleast": 2495,
      "ps": 2496,
      "ĠAf": 2497,
      "ery": 2498,
      "pes": 2499,
      "iding": 2500,
      "Ġperformance": 2501,
      "Ġrole": 2502,
      "Look": 2503,
      "Ġcollect": 2504,
      "asha": 2505,
      "Ġstate": 2506,
      "Ġcleaning": 2507,
      "Ġresults": 2508,
      "Ġdepends": 2509,
      "del": 2510,
      "Ġoutfit": 2511,
      "onna": 2512,
      "Ġfla": 2513,
      "urch": 2514,
      "Ġunf": 2515,
      "Ġpun": 2516,
      "Ġarea": 2517,
      "Ġsinging": 2518,
      "Ġsli": 2519,
      "Ġchocolate": 2520,
      "Ġimpressive": 2521,
      "land": 2522,
      "ora": 2523,
      "ĠChe": 2524,
      "Ġfoot": 2525,
      "Ġbill": 2526,
      "Ġdesign": 2527,
      "Ġpar": 2528,
      "Ġchat": 2529,
      "Ġsystem": 2530,
      "Ġplans": 2531,
      "Ġsort": 2532,
      "ĠAv": 2533,
      "ĠOur": 2534,
      "uro": 2535,
      "Ġind": 2536,
      "Ġweb": 2537,
      "ĠAri": 2538,
      "ĠKait": 2539,
      "oss": 2540,
      "ines": 2541,
      "ison": 2542,
      "ides": 2543,
      "Ġrecently": 2544,
      "ĠAmer": 2545,
      "ĠX": 2546,
      "Ġlosing": 2547,
      "Ġbuying": 2548,
      "Ġconvers": 2549,
      "Ġpress": 2550,
      "Ġthree": 2551,
      "Ġoffering": 2552,
      "ĠRy": 2553,
      "Ġchildren": 2554,
      "Ġdru": 2555,
      "Ġhuh": 2556,
      "nge": 2557,
      "Ġsale": 2558,
      "Ġtask": 2559,
      "Ġusually": 2560,
      "Ġupcoming": 2561,
      "hings": 2562,
      "John": 2563,
      "Ġmodel": 2564,
      "ĠFor": 2565,
      "They": 2566,
      "ĠUn": 2567,
      "selves": 2568,
      "Ġcross": 2569,
      "Ġhor": 2570,
      "cut": 2571,
      "ĠRay": 2572,
      "Ġfinishing": 2573,
      "Ġchurch": 2574,
      "Ġrisk": 2575,
      "Ġresponsible": 2576,
      "Ġhelpful": 2577,
      "von": 2578,
      "ges": 2579,
      "men": 2580,
      "Ġnecklace": 2581,
      "Ġinj": 2582,
      "Ġmotiv": 2583,
      "Ġnumber": 2584,
      "Ġrelaxing": 2585,
      "vern": 2586,
      "ĠFirst": 2587,
      "Ġ2": 2588,
      "Ġinstead": 2589,
      "Ġgoodness": 2590,
      "Ġeventually": 2591,
      "lan": 2592,
      "Ġkiddo": 2593,
      "Ġself": 2594,
      "Ġrestaurant": 2595,
      "Ġbuilding": 2596,
      "Ġhowever": 2597,
      "Ġkeys": 2598,
      "ĠBe": 2599,
      "Ġcalling": 2600,
      "Ġdire": 2601,
      "mmer": 2602,
      "Ġselling": 2603,
      "Ġbeha": 2604,
      "ars": 2605,
      "ott": 2606,
      "Ġavo": 2607,
      "Ġform": 2608,
      "Ġbag": 2609,
      "Ġwearing": 2610,
      "Ġtruly": 2611,
      "Ġprofess": 2612,
      "Ġdiscuss": 2613,
      "ional": 2614,
      "viron": 2615,
      "Ġfield": 2616,
      "Ġconfus": 2617,
      "Ġmanage": 2618,
      "Ġyell": 2619,
      "edding": 2620,
      "body": 2621,
      "Ġsoft": 2622,
      "Ġcontin": 2623,
      "ĠJe": 2624,
      "ope": 2625,
      "Ġslow": 2626,
      "Ġpaintings": 2627,
      "Ġweird": 2628,
      "Ġenviron": 2629,
      "fu": 2630,
      "Ġbudget": 2631,
      "Ġdeb": 2632,
      "Ġpicking": 2633,
      "rupt": 2634,
      "Ġchanged": 2635,
      "Ġband": 2636,
      "ters": 2637,
      "Ġissue": 2638,
      "Ġbox": 2639,
      "Ġfeet": 2640,
      "Ġconcert": 2641,
      "Ġgets": 2642,
      "Ġattack": 2643,
      "Ġmiddle": 2644,
      "Ġenvironment": 2645,
      "Ġdirt": 2646,
      "Ġstyle": 2647,
      "its": 2648,
      "Ġshop": 2649,
      "Ġapply": 2650,
      "ffic": 2651,
      "Ġwedding": 2652,
      "Ġfill": 2653,
      "isa": 2654,
      "Ġexperien": 2655,
      "Ġunfair": 2656,
      "Ġbothering": 2657,
      "lies": 2658,
      "Ġrealize": 2659,
      "Ġinvol": 2660,
      "Ġmedication": 2661,
      "cc": 2662,
      "Ġshot": 2663,
      "Ġcancer": 2664,
      "Ġcapt": 2665,
      "Ġyes": 2666,
      "rie": 2667,
      "Ġtrash": 2668,
      "Ġproper": 2669,
      "Ġunique": 2670,
      "Ġjump": 2671,
      "Ġgovern": 2672,
      "Ġstudents": 2673,
      "Ġloud": 2674,
      "Ġyours": 2675,
      "Ġcap": 2676,
      "iot": 2677,
      "Ġtraining": 2678,
      "Ġdivor": 2679,
      "vail": 2680,
      "Ġwood": 2681,
      "Ġsal": 2682,
      "Ġruined": 2683,
      "Ġgoal": 2684,
      "Ġrem": 2685,
      "Ġdead": 2686,
      "Ġprovide": 2687,
      "Ġlater": 2688,
      "Ġartic": 2689,
      "cient": 2690,
      "Ġdest": 2691,
      "Ġforgive": 2692,
      "Ġign": 2693,
      "Ġmarket": 2694,
      "fer": 2695,
      "Ġhurry": 2696,
      "Ġnorm": 2697,
      "esome": 2698,
      "ĠMay": 2699,
      "pend": 2700,
      "ination": 2701,
      "ĠMax": 2702,
      "Ġdangerous": 2703,
      "Ġsat": 2704,
      "Ġuncom": 2705,
      "Ġtotally": 2706,
      "issa": 2707,
      "ised": 2708,
      "ĠDar": 2709,
      "fast": 2710,
      "Ġkiss": 2711,
      "Al": 2712,
      "Ġplayed": 2713,
      "Ġsocial": 2714,
      "ughter": 2715,
      "unning": 2716,
      "Ġexercise": 2717,
      "heart": 2718,
      "ele": 2719,
      "ĠIsn": 2720,
      "Ġcorre": 2721,
      "ont": 2722,
      "Ġgoes": 2723,
      "Ġcaused": 2724,
      "Ġdied": 2725,
      "enn": 2726,
      "Ġjud": 2727,
      "Ġtech": 2728,
      "Ġbank": 2729,
      "Ġstra": 2730,
      "ĠDa": 2731,
      "Ġbreakfast": 2732,
      "Ġswimming": 2733,
      "ĠKaitlyn": 2734,
      "Ġavail": 2735,
      "Ġfive": 2736,
      "Ġapologize": 2737,
      "Ġuncomfortable": 2738,
      "Ġrules": 2739,
      "ically": 2740,
      "ured": 2741,
      "Ġexplor": 2742,
      "Ġgovernment": 2743,
      "Ġmilk": 2744,
      "Ġconstantly": 2745,
      "Ġpol": 2746,
      "su": 2747,
      "Ġconversation": 2748,
      "Ġcommon": 2749,
      "Ġbene": 2750,
      "Ġviol": 2751,
      "Ġallow": 2752,
      "urope": 2753,
      "Ġpost": 2754,
      "Qu": 2755,
      "ĠYes": 2756,
      "rell": 2757,
      "ĠJan": 2758,
      "Ġguilt": 2759,
      "ccer": 2760,
      "ĠEurope": 2761,
      "ĠYork": 2762,
      "wards": 2763,
      "Ġweren": 2764,
      "erview": 2765,
      "ĠCam": 2766,
      "Ġcorrect": 2767,
      "Ġgrowing": 2768,
      "Ġexploring": 2769,
      "avy": 2770,
      "ĠTell": 2771,
      "Ġtrain": 2772,
      "Ġvari": 2773,
      "Ġcup": 2774,
      "Ġemot": 2775,
      "Ġfascinating": 2776,
      "Ġconcern": 2777,
      "Ġtax": 2778,
      "ffect": 2779,
      "Ġheld": 2780,
      "Ġasset": 2781,
      "ove": 2782,
      "Ġcash": 2783,
      "ces": 2784,
      "Ġsix": 2785,
      "Ġinde": 2786,
      "Ġchallenge": 2787,
      "friend": 2788,
      "ĠCor": 2789,
      "Ġdie": 2790,
      "Ġavailable": 2791,
      "resp": 2792,
      "to": 2793,
      "cellent": 2794,
      "astic": 2795,
      "ĠDaddy": 2796,
      "Ġsweetheart": 2797,
      "Ġinstru": 2798,
      "Ġrecommendations": 2799,
      "ka": 2800,
      "Ġpictures": 2801,
      "Ġtechn": 2802,
      "Ġeffect": 2803,
      "Ġlying": 2804,
      "Ġdaughter": 2805,
      "fully": 2806,
      "Ġworks": 2807,
      "Ġthro": 2808,
      "Ġcommun": 2809,
      "Ġflying": 2810,
      "Ġguilty": 2811,
      "izing": 2812,
      "Ġfinancial": 2813,
      "Ġholding": 2814,
      "rib": 2815,
      "Ġnormal": 2816,
      "Ġaffect": 2817,
      "Ġaccomplished": 2818,
      "Ġlottery": 2819,
      "Ġpersonal": 2820,
      "ience": 2821,
      "ida": 2822,
      "ianna": 2823,
      "Ġregret": 2824,
      "oms": 2825,
      "Ġborn": 2826,
      "Ġjourney": 2827,
      "ĠBry": 2828,
      "Ġthoughts": 2829,
      "ĠRa": 2830,
      "Ġvol": 2831,
      "Ġfavor": 2832,
      "Ġcri": 2833,
      "Ġinterview": 2834,
      "ĠAfter": 2835,
      "ĠMad": 2836,
      "isf": 2837,
      "Ġwoke": 2838,
      "Ġshape": 2839,
      "Ġaccidents": 2840,
      "ĠHa": 2841,
      "Ġcontent": 2842,
      "iety": 2843,
      "Ġsoccer": 2844,
      "ette": 2845,
      "Ġstunning": 2846,
      "Ġlar": 2847,
      "ĠLook": 2848,
      "ien": 2849,
      "Ġreturn": 2850,
      "Ġgrade": 2851,
      "ĠSometimes": 2852,
      "Ġboring": 2853,
      "ĠRos": 2854,
      "Ġones": 2855,
      "Ġdrinking": 2856,
      "ĠJac": 2857,
      "ĠThings": 2858,
      "ĠAy": 2859,
      "Ġawesome": 2860,
      "Ġexample": 2861,
      "gn": 2862,
      "ico": 2863,
      "Ġplayer": 2864,
      "ered": 2865,
      "Ġbath": 2866,
      "Ġtemp": 2867,
      "ceed": 2868,
      "inally": 2869,
      "Ġbel": 2870,
      "Have": 2871,
      "ĠOf": 2872,
      "Ġappreciated": 2873,
      "ink": 2874,
      "alia": 2875,
      "Ġpers": 2876,
      "Ġindepend": 2877,
      "Ġjoking": 2878,
      "Ġrefres": 2879,
      "Ġcondition": 2880,
      "Ġstaying": 2881,
      "Ġthird": 2882,
      "Ġrelaxed": 2883,
      "Ġsatisf": 2884,
      "band": 2885,
      "Ġmem": 2886,
      "Ġstories": 2887,
      "Ġwinning": 2888,
      "Ġanxiety": 2889,
      "rate": 2890,
      "Ġed": 2891,
      "ĠTh": 2892,
      "Ġmag": 2893,
      "Ġbreat": 2894,
      "Ġum": 2895,
      "Ġheadach": 2896,
      "Ġcalming": 2897,
      "of": 2898,
      "Ġfour": 2899,
      "Ġannoying": 2900,
      "Ġpus": 2901,
      "Ġhelps": 2902,
      "Ġseemed": 2903,
      "Ġsmoking": 2904,
      "Ġvot": 2905,
      "Ġpressure": 2906,
      "va": 2907,
      "iano": 2908,
      "zz": 2909,
      "Ġsent": 2910,
      "usband": 2911,
      "ph": 2912,
      "ĠShan": 2913,
      "ensive": 2914,
      "anne": 2915,
      "?!": 2916,
      "Ġdoctors": 2917,
      "Ġended": 2918,
      "yah": 2919,
      "Ġcharact": 2920,
      "000": 2921,
      "Ġdedication": 2922,
      "Ġtruth": 2923,
      "unders": 2924,
      "Ġcommunic": 2925,
      "ĠSaunders": 2926,
      "ĠThen": 2927,
      "Ġcarrying": 2928,
      "Ġcultures": 2929,
      "Ġbreathe": 2930,
      "ika": 2931,
      "Certainly": 2932,
      "Ġinvolved": 2933,
      "mon": 2934,
      "unte": 2935,
      "Ġassign": 2936,
      "ĠLa": 2937,
      "Ġevidence": 2938,
      "Ġincl": 2939,
      "Ġfailed": 2940,
      "Ġhuman": 2941,
      "Ġhiking": 2942,
      "Ġadventure": 2943,
      "Ġemployees": 2944,
      "Ġwallet": 2945,
      "ĠPlease": 2946,
      "Ġbetray": 2947,
      "Ġsuggest": 2948,
      "Ġtre": 2949,
      "Ġprogram": 2950,
      "Ġorganized": 2951,
      "Ġengine": 2952,
      "sca": 2953,
      "Ġappro": 2954,
      "ita": 2955,
      "duce": 2956,
      "Ġaccomplish": 2957,
      "ealous": 2958,
      "Ġhonor": 2959,
      "Mother": 2960,
      "illy": 2961,
      "ug": 2962,
      "ĠBro": 2963,
      "Ġexpress": 2964,
      "eese": 2965,
      "Ġhandsome": 2966,
      "Ġjealous": 2967,
      "ĠSe": 2968,
      "ĠEli": 2969,
      "Ġaren": 2970,
      "ology": 2971,
      "ĠBre": 2972,
      "aris": 2973,
      "Ġshows": 2974,
      "Ġclub": 2975,
      "50": 2976,
      "Ġfil": 2977,
      "Ġsight": 2978,
      "ution": 2979,
      "eat": 2980,
      "wich": 2981,
      "Ġaud": 2982,
      "ady": 2983,
      "Ġchill": 2984,
      "mbers": 2985,
      "leep": 2986,
      "Ġblood": 2987,
      "Ġdropped": 2988,
      "asia": 2989,
      "Ġrout": 2990,
      "Ġcoat": 2991,
      "Ġsandwich": 2992,
      "Ġarticle": 2993,
      "Ġveget": 2994,
      "real": 2995,
      "Ġsmells": 2996,
      "Ġshaken": 2997,
      "Ġsucceed": 2998,
      "Ġpurcha": 2999,
      "Ġwife": 3000,
      "Ġsym": 3001,
      "ĠKal": 3002,
      "Ġanimal": 3003,
      "Ġartist": 3004,
      "Ġpromotion": 3005,
      "Ġconsider": 3006,
      "Ġsimple": 3007,
      "Ġsaved": 3008,
      "Ġdirty": 3009,
      "Ġfant": 3010,
      "ĠJerry": 3011,
      "Ġbrother": 3012,
      "ĠQu": 3013,
      "ountain": 3014,
      "Ġseriously": 3015,
      "gin": 3016,
      "Ġproperly": 3017,
      "Ġwebs": 3018,
      "ĠBr": 3019,
      "Ġcloser": 3020,
      "Ġrece": 3021,
      "airs": 3022,
      "Ġpiz": 3023,
      "ĠCo": 3024,
      "Ġtreated": 3025,
      "ham": 3026,
      "Ġpan": 3027,
      "Ġsympt": 3028,
      "Ġsomewhere": 3029,
      "Ġoverall": 3030,
      "ĠWow": 3031,
      "lish": 3032,
      "Ġunderstandable": 3033,
      "Ġcarry": 3034,
      "Ġstudied": 3035,
      "Ġpowerful": 3036,
      "Ġcontinue": 3037,
      "cia": 3038,
      "ĠFr": 3039,
      "Ġpicked": 3040,
      "zie": 3041,
      "Ġsuit": 3042,
      "Ġfixed": 3043,
      "ĠDay": 3044,
      "Ġsport": 3045,
      "Ġfigured": 3046,
      "Ġhusband": 3047,
      "Ġcheese": 3048,
      "ĠMaria": 3049,
      "Ġhadn": 3050,
      "Ġreci": 3051,
      "Ġclimb": 3052,
      "Ġsymptoms": 3053,
      "Ġflight": 3054,
      "ĠKat": 3055,
      "Ġneg": 3056,
      "Ġbuilt": 3057,
      "Ġmention": 3058,
      "Ġdriver": 3059,
      "Ġcent": 3060,
      "ĠJohnson": 3061,
      "Ġbehavi": 3062,
      "Ġgreen": 3063,
      "Ġknown": 3064,
      "Ġcomple": 3065,
      "Ġdogs": 3066,
      "ja": 3067,
      "andra": 3068,
      "wise": 3069,
      "Ġdish": 3070,
      "Ġstom": 3071,
      "min": 3072,
      "Ġdi": 3073,
      "Ġgar": 3074,
      "Boss": 3075,
      "Ġplant": 3076,
      "Ġtraffic": 3077,
      "sy": 3078,
      "ĠBob": 3079,
      "uel": 3080,
      "reed": 3081,
      "Ġheavy": 3082,
      "Ġgradu": 3083,
      "Ġbreaking": 3084,
      "pective": 3085,
      "Ġvariety": 3086,
      "Ġexcellent": 3087,
      "Ġperspective": 3088,
      "Ġsuff": 3089,
      "Ġcheating": 3090,
      "Ġwet": 3091,
      "rote": 3092,
      "Ġvase": 3093,
      "ĠPa": 3094,
      "Ġdescri": 3095,
      "ances": 3096,
      "Ġmis": 3097,
      "Ġegg": 3098,
      "ĠHowever": 3099,
      "ĠSte": 3100,
      "Ġpair": 3101,
      "edule": 3102,
      "ym": 3103,
      "Ġgold": 3104,
      "len": 3105,
      "Ġpublic": 3106,
      "Ġstorm": 3107,
      "Ġvolunte": 3108,
      "con": 3109,
      "Ġwhite": 3110,
      "Ġdating": 3111,
      "Ġcustomers": 3112,
      "Ġsurround": 3113,
      "Ġstanding": 3114,
      "Ġdeserved": 3115,
      "Ġkilled": 3116,
      "yler": 3117,
      "Ġintro": 3118,
      "Ġthoughtful": 3119,
      "ĠMary": 3120,
      "iles": 3121,
      "erty": 3122,
      "over": 3123,
      "Ġwrote": 3124,
      "ĠEmm": 3125,
      "Ġcharge": 3126,
      "hys": 3127,
      "Ġsounded": 3128,
      "Ġcustomer": 3129,
      "Ġtext": 3130,
      "ĠAnn": 3131,
      "Ġcapable": 3132,
      "Ġpizza": 3133,
      "Ow": 3134,
      "Ġtur": 3135,
      "Ġcred": 3136,
      "Ġbasket": 3137,
      "!\"": 3138,
      "Ġunha": 3139,
      "aren": 3140,
      "Ġcatching": 3141,
      "Ġlied": 3142,
      "Ġreward": 3143,
      "ages": 3144,
      "Ġshel": 3145,
      "Ġappoint": 3146,
      "Ġfishing": 3147,
      "cher": 3148,
      "Ġasleep": 3149,
      "Ġidiot": 3150,
      "Ġorig": 3151,
      "Ġdrop": 3152,
      "Ġknowing": 3153,
      "Ġstarving": 3154,
      "cked": 3155,
      "Ġadmire": 3156,
      "lay": 3157,
      "Ġwave": 3158,
      "Ġsna": 3159,
      "Ġgrew": 3160,
      "Ġanyway": 3161,
      "Ġeffic": 3162,
      "ber": 3163,
      "ason": 3164,
      "ĠSp": 3165,
      "eeding": 3166,
      "Ġbread": 3167,
      "Ġmotivated": 3168,
      "Ġmountain": 3169,
      "Ġboat": 3170,
      "ĠNat": 3171,
      "Ġlaund": 3172,
      "van": 3173,
      "Ġpiano": 3174,
      "ilities": 3175,
      "Ġvalu": 3176,
      "pose": 3177,
      "Ġmach": 3178,
      "Ġprofessional": 3179,
      "Ġfaith": 3180,
      "Ġsoup": 3181,
      "Ġnowhere": 3182,
      "aster": 3183,
      "Ġsett": 3184,
      "Ġgas": 3185,
      "Ġ10": 3186,
      "Ġunhappy": 3187,
      "Ġlaundry": 3188,
      "ĠAsh": 3189,
      "Ġheadache": 3190,
      "rise": 3191,
      "ĠMak": 3192,
      "Ġlan": 3193,
      "Ġpresentation": 3194,
      "Ġagreeing": 3195,
      "Ġexperiencing": 3196,
      "Ġstomach": 3197,
      "Mar": 3198,
      "cil": 3199,
      "ume": 3200,
      "Ġlu": 3201,
      "ĠAly": 3202,
      "Ġloss": 3203,
      "Ġwriter": 3204,
      "ĠJones": 3205,
      "Ġjoke": 3206,
      "Ġinvent": 3207,
      "Ġtall": 3208,
      "Ġmessed": 3209,
      "Ġentire": 3210,
      "Ġrelig": 3211,
      "ĠTay": 3212,
      "Ġsays": 3213,
      "ĠNe": 3214,
      "Ġguit": 3215,
      "Ġpurpose": 3216,
      "Ġbehavior": 3217,
      "cean": 3218,
      "Ġavoid": 3219,
      "ĠAny": 3220,
      "Ġarrest": 3221,
      "Ġflat": 3222,
      "lain": 3223,
      "Ġbird": 3224,
      "Ġtour": 3225,
      "ĠJos": 3226,
      "ĠPeople": 3227,
      "Ġcover": 3228,
      "Ġyounger": 3229,
      "ĠCal": 3230,
      "ĠSorry": 3231,
      "ĠTony": 3232,
      "Ġteaching": 3233,
      "Be": 3234,
      "Ġfarm": 3235,
      "Ġmessage": 3236,
      "Ġdebt": 3237,
      "ctions": 3238,
      "Ġword": 3239,
      "Ġcredit": 3240,
      "iling": 3241,
      "ences": 3242,
      "Ġmail": 3243,
      "ĠLike": 3244,
      "Ġsnow": 3245,
      "'.": 3246,
      "Ġtrusted": 3247,
      "Ġsex": 3248,
      "Ġfing": 3249,
      "Ġoverwhelming": 3250,
      "Ġguitar": 3251,
      "Ġdraw": 3252,
      "yer": 3253,
      "Ġends": 3254,
      "Ġstars": 3255,
      "Ġmill": 3256,
      "Ġlangu": 3257,
      "ale": 3258,
      "Ġactiv": 3259,
      "ibly": 3260,
      "Ġvegetable": 3261,
      "rey": 3262,
      "ino": 3263,
      "Ġexpensive": 3264,
      "ilyn": 3265,
      "Ġblock": 3266,
      "rofess": 3267,
      "ura": 3268,
      "Ġphys": 3269,
      "go": 3270,
      "ged": 3271,
      "ĠTim": 3272,
      "Ġtopic": 3273,
      "Ġinf": 3274,
      "Ġrev": 3275,
      "Ġfantastic": 3276,
      "Ġleader": 3277,
      "ograp": 3278,
      "Ġboyfriend": 3279,
      "Ġstick": 3280,
      "doors": 3281,
      "Ġbrave": 3282,
      "Ġtaste": 3283,
      "Ġbott": 3284,
      "Ġfeed": 3285,
      "ĠRo": 3286,
      "back": 3287,
      "Ġwake": 3288,
      "Ġnecess": 3289,
      "ĠMo": 3290,
      "Ġhaircut": 3291,
      "Ġindependent": 3292,
      "ĠSure": 3293,
      "Ġuni": 3294,
      "ĠAna": 3295,
      "Ġamount": 3296,
      "Ġschedule": 3297,
      "Ġpolit": 3298,
      "retty": 3299,
      "ona": 3300,
      "Ġprice": 3301,
      "Ġfocused": 3302,
      "Ġspeaking": 3303,
      "Ġknock": 3304,
      "arth": 3305,
      "ĠAt": 3306,
      "Ġsis": 3307,
      "ĠMia": 3308,
      "educ": 3309,
      "book": 3310,
      "Ġdamage": 3311,
      "Ġharder": 3312,
      "Ġnote": 3313,
      "ĠNa": 3314,
      "Ġtypes": 3315,
      "ĠStates": 3316,
      "Ġage": 3317,
      "Ġworkout": 3318,
      "Ġcouch": 3319,
      "Alright": 3320,
      "Ġocean": 3321,
      "Ġtruck": 3322,
      "ĠGrand": 3323,
      "Ġeduc": 3324,
      "Your": 3325,
      "Ġcookies": 3326,
      "Ġrich": 3327,
      "ĠCheck": 3328,
      "Ġthroat": 3329,
      "Ġwine": 3330,
      "ĠEll": 3331,
      "Ġactions": 3332,
      "erap": 3333,
      "Ġcrow": 3334,
      "Ġitem": 3335,
      "Ġchillin": 3336,
      "Ġess": 3337,
      "ĠDav": 3338,
      "Ġexpecting": 3339,
      "ounds": 3340,
      "ature": 3341,
      "ĠGood": 3342,
      "Ġpassed": 3343,
      "Ġrude": 3344,
      "elyn": 3345,
      "Ġscene": 3346,
      "Ġsummer": 3347,
      "Ġcontrib": 3348,
      "ston": 3349,
      "Ġring": 3350,
      "Ġefficient": 3351,
      "Ġshining": 3352,
      "ĠChar": 3353,
      "Ġcrime": 3354,
      "par": 3355,
      "ty": 3356,
      "Ġpatient": 3357,
      "ĠTe": 3358,
      "Ġcars": 3359,
      "medi": 3360,
      "Mrs": 3361,
      "Ġflu": 3362,
      "Ġsooner": 3363,
      "Ġfact": 3364,
      "Ġhasn": 3365,
      "ises": 3366,
      "sequ": 3367,
      "Ġtight": 3368,
      "ĠDoctor": 3369,
      "Ġshoot": 3370,
      "eech": 3371,
      "Ġmatch": 3372,
      "Ġloan": 3373,
      "nie": 3374,
      "lept": 3375,
      "sen": 3376,
      "Ġimmedi": 3377,
      "aged": 3378,
      "Ġarri": 3379,
      "Ġsmooth": 3380,
      "Ġsuddenly": 3381,
      "And": 3382,
      "Ġscrew": 3383,
      "Ġlaughing": 3384,
      "Ġfur": 3385,
      "ĠEmily": 3386,
      "Ġrecord": 3387,
      "Ġproperty": 3388,
      "Ġtemper": 3389,
      "Ġelect": 3390,
      "ents": 3391,
      "Ġtotal": 3392,
      "Ġmen": 3393,
      "ĠAnt": 3394,
      "Ġrequ": 3395,
      "Ġchecking": 3396,
      "Ġsize": 3397,
      "ury": 3398,
      "ism": 3399,
      "ratch": 3400,
      "Ġstraight": 3401,
      "Ġequ": 3402,
      "Ġrefreshing": 3403,
      "Ġwebsite": 3404,
      "ĠDam": 3405,
      "Ġspeech": 3406,
      "Ġsales": 3407,
      "Ġdreams": 3408,
      "Ġmanager": 3409,
      "Ġdivorce": 3410,
      "Ġsus": 3411,
      "idy": 3412,
      "Ġseme": 3413,
      "Ġscratch": 3414,
      "Ġappointment": 3415,
      "ato": 3416,
      "Ġhike": 3417,
      "Ġsemester": 3418,
      "Ġ[": 3419,
      "Ġancient": 3420,
      "Ġtherap": 3421,
      "Ġrelieve": 3422,
      "ĠAle": 3423,
      "Ġplants": 3424,
      "Ġincrea": 3425,
      "old": 3426,
      "ĠSc": 3427,
      "Ġglass": 3428,
      "cience": 3429,
      "Ġpurchase": 3430,
      "scape": 3431,
      "ria": 3432,
      "Ġvegetables": 3433,
      "Ġbase": 3434,
      "Ġhalf": 3435,
      "Ġcand": 3436,
      "Ġquitting": 3437,
      "Ġtrees": 3438,
      "rofessor": 3439,
      "ler": 3440,
      "Ġsometime": 3441,
      "lfriend": 3442,
      "Ġsunset": 3443,
      "Ġgross": 3444,
      "ĠEd": 3445,
      "ĠPres": 3446,
      "Ġsleeping": 3447,
      "rick": 3448,
      "Ġpool": 3449,
      "Ġknows": 3450,
      "iday": 3451,
      "Ġnovel": 3452,
      "gery": 3453,
      "Ġbasketball": 3454,
      "ĠUnited": 3455,
      "Ġimmediately": 3456,
      "tte": 3457,
      "Sorry": 3458,
      "gy": 3459,
      "Ġintense": 3460,
      "Ġcrying": 3461,
      "Ġconsequ": 3462,
      "Ġplanet": 3463,
      "Ġmachine": 3464,
      "Ġeducation": 3465,
      "Pretty": 3466,
      "ĠTo": 3467,
      "Ġoutdoors": 3468,
      "itions": 3469,
      "ĠJess": 3470,
      "Ġproducts": 3471,
      "jah": 3472,
      "Ġcourt": 3473,
      "ĠKeep": 3474,
      "Ġpurse": 3475,
      "rant": 3476,
      "Ġmain": 3477,
      "Ġgun": 3478,
      "ĠJen": 3479,
      "Ġrut": 3480,
      "Ġpieces": 3481,
      "Ġmillion": 3482,
      "ped": 3483,
      "ky": 3484,
      "Ġlarge": 3485,
      "ĠJaz": 3486,
      "Ġdeg": 3487,
      "els": 3488,
      "ĠWar": 3489,
      "Ġdrunk": 3490,
      "Ġconsequences": 3491,
      "ano": 3492,
      "Ġgym": 3493,
      "lled": 3494,
      "Ġsurgery": 3495,
      "Ġcam": 3496,
      "ĠDan": 3497,
      "Ġeggs": 3498,
      "alynn": 3499,
      "ising": 3500,
      "ĠJuli": 3501,
      "Ġcomplete": 3502,
      "Because": 3503,
      "Ġbigger": 3504,
      "Ġfamous": 3505,
      "ider": 3506,
      "har": 3507,
      "Ġlow": 3508,
      "ĠTal": 3509,
      "ĠAz": 3510,
      "Whoa": 3511,
      "Ġchanging": 3512,
      "Ġregular": 3513,
      "He": 3514,
      "Ġnerve": 3515,
      "keting": 3516,
      "Ġreceive": 3517,
      "Ġwaves": 3518,
      "Ġpoor": 3519,
      "Ġbirds": 3520,
      "Ġgrown": 3521,
      "Ġspent": 3522,
      "Ġinspired": 3523,
      "vious": 3524,
      "rites": 3525,
      "ĠEng": 3526,
      "Ġmatters": 3527,
      "Ġpacked": 3528,
      "Ġbenefit": 3529,
      "Ġow": 3530,
      "Ġconnected": 3531,
      "Ġsubject": 3532,
      "ĠHey": 3533,
      "Ġlawyer": 3534,
      "Ġserve": 3535,
      "Ġburn": 3536,
      "ĠCon": 3537,
      "Ġexcuse": 3538,
      "Ġcele": 3539,
      "Ġshar": 3540,
      "Ġwoods": 3541,
      "Ġpush": 3542,
      "Ġkick": 3543,
      "port": 3544,
      "respect": 3545,
      "Mama": 3546,
      "yard": 3547,
      "Ġarguing": 3548,
      "Ġbrow": 3549,
      "Ġbelong": 3550,
      "esha": 3551,
      "Is": 3552,
      "Ġscience": 3553,
      "aria": 3554,
      "Ġbegin": 3555,
      "ĠKha": 3556,
      "Ġfavorites": 3557,
      "Ġinvited": 3558,
      "ashion": 3559,
      "Ġrecipe": 3560,
      "Ġrewarding": 3561,
      "illed": 3562,
      "Ġchair": 3563,
      "Ġsmile": 3564,
      "gs": 3565,
      "mand": 3566,
      "omy": 3567,
      "Ġretire": 3568,
      "ĠMari": 3569,
      "Ġswear": 3570,
      "Ġgrandma": 3571,
      "Ġnose": 3572,
      "Ġourselves": 3573,
      "Ġbringing": 3574,
      "inson": 3575,
      "Ġdisrespect": 3576,
      "ĠOh": 3577,
      "orn": 3578,
      "Ġaction": 3579,
      "ĠâĢ": 3580,
      "Ġrely": 3581,
      "Ġmarketing": 3582,
      "ĠDem": 3583,
      "Ġpresident": 3584,
      "Ġlesson": 3585,
      "Ġcampa": 3586,
      "Ġlanguage": 3587,
      "ĠLong": 3588,
      "istic": 3589,
      "Ġfurn": 3590,
      "Ġstri": 3591,
      "Ġtrans": 3592,
      "Ġinvestig": 3593,
      "Ġbetrayed": 3594,
      "Ġsurrounded": 3595,
      "ĠâĢĵ": 3596,
      "ference": 3597,
      "Ġassist": 3598,
      "erk": 3599,
      "ata": 3600,
      "Ġshift": 3601,
      "ias": 3602,
      "Ġbal": 3603,
      "ĠJer": 3604,
      "ĠCa": 3605,
      "eak": 3606,
      "Ġtests": 3607,
      "Ġcompetition": 3608,
      "da": 3609,
      "lief": 3610,
      "Ġsold": 3611,
      "Ġna": 3612,
      "Ġbackyard": 3613,
      "Ġchallenging": 3614,
      "Ġbeauty": 3615,
      "oney": 3616,
      "ores": 3617,
      "Ugh": 3618,
      "Ġpath": 3619,
      "Ġjobs": 3620,
      "Ġill": 3621,
      "Ġsetting": 3622,
      "ĠMel": 3623,
      "Ġsever": 3624,
      "Ġdeath": 3625,
      "ĠKey": 3626,
      "Ġgirlfriend": 3627,
      "Ġcreative": 3628,
      "Ġcrowd": 3629,
      "Ġfru": 3630,
      "Ġtreatment": 3631,
      "Ġau": 3632,
      "Ġele": 3633,
      "oring": 3634,
      "Ġweak": 3635,
      "ptop": 3636,
      "Ġrelieved": 3637,
      "ern": 3638,
      "Ġrough": 3639,
      "akes": 3640,
      "Ġlaptop": 3641,
      "Ġsurprise": 3642,
      "sure": 3643,
      "Ġfactor": 3644,
      "Ġsupplies": 3645,
      "Ġtaxes": 3646,
      "iture": 3647,
      "Ġhiding": 3648,
      "Ġdiet": 3649,
      "Ġfinal": 3650,
      "unities": 3651,
      "racted": 3652,
      "Ġopportunities": 3653,
      "ĠMama": 3654,
      "ssa": 3655,
      "Ġpursue": 3656,
      "Ġconcent": 3657,
      "An": 3658,
      "ang": 3659,
      "Ġcomplain": 3660,
      "ĠGreat": 3661,
      "pting": 3662,
      "ilar": 3663,
      "fortun": 3664,
      "She": 3665,
      "rop": 3666,
      "Ġwash": 3667,
      "Ġfilm": 3668,
      "Ġeasier": 3669,
      "Ġintroduce": 3670,
      "Ġfurniture": 3671,
      "100": 3672,
      "Ġfashion": 3673,
      "oni": 3674,
      "ĠItaly": 3675,
      "gging": 3676,
      "verse": 3677,
      "ĠJal": 3678,
      "Ġknowled": 3679,
      "Ġchest": 3680,
      "Ġedge": 3681,
      "20": 3682,
      "Ġcompli": 3683,
      "ĠTra": 3684,
      "Ġconfused": 3685,
      "Ġcandid": 3686,
      "Ġmaj": 3687,
      "mare": 3688,
      "hamed": 3689,
      "Ġfired": 3690,
      "ican": 3691,
      "Ġfaster": 3692,
      "ĠTyler": 3693,
      "oun": 3694,
      "Ġmanaging": 3695,
      "Ġdetails": 3696,
      "Ġcamera": 3697,
      "Ġer": 3698,
      "ĠWill": 3699,
      "Ġassignment": 3700,
      "Ġcoup": 3701,
      "usting": 3702,
      "Ġjack": 3703,
      "Ġconcept": 3704,
      "Ġstopped": 3705,
      "Ġcampaign": 3706,
      "kept": 3707,
      "anda": 3708,
      "ĠZay": 3709,
      "Ġstealing": 3710,
      "Ġgirls": 3711,
      "Ġhorse": 3712,
      "Ġmemories": 3713,
      "Ġdue": 3714,
      "Ġcast": 3715,
      "ĠEarth": 3716,
      "ogn": 3717,
      "Ġcras": 3718,
      "ange": 3719,
      "Ġresour": 3720,
      "yla": 3721,
      "ified": 3722,
      "ĠJak": 3723,
      "cent": 3724,
      "Ġ3": 3725,
      "Ġoriginally": 3726,
      "lon": 3727,
      "quan": 3728,
      "Ġrecogn": 3729,
      "Ġinspiring": 3730,
      "ryst": 3731,
      "Ġate": 3732,
      "ĠGra": 3733,
      "Ġnightmare": 3734,
      "Ġfever": 3735,
      "ator": 3736,
      "ĠAli": 3737,
      "itted": 3738,
      "Ġtrad": 3739,
      "Ġintern": 3740,
      "Ġterm": 3741,
      "ĠBa": 3742,
      "Ġjoining": 3743,
      "Ġcontest": 3744,
      "Ġadvant": 3745,
      "Ġruin": 3746,
      "ĠTam": 3747,
      "ware": 3748,
      "Ġclearly": 3749,
      "Ġhiring": 3750,
      "Ġswe": 3751,
      "bed": 3752,
      "Ġloving": 3753,
      "ĠParis": 3754,
      "cel": 3755,
      "Ġlocal": 3756,
      "Ġtickets": 3757,
      "Ġworries": 3758,
      "mas": 3759,
      "ĠSon": 3760,
      "Ġcats": 3761,
      "Ġseveral": 3762,
      "Ken": 3763,
      "Ġcrit": 3764,
      "Ġthirst": 3765,
      "ĠWh": 3766,
      "ĠTa": 3767,
      "Ġowner": 3768,
      "Father": 3769,
      "Ġten": 3770,
      "vered": 3771,
      "Ġpage": 3772,
      "Ġanger": 3773,
      "Ġmedia": 3774,
      "ĠAmerica": 3775,
      "Ġsharp": 3776,
      "Ġinclud": 3777,
      "Ġparties": 3778,
      "Ġadop": 3779,
      "Ġfra": 3780,
      "ĠJes": 3781,
      "Ġbiggest": 3782,
      "Ġblast": 3783,
      "ĠCol": 3784,
      "Ġtoys": 3785,
      "Ġkilling": 3786,
      "Ġjudge": 3787,
      "Ġapproach": 3788,
      "Ġnon": 3789,
      "Ġheal": 3790,
      "Ġecon": 3791,
      "Ġsharing": 3792,
      "Ġhole": 3793,
      "âĢ¦": 3794,
      "ĠBes": 3795,
      "ĠBra": 3796,
      "Ġoper": 3797,
      "cie": 3798,
      "Ġtreating": 3799,
      "Ġdescribe": 3800,
      "ĠBesides": 3801,
      "Ġbills": 3802,
      "ander": 3803,
      "Ġpushing": 3804,
      "mit": 3805,
      "Ġsend": 3806,
      "edro": 3807,
      "Ġaddress": 3808,
      "Ġdying": 3809,
      "outh": 3810,
      "Ġforest": 3811,
      "De": 3812,
      "Ġbeer": 3813,
      "ĠJas": 3814,
      "ĠAnge": 3815,
      "Ġracing": 3816,
      "Ġmap": 3817,
      "Ġcutting": 3818,
      "Ġsolution": 3819,
      "Ġaudience": 3820,
      "Ġled": 3821,
      "aine": 3822,
      "Ġlived": 3823,
      "Ġimpact": 3824,
      "tered": 3825,
      "Ġeasily": 3826,
      "Ġcollection": 3827,
      "ĠSy": 3828,
      "Ġfamili": 3829,
      "mar": 3830,
      "Ġdry": 3831,
      "olution": 3832,
      "Ġdollars": 3833,
      "ĠOr": 3834,
      "Ġsurreal": 3835,
      "Ġnecessary": 3836,
      "Ġdegree": 3837,
      "ĠChristmas": 3838,
      "ĠAng": 3839,
      "Ġadvantage": 3840,
      "eeth": 3841,
      "Ġcomplic": 3842,
      "Ġprove": 3843,
      "Ġchecked": 3844,
      "Ġimproved": 3845,
      "ĠTea": 3846,
      "kle": 3847,
      "ĠWell": 3848,
      "Ġsavings": 3849,
      "Ġtowards": 3850,
      "Ġbi": 3851,
      "ĠLy": 3852,
      "Ġkinds": 3853,
      "Ġstreng": 3854,
      "Ġfeat": 3855,
      "Ġinjured": 3856,
      "Ġthirsty": 3857,
      "ori": 3858,
      "met": 3859,
      "Ġdistant": 3860,
      "Ġbadly": 3861,
      "Ġnotes": 3862,
      "Ġhappiness": 3863,
      "fered": 3864,
      "Ġnoticing": 3865,
      "Ġbrain": 3866,
      "read": 3867,
      "Ġlif": 3868,
      "ste": 3869,
      "ĠAk": 3870,
      "Ġvote": 3871,
      "Man": 3872,
      "Ġdia": 3873,
      "ĠJose": 3874,
      "Ġz": 3875,
      "Ġpromised": 3876,
      "Ġopening": 3877,
      "Ġyelling": 3878,
      "ĠDr": 3879,
      "Ġbare": 3880,
      "Ġshelter": 3881,
      "ĠWilk": 3882,
      "Ġquality": 3883,
      "itude": 3884,
      "Ġknife": 3885,
      "Ġroutine": 3886,
      "Come": 3887,
      "bit": 3888,
      "Ġleaves": 3889,
      "Ġfear": 3890,
      "ĠEnglish": 3891,
      "Ġages": 3892,
      "Ġvib": 3893,
      "Ġdifferently": 3894,
      "Ġwalks": 3895,
      "Ġthrowing": 3896,
      "pack": 3897,
      "Ġocc": 3898,
      "Welcome": 3899,
      "Ġrather": 3900,
      "Ġcomplex": 3901,
      "ground": 3902,
      "Ġtooth": 3903,
      "Ġest": 3904,
      "ĠDen": 3905,
      "Ġsucks": 3906,
      "Ġfeedback": 3907,
      "Ġsolve": 3908,
      "Ġlessons": 3909,
      "Ġbathroom": 3910,
      "Ġthri": 3911,
      "enery": 3912,
      "Ġowe": 3913,
      "Ġissu": 3914,
      "Ġupd": 3915,
      "omen": 3916,
      "Ġpregn": 3917,
      "Ġflavor": 3918,
      "Ġdise": 3919,
      "ayah": 3920,
      "ĠSomething": 3921,
      "Ġankle": 3922,
      "Ġloves": 3923,
      "Ġstrength": 3924,
      "ager": 3925,
      "Ġteeth": 3926,
      "Nothing": 3927,
      "Ġnobody": 3928,
      "ĠPresident": 3929,
      "fortunately": 3930,
      "idge": 3931,
      "Ġescape": 3932,
      "ĠCay": 3933,
      "Ġexperiences": 3934,
      "].": 3935,
      "Ġpants": 3936,
      "ĠPedro": 3937,
      "Ġdirection": 3938,
      "ta": 3939,
      "Ġroof": 3940,
      "Ġability": 3941,
      "Ġcontract": 3942,
      "Ġphotograp": 3943,
      "ĠBl": 3944,
      "Ġhelpless": 3945,
      "Ġnause": 3946,
      "Ġski": 3947,
      "Ġcouple": 3948,
      "Ġearth": 3949,
      "Ġashamed": 3950,
      "urance": 3951,
      "Ġheading": 3952,
      "Ġsla": 3953,
      "ĠAmerican": 3954,
      "lah": 3955,
      "che": 3956,
      "rom": 3957,
      "Ġagreed": 3958,
      "Ġcamping": 3959,
      "sa": 3960,
      "Ġrobb": 3961,
      "Ġsports": 3962,
      "Ġfurther": 3963,
      "Ġknowledge": 3964,
      "iny": 3965,
      "ellig": 3966,
      "Ġharm": 3967,
      "Joe": 3968,
      "Ġcommunicate": 3969,
      "Ġinno": 3970,
      "Ġapplic": 3971,
      "Ġpartner": 3972,
      "Ġdou": 3973,
      "ĠKrist": 3974,
      "Ġwhether": 3975,
      "ĠGree": 3976,
      "Ġadj": 3977,
      "Ġcommit": 3978,
      "Ġissues": 3979,
      "Ġshower": 3980,
      "uries": 3981,
      "ĠWilkinson": 3982,
      "Ġheat": 3983,
      "ĠKim": 3984,
      "Ġrush": 3985,
      "Ġplane": 3986,
      "ĠGe": 3987,
      "Ġexperiment": 3988,
      "Ġpriv": 3989,
      "Ġcomplicated": 3990,
      "ni": 3991,
      "ĠDel": 3992,
      "Ġreview": 3993,
      "mate": 3994,
      "Ġmarry": 3995,
      "Ġdancer": 3996,
      "gue": 3997,
      "ustle": 3998,
      "Ġpencil": 3999,
      "Ġdemand": 4000,
      "que": 4001,
      "cking": 4002,
      "Ġriver": 4003,
      "ĠJar": 4004,
      "Ġtire": 4005,
      "Ġinterests": 4006,
      "Ġpray": 4007,
      "Ġcop": 4008,
      "ali": 4009,
      "izzy": 4010,
      "Ġcheat": 4011,
      "Ġraining": 4012,
      "Car": 4013,
      "ald": 4014,
      "ĠMart": 4015,
      "ĠAdd": 4016,
      "ĠCarmen": 4017,
      "Ġmix": 4018,
      "eem": 4019,
      "Ġrepres": 4020,
      "ĠVal": 4021,
      "Ġjacket": 4022,
      "via": 4023,
      "Ġcig": 4024,
      "Ġthemselves": 4025,
      "Ġbat": 4026,
      "Ġfool": 4027,
      "Ġindust": 4028,
      "Ġnerves": 4029,
      "Ġintellig": 4030,
      "Ġaware": 4031,
      "ĠAbby": 4032,
      "Ġlift": 4033,
      "alie": 4034,
      "Ġemail": 4035,
      "ts": 4036,
      "Ġconference": 4037,
      "Sha": 4038,
      "Ġdata": 4039,
      "Ġjoy": 4040,
      "Ġapples": 4041,
      "ĠTre": 4042,
      "ĠProfessor": 4043,
      "Ġlocation": 4044,
      "Ġeffective": 4045,
      "ists": 4046,
      "ĠCat": 4047,
      "Ġshowed": 4048,
      "Ġflower": 4049,
      "Ġoption": 4050,
      "Ġadopt": 4051,
      "Ġir": 4052,
      "Ġkept": 4053,
      "Ġpe": 4054,
      "Ġwants": 4055,
      "Ġune": 4056,
      "Ġremind": 4057,
      "ola": 4058,
      "Ġmeat": 4059,
      "Ġitems": 4060,
      "Ġcla": 4061,
      "ĠMex": 4062,
      "Ġslowly": 4063,
      "Ġvaluable": 4064,
      "Ġment": 4065,
      "ennis": 4066,
      "Ġsqu": 4067,
      "lene": 4068,
      "Ġseason": 4069,
      "Ġpulled": 4070,
      "Ġfile": 4071,
      "Ġchip": 4072,
      "arius": 4073,
      "Ġvibrant": 4074,
      "lu": 4075,
      "ulous": 4076,
      "acy": 4077,
      "Ġhitting": 4078,
      "Ġargument": 4079,
      "Ġsoftware": 4080,
      "Ġjail": 4081,
      "Ġglasses": 4082,
      "Ġexh": 4083,
      "mer": 4084,
      "sed": 4085,
      "ĠCass": 4086,
      "Ġturning": 4087,
      "owing": 4088,
      "ĠGab": 4089,
      "ship": 4090,
      "Ġlaz": 4091,
      "Ġstopping": 4092,
      "Ġyard": 4093,
      "ĠCould": 4094,
      "Ġdedicated": 4095,
      "Ġslipped": 4096,
      "ression": 4097,
      "ĠGo": 4098,
      "Ġscenery": 4099,
      "Ġattitude": 4100,
      "Ġpleased": 4101,
      "Ġstronger": 4102,
      "hile": 4103,
      "Ġsore": 4104,
      "headed": 4105,
      "Ġcharacters": 4106,
      "sit": 4107,
      "Ġcozy": 4108,
      "Ġdealing": 4109,
      "Ġmedical": 4110,
      "Ġfinger": 4111,
      "Ġonto": 4112,
      "eria": 4113,
      "Ġappear": 4114,
      "useum": 4115,
      "Ġscore": 4116,
      "Ġcounting": 4117,
      "Ġconfusing": 4118,
      "idance": 4119,
      "ks": 4120,
      "Ġwithin": 4121,
      "Ġmedicine": 4122,
      "Ġmessy": 4123,
      "Ġemotions": 4124,
      "ĠHi": 4125,
      "Ġbull": 4126,
      "ĠAren": 4127,
      "Ġlazy": 4128,
      "Here": 4129,
      "urity": 4130,
      "Ġdu": 4131,
      "Ġexpected": 4132,
      "Ġsearch": 4133,
      "Ad": 4134,
      "Ġdizzy": 4135,
      "Ġumb": 4136,
      "Ġwealth": 4137,
      "Ġstage": 4138,
      "rina": 4139,
      "Ġumbrell": 4140,
      "Ġfinances": 4141,
      "vis": 4142,
      "ulf": 4143,
      "Ġnumbers": 4144,
      "Ġdamn": 4145,
      "Ġdollar": 4146,
      "Ġessay": 4147,
      "iden": 4148,
      "ĠRome": 4149,
      "ĠWith": 4150,
      "Ġcertain": 4151,
      "Ġgonna": 4152,
      "lling": 4153,
      "Ġjerk": 4154,
      "ĠJad": 4155,
      "Ġlots": 4156,
      "icha": 4157,
      "ĠKend": 4158,
      "ĠOnce": 4159,
      "Ġ20": 4160,
      "Ġfence": 4161,
      "Ġgen": 4162,
      "icy": 4163,
      "ĠChan": 4164,
      "Ġarms": 4165,
      "Ġpackage": 4166,
      "mother": 4167,
      "ĠSu": 4168,
      "ĠNik": 4169,
      "ption": 4170,
      "Ġprison": 4171,
      "Ġchildhood": 4172,
      "Ġcontribute": 4173,
      "Ġbarely": 4174,
      "Ġpuppy": 4175,
      "Ġloose": 4176,
      "rupting": 4177,
      "Ġpolic": 4178,
      "Ġshowing": 4179,
      "Ġolder": 4180,
      "Ġ18": 4181,
      "Ġnauseous": 4182,
      "ĠBen": 4183,
      "vert": 4184,
      "elling": 4185,
      "Ġcigare": 4186,
      "onte": 4187,
      "Ġlay": 4188,
      "Ġauth": 4189,
      "irit": 4190,
      "Ġpolicy": 4191,
      "ĠCrist": 4192,
      "Ġaddition": 4193,
      "ĠRev": 4194,
      "Did": 4195,
      "ns": 4196,
      "Ġthrew": 4197,
      "Ġinvesting": 4198,
      "Ġindustry": 4199,
      "phan": 4200,
      "ĠBray": 4201,
      "ĠJav": 4202,
      "Ġalb": 4203,
      "Ġlic": 4204,
      "leen": 4205,
      "roy": 4206,
      "andon": 4207,
      "ĠEve": 4208,
      "Ġsuper": 4209,
      "Ġuniverse": 4210,
      "Ġdisease": 4211,
      "Ġpale": 4212,
      "Ġscar": 4213,
      "Ġtemperature": 4214,
      "ĠRevolution": 4215,
      "Ġalbum": 4216,
      "Ġchoices": 4217,
      "Ġdocu": 4218,
      "__": 4219,
      "ĠDes": 4220,
      "ĠDest": 4221,
      "Ġfund": 4222,
      "ls": 4223,
      "Ġmiles": 4224,
      "Ġelection": 4225,
      "aina": 4226,
      "Ġinterrupt": 4227,
      "Ġvalue": 4228,
      "Ġtow": 4229,
      "ĠJack": 4230,
      "osphere": 4231,
      "Ġpregnant": 4232,
      "Ġatm": 4233,
      "Ġconcentrate": 4234,
      "ĠMer": 4235,
      "Ġparts": 4236,
      "Ġareas": 4237,
      "Ġslept": 4238,
      "Ġhum": 4239,
      "Ġsorts": 4240,
      "Ġtidy": 4241,
      "Ġatmosphere": 4242,
      "eli": 4243,
      "Ġaward": 4244,
      "came": 4245,
      "Ġpoem": 4246,
      "ĠZe": 4247,
      "Ġinsurance": 4248,
      "ĠLay": 4249,
      "Ġdesk": 4250,
      "Ġinvestment": 4251,
      "Ġriding": 4252,
      "Ġbenefits": 4253,
      "ĠMexico": 4254,
      "ration": 4255,
      "Ġfort": 4256,
      "ĠJere": 4257,
      "ĠPerson": 4258,
      "Ġshake": 4259,
      "Ġhunt": 4260,
      "Ġlegs": 4261,
      "Ġsew": 4262,
      "Ġbear": 4263,
      "amp": 4264,
      "Ġturns": 4265,
      "ĠLila": 4266,
      "ecture": 4267,
      "Ġcareless": 4268,
      "Ġunc": 4269,
      "Ġhopeless": 4270,
      "Ġcreated": 4271,
      "Ġmountains": 4272,
      "Ġsusp": 4273,
      "iam": 4274,
      "cies": 4275,
      "Ġsaf": 4276,
      "Ġignore": 4277,
      "Ġviolin": 4278,
      "Ġphoto": 4279,
      "Ġslipping": 4280,
      "gers": 4281,
      "Ġworker": 4282,
      "Ġaccidentally": 4283,
      "Now": 4284,
      "lea": 4285,
      "arious": 4286,
      "Ġpossibly": 4287,
      "Ġbased": 4288,
      "Ġreligion": 4289,
      "Ġgain": 4290,
      "Ġopp": 4291,
      "ĠCl": 4292,
      "ission": 4293,
      "Ġaccomplishment": 4294,
      "Ġant": 4295,
      "Ġpuzz": 4296,
      "Ġwalls": 4297,
      "wor": 4298,
      "Ġdecor": 4299,
      "Ġconfidence": 4300,
      "ĠHay": 4301,
      "Ġphotos": 4302,
      "Ġwild": 4303,
      "Ġbee": 4304,
      "Ġhid": 4305,
      "ĠTan": 4306,
      "ĠMik": 4307,
      "ĠKel": 4308,
      "Ġdepart": 4309,
      "orting": 4310,
      "igning": 4311,
      "car": 4312,
      "Ġbunch": 4313,
      "Ġmanaged": 4314,
      "anie": 4315,
      "ĠHad": 4316,
      "Ġchores": 4317,
      "Ġprojects": 4318,
      "Daddy": 4319,
      "Ġsmoke": 4320,
      "Ġaccountant": 4321,
      "Ġbalance": 4322,
      "Ma": 4323,
      "ĠMat": 4324,
      "Ġmoon": 4325,
      "Ġorganiz": 4326,
      "Ġtennis": 4327,
      "Ġevening": 4328,
      "Ġresources": 4329,
      "Ġsour": 4330,
      "athan": 4331,
      "ĠAh": 4332,
      "Ġawake": 4333,
      "Ġcurrently": 4334,
      "ĠGrandma": 4335,
      "Ġing": 4336,
      "Ġfuck": 4337,
      "Ġuseful": 4338,
      "About": 4339,
      "ror": 4340,
      "Ġawhile": 4341,
      "Ġcorrectly": 4342,
      "riage": 4343,
      "versity": 4344,
      "Ġumbrella": 4345,
      "Ġknee": 4346,
      "Ġhurtful": 4347,
      "Ġsmoothly": 4348,
      "Ġi": 4349,
      "ids": 4350,
      "Ġsecurity": 4351,
      "sidered": 4352,
      "Ġchances": 4353,
      "Ġsugar": 4354,
      "Ġcharacter": 4355,
      "Mmm": 4356,
      "wal": 4357,
      "Ġconsidered": 4358,
      "aked": 4359,
      "Ġreality": 4360,
      "Ġseve": 4361,
      "Ġkitt": 4362,
      "ĠTime": 4363,
      "ĠAme": 4364,
      "ĠSat": 4365,
      "Ġship": 4366,
      "ĠZak": 4367,
      "Ġfeatures": 4368,
      "Ġstrate": 4369,
      "Ġpassing": 4370,
      "Ġmuseum": 4371,
      "ĠCall": 4372,
      "ĠRam": 4373,
      "Ġskill": 4374,
      "Ġbleeding": 4375,
      "Ġscare": 4376,
      "Ġprize": 4377,
      "nal": 4378,
      "zing": 4379,
      "Ġ4": 4380,
      "ima": 4381,
      "Ġeconomy": 4382,
      "Ġtense": 4383,
      "ening": 4384,
      "Ġhomeless": 4385,
      "Ġwinter": 4386,
      "Ġconnection": 4387,
      "Ġactivities": 4388,
      "Ġupdate": 4389,
      "Ġperi": 4390,
      "Ġcovered": 4391,
      "Ġcandidate": 4392,
      "Ġadult": 4393,
      "ones": 4394,
      "Ġpaperwork": 4395,
      "Ġincrease": 4396,
      "aff": 4397,
      "Ġsteak": 4398,
      "ĠEv": 4399,
      "ĠMc": 4400,
      "Ġcrossing": 4401,
      "Ġplate": 4402,
      "Ġworrying": 4403,
      "host": 4404,
      "Ġgenerous": 4405,
      "Ġcapture": 4406,
      "hi": 4407,
      "Ġfoods": 4408,
      "ĠHaw": 4409,
      "lt": 4410,
      "Ġaccepted": 4411,
      "Ġknocked": 4412,
      "bert": 4413,
      "Ġnap": 4414,
      "Ġapple": 4415,
      "Ġbestie": 4416,
      "Ġgrandpa": 4417,
      "attle": 4418,
      "ĠIz": 4419,
      "Ġtran": 4420,
      "Ġcarp": 4421,
      "Ġconcerned": 4422,
      "ĠFrance": 4423,
      "Ġfacing": 4424,
      "Ġbackpack": 4425,
      "Ġsuffering": 4426,
      "Ġcompliment": 4427,
      "Ġlicense": 4428,
      "Like": 4429,
      "Ġbow": 4430,
      "redient": 4431,
      "Ġwindows": 4432,
      "Dude": 4433,
      "Ġbite": 4434,
      "Ġingredient": 4435,
      "ĠJame": 4436,
      "Ġcleaned": 4437,
      "itation": 4438,
      "ĠSal": 4439,
      "ĠWas": 4440,
      "aven": 4441,
      "Ġsupportive": 4442,
      "cles": 4443,
      "inn": 4444,
      "Ġspirit": 4445,
      "ĠRon": 4446,
      "Ġsongs": 4447,
      "bel": 4448,
      "Ġban": 4449,
      "Ġcir": 4450,
      "Ġrad": 4451,
      "Ġmajor": 4452,
      "Ġlawn": 4453,
      "Ġcenter": 4454,
      "Ġnail": 4455,
      "Ġcharity": 4456,
      "Ġstepped": 4457,
      "Ġwaste": 4458,
      "Ġspeed": 4459,
      "Ġsteps": 4460,
      "Ġ'": 4461,
      "Ġtag": 4462,
      "pper": 4463,
      "Ġproductive": 4464,
      "Ġqualified": 4465,
      "Ġbags": 4466,
      "Ġbottle": 4467,
      "ĠSatur": 4468,
      "Ġperiod": 4469,
      "under": 4470,
      "Ġbecame": 4471,
      "iculous": 4472,
      "Ġdestroy": 4473,
      "Ġarrested": 4474,
      "Ġelectric": 4475,
      "ĠSaturday": 4476,
      "iley": 4477,
      "Ġfailing": 4478,
      "Ġphysical": 4479,
      "ĠOne": 4480,
      "Ġvisiting": 4481,
      "ala": 4482,
      "ĠMon": 4483,
      "arter": 4484,
      "Ġimpro": 4485,
      "Ġbasic": 4486,
      "atoes": 4487,
      "Ġghost": 4488,
      "ĠMan": 4489,
      "ciety": 4490,
      "Ġlifest": 4491,
      "Ġsafety": 4492,
      "mates": 4493,
      "kayla": 4494,
      "Ġtrick": 4495,
      "acha": 4496,
      "Ġobvious": 4497,
      "ĠGreece": 4498,
      "Ġmusician": 4499,
      "Ġtrea": 4500,
      "ĠBar": 4501,
      "hett": 4502,
      "ĠAub": 4503,
      "ĠOther": 4504,
      "oga": 4505,
      "Ġsurv": 4506,
      ").": 4507,
      "Am": 4508,
      "arm": 4509,
      "ĠLife": 4510,
      "Ġcommitted": 4511,
      "athon": 4512,
      "Ġlightheaded": 4513,
      "Ġsingle": 4514,
      "10": 4515,
      "orie": 4516,
      "ilynn": 4517,
      "ĠThose": 4518,
      "ĠRach": 4519,
      "Ġshoulders": 4520,
      "Ġinvite": 4521,
      "ifications": 4522,
      "Hmm": 4523,
      "ania": 4524,
      "une": 4525,
      "Ġbreathing": 4526,
      "Ġreceived": 4527,
      "org": 4528,
      "ify": 4529,
      "ĠMark": 4530,
      "Ġprepar": 4531,
      "Ġwhenever": 4532,
      "Ġannoyed": 4533,
      "Ġmass": 4534,
      "Ġcell": 4535,
      "bin": 4536,
      "sess": 4537,
      "ĠMag": 4538,
      "Ġguidance": 4539,
      "icted": 4540,
      "ĠBo": 4541,
      "Ġclimbing": 4542,
      "father": 4543,
      "ĠLiz": 4544,
      "ibilities": 4545,
      "Ġwritten": 4546,
      "board": 4547,
      "Ġpunch": 4548,
      "Ġpic": 4549,
      "eena": 4550,
      "Ġswing": 4551,
      "Ġplanned": 4552,
      "Ġsatisfying": 4553,
      ".)": 4554,
      "Ġcry": 4555,
      "ĠLee": 4556,
      "ariah": 4557,
      "Maybe": 4558,
      "not": 4559,
      "Ġcru": 4560,
      "Ġje": 4561,
      "elin": 4562,
      "Ġpainful": 4563,
      "Ġcelebr": 4564,
      "Please": 4565,
      "ker": 4566,
      "alee": 4567,
      "ourt": 4568,
      "ĠLat": 4569,
      "ilos": 4570,
      "Ġagreement": 4571,
      "Ġforgetting": 4572,
      "nes": 4573,
      "Ġsens": 4574,
      "Ġcas": 4575,
      "Ġstation": 4576,
      "Ġplu": 4577,
      "Ġperforming": 4578,
      "Ġadmir": 4579,
      "ilosop": 4580,
      "Honey": 4581,
      "sis": 4582,
      "Ġwheel": 4583,
      "Ġround": 4584,
      "ĠJah": 4585,
      "illa": 4586,
      "Ġfixing": 4587,
      "aira": 4588,
      "Ġconcerns": 4589,
      "Ġsights": 4590,
      "ĠGu": 4591,
      "ivity": 4592,
      "Ġobject": 4593,
      "Ja": 4594,
      "eg": 4595,
      "ok": 4596,
      "yan": 4597,
      "ĠKaren": 4598,
      "dom": 4599,
      "Ġhide": 4600,
      "aline": 4601,
      "Ġprevent": 4602,
      "ivil": 4603,
      "iques": 4604,
      "annah": 4605,
      "Ġchallenges": 4606,
      "Ġpromoting": 4607,
      "Ġqualifications": 4608,
      "Ġpropos": 4609,
      "rank": 4610,
      "ĠpersonY": 4611,
      "Ġtransp": 4612,
      "Ġpicn": 4613,
      "Nice": 4614,
      "Ġcode": 4615,
      "Ġresc": 4616,
      "Ġridiculous": 4617,
      "Ġadjust": 4618,
      "Ġdistracted": 4619,
      "ĠCity": 4620,
      "Ġhero": 4621,
      "Ġmarriage": 4622,
      "Ġwide": 4623,
      "Ġflies": 4624,
      "Ġterms": 4625,
      "Ar": 4626,
      "Ġabandon": 4627,
      "asted": 4628,
      "eyond": 4629,
      "Ġwashing": 4630,
      "ĠAunt": 4631,
      "Ġdivorced": 4632,
      "ĠSant": 4633,
      "Ġbutter": 4634,
      "Ġdev": 4635,
      "Ġplayers": 4636,
      "Ġnegative": 4637,
      "Ġimproving": 4638,
      "Ġtar": 4639,
      "Ġnicer": 4640,
      "riel": 4641,
      "Ġkidding": 4642,
      "Ġsurf": 4643,
      "Ġterrific": 4644,
      "Ġevents": 4645,
      "Ġsatisfied": 4646,
      "Ġbeginning": 4647,
      "pers": 4648,
      "uli": 4649,
      "Ġbackground": 4650,
      "ivid": 4651,
      "Ġinternet": 4652,
      "isor": 4653,
      "urb": 4654,
      "ĠAust": 4655,
      "Ġchess": 4656,
      "Ġvision": 4657,
      "ĠJax": 4658,
      "Ġbrowsing": 4659,
      "Ġapplication": 4660,
      "the": 4661,
      "itor": 4662,
      "Ġmult": 4663,
      "perate": 4664,
      "Ġphilosop": 4665,
      "Ġcountries": 4666,
      "Ġcrash": 4667,
      "Ġadmirable": 4668,
      "ĠSher": 4669,
      "elynn": 4670,
      "Ġblog": 4671,
      "Ġprescri": 4672,
      "Ġcreating": 4673,
      "Ġregularly": 4674,
      "Ġ5": 4675,
      "Ġsect": 4676,
      "Ġactive": 4677,
      "Ġpromoted": 4678,
      "dra": 4679,
      "gic": 4680,
      "Ġapplying": 4681,
      "ĠInd": 4682,
      "Ġjoined": 4683,
      "ĠGar": 4684,
      "ires": 4685,
      "Ġsafely": 4686,
      "Ġkissing": 4687,
      "Ġgri": 4688,
      "ĠLam": 4689,
      "Ġcloud": 4690,
      "ĠRod": 4691,
      "Ġrememb": 4692,
      "Ġburden": 4693,
      "Ġfinancially": 4694,
      "los": 4695,
      "ĠHis": 4696,
      "ĠKad": 4697,
      "aging": 4698,
      "Ġsinger": 4699,
      "Ġpoints": 4700,
      "Ġtechniques": 4701,
      "Ġgarage": 4702,
      "Ġdisrespectful": 4703,
      "ased": 4704,
      "Ġminding": 4705,
      "Ġfailure": 4706,
      "Ġcooped": 4707,
      "Ġservices": 4708,
      "Ġmembers": 4709,
      "thod": 4710,
      "Ġstyl": 4711,
      "Ġstarts": 4712,
      "Ġraised": 4713,
      "enses": 4714,
      "Ġallowed": 4715,
      "Ġburned": 4716,
      "mes": 4717,
      "Ġassistance": 4718,
      "Ġport": 4719,
      "Ġworst": 4720,
      "irm": 4721,
      "ewel": 4722,
      "ushi": 4723,
      "Ġorganization": 4724,
      "case": 4725,
      "Ġmall": 4726,
      "Ġhidden": 4727,
      "Ġsociety": 4728,
      "ĠNad": 4729,
      "Ġpacking": 4730,
      "Ġoccas": 4731,
      "don": 4732,
      "ĠBrand": 4733,
      "Ġcoun": 4734,
      "ĠJap": 4735,
      "ĠAud": 4736,
      "Ġreliable": 4737,
      "Ġviolence": 4738,
      "Ġingredients": 4739,
      "Ġbeyond": 4740,
      "Ġfat": 4741,
      "eel": 4742,
      "ilah": 4743,
      "resses": 4744,
      "Ġlifestyle": 4745,
      "Em": 4746,
      "ended": 4747,
      "Ġstudies": 4748,
      "overy": 4749,
      "Ġmagaz": 4750,
      "Ġdepartment": 4751,
      "arie": 4752,
      "ows": 4753,
      "iguel": 4754,
      "Ġtrave": 4755,
      "Ġmessing": 4756,
      "Ġcorner": 4757,
      "yanna": 4758,
      "zi": 4759,
      "lle": 4760,
      "Ġmethod": 4761,
      "ĠKo": 4762,
      "Ġembarrassing": 4763,
      "Ġreasons": 4764,
      "Ġgeneral": 4765,
      "Ġretirement": 4766,
      "Ġoil": 4767,
      "Ġabove": 4768,
      "ĠTom": 4769,
      "ĠPh": 4770,
      "Ġearned": 4771,
      "Ġrecy": 4772,
      "ficer": 4773,
      "ĠWhich": 4774,
      "Ġcal": 4775,
      "Ġbusines": 4776,
      "Ġrisks": 4777,
      "Ġbusinesses": 4778,
      "Ġfli": 4779,
      "Ġprofit": 4780,
      "ĠLand": 4781,
      "ights": 4782,
      "ender": 4783,
      "ĠKale": 4784,
      "Ġcloset": 4785,
      "St": 4786,
      "vion": 4787,
      "Ġmud": 4788,
      "Ġeight": 4789,
      "ĠMack": 4790,
      "Ġalarm": 4791,
      "Ġguest": 4792,
      "Ġreaching": 4793,
      "ĠFriday": 4794,
      "Ġtherapist": 4795,
      "Ġtarget": 4796,
      "hol": 4797,
      "ius": 4798,
      "Ġfulf": 4799,
      "ilarious": 4800,
      "Ġprince": 4801,
      "Ġscrap": 4802,
      "All": 4803,
      "Ġbake": 4804,
      "Ġfollowed": 4805,
      "Ġgarb": 4806,
      "Ġpolitics": 4807,
      "Ġhilarious": 4808,
      "ĠTha": 4809,
      "ĠTor": 4810,
      "Ġrespond": 4811,
      "ĠSham": 4812,
      "Dam": 4813,
      "cra": 4814,
      "Ġeager": 4815,
      "Ġhug": 4816,
      "fia": 4817,
      "writ": 4818,
      "itting": 4819,
      "Ġdisrupt": 4820,
      "Ġinstructions": 4821,
      "Ġgraduated": 4822,
      "Ġgarbage": 4823,
      "member": 4824,
      "Ġtripped": 4825,
      "Ġdepos": 4826,
      "Ġhotel": 4827,
      "Ġsalad": 4828,
      "iffe": 4829,
      "Ġalco": 4830,
      "Ġlock": 4831,
      "ĠFa": 4832,
      "ĠFran": 4833,
      "Ġbrand": 4834,
      "Ġhello": 4835,
      "arian": 4836,
      "ency": 4837,
      "Ġoffered": 4838,
      "etch": 4839,
      "Ġdrinks": 4840,
      "Ġrepresent": 4841,
      "99": 4842,
      "ners": 4843,
      "tain": 4844,
      "ĠKol": 4845,
      "ardo": 4846,
      "Ġresume": 4847,
      "Ġprogressing": 4848,
      "Ġbasics": 4849,
      "ĠLuci": 4850,
      "ĠMck": 4851,
      "Ġhonored": 4852,
      "Ġdrawn": 4853,
      "Ġcashier": 4854,
      "Ġmagic": 4855,
      "Ġmouth": 4856,
      "Ġhol": 4857,
      "Ġcancel": 4858,
      "Ġexist": 4859,
      "Ġswitch": 4860,
      "Ġdisag": 4861,
      "Ġvolunteer": 4862,
      "ĠMcKen": 4863,
      "ĠBet": 4864,
      "Ġovers": 4865,
      "Ġenjoyable": 4866,
      "Ġcheated": 4867,
      "mped": 4868,
      "abella": 4869,
      "Ġdonate": 4870,
      "ĠMind": 4871,
      "ĠMont": 4872,
      "Ġbaking": 4873,
      "Ġclock": 4874,
      "Ġletters": 4875,
      "Ġbrush": 4876,
      "Ġmultip": 4877,
      "Tell": 4878,
      "Ġmut": 4879,
      "Ġking": 4880,
      "ĠHen": 4881,
      "esa": 4882,
      "bbing": 4883,
      "Ġfactors": 4884,
      "Jay": 4885,
      "oc": 4886,
      "Ġce": 4887,
      "Ġlocked": 4888,
      "ushing": 4889,
      "ĠPat": 4890,
      "iti": 4891,
      "stood": 4892,
      "Ġhurting": 4893,
      "Ġcutie": 4894,
      "ĠJean": 4895,
      "Ġemotion": 4896,
      "eron": 4897,
      "Ġspare": 4898,
      "ping": 4899,
      "reet": 4900,
      "Ġroses": 4901,
      "storm": 4902,
      "ĠMike": 4903,
      "Ġspeeding": 4904,
      "Ġleading": 4905,
      "Ġexams": 4906,
      "sc": 4907,
      "yra": 4908,
      "Ġhesit": 4909,
      "Ġhappier": 4910,
      "dyn": 4911,
      "Ġincluding": 4912,
      "Ġcelebrate": 4913,
      "ĠCla": 4914,
      "ĠRye": 4915,
      "Ġdocument": 4916,
      "sia": 4917,
      "Ġtatt": 4918,
      "Ġdig": 4919,
      "stop": 4920,
      "Ġbelief": 4921,
      "osis": 4922,
      "Ġrepair": 4923,
      "Ġinclude": 4924,
      "Ġinvention": 4925,
      "Mia": 4926,
      "py": 4927,
      "Ġsou": 4928,
      "Ġjewel": 4929,
      "Ġfab": 4930,
      "ĠBritt": 4931,
      "lement": 4932,
      "Ġscream": 4933,
      "Ġtattoo": 4934,
      "mi": 4935,
      "win": 4936,
      "ĠOs": 4937,
      "Ġdiscussing": 4938,
      "Ġpushed": 4939,
      "Ġtherapy": 4940,
      "Ġsuspic": 4941,
      "ots": 4942,
      "Ġspill": 4943,
      "ĠRob": 4944,
      "Ġopened": 4945,
      "Ġsink": 4946,
      "Ġrocks": 4947,
      "Ġinfect": 4948,
      "Ġisland": 4949,
      "essa": 4950,
      "Ġresist": 4951,
      "Ġdisappear": 4952,
      "ooking": 4953,
      "rianna": 4954,
      "Ġwithdra": 4955,
      "ĠSk": 4956,
      "Ġkeeps": 4957,
      "Ġearn": 4958,
      "Ġcookie": 4959,
      "Ġgraduate": 4960,
      "Ġfought": 4961,
      "ĠAla": 4962,
      "ario": 4963,
      "uce": 4964,
      "Ġsitu": 4965,
      "Ġattract": 4966,
      "Ġrealistic": 4967,
      "Ġfreed": 4968,
      "Ġcooked": 4969,
      "ĠHawai": 4970,
      "Ġpicnic": 4971,
      "ĠWil": 4972,
      "Ġstole": 4973,
      "Ġbiology": 4974,
      "Ġwis": 4975,
      "ĠSim": 4976,
      "ĠDom": 4977,
      "Ġexpand": 4978,
      "Ġdeliver": 4979,
      "Ġtradition": 4980,
      "Ġdisagree": 4981,
      "ole": 4982,
      "Ġcrap": 4983,
      "Ġtele": 4984,
      "Ġholiday": 4985,
      "Le": 4986,
      "Ġver": 4987,
      "ĠNico": 4988,
      "Ġshame": 4989,
      "Ġmoments": 4990,
      "Ġgrandmother": 4991,
      "Ġattacked": 4992,
      "oard": 4993,
      "Ġrom": 4994,
      "Ġabilities": 4995,
      "ctic": 4996,
      "Ġspin": 4997,
      "Ġcompleted": 4998,
      "Ġshooting": 4999,
      "Ġpuzzle": 5000,
      "ior": 5001,
      "Ġreact": 5002,
      "Ġremo": 5003,
      "Ġident": 5004,
      "Ġwalked": 5005,
      "Ġeffects": 5006,
      "Ġremembered": 5007,
      "omi": 5008,
      "ctually": 5009,
      "Ġshit": 5010,
      "ĠWal": 5011,
      "Ġpapers": 5012,
      "Ġbedroom": 5013,
      "ĠHawaii": 5014,
      "Ġdent": 5015,
      "ĠLos": 5016,
      "Ġaccess": 5017,
      "Ġignoring": 5018,
      "ayla": 5019,
      "Ġaboard": 5020,
      "atcher": 5021,
      "Ġreports": 5022,
      "Ġsettled": 5023,
      "Ġdrawing": 5024,
      "Ġsituations": 5025,
      "thers": 5026,
      "una": 5027,
      "Ġchamp": 5028,
      "Ġemployee": 5029,
      "Ġyoga": 5030,
      "Ġcontact": 5031,
      "Ġmaterials": 5032,
      "ov": 5033,
      "Ġfetch": 5034,
      "Ġdar": 5035,
      "Ġgall": 5036,
      "Ġitch": 5037,
      "Ġhy": 5038,
      "Ġstir": 5039,
      "Ġmuscles": 5040,
      "ĠAnna": 5041,
      "Ġstab": 5042,
      "Ġlevels": 5043,
      "bie": 5044,
      "ouraged": 5045,
      "Ġpret": 5046,
      "ĠEly": 5047,
      "rench": 5048,
      "Ġblank": 5049,
      "Ġarrived": 5050,
      "Ġtreasure": 5051,
      "Ġsection": 5052,
      "Ġjewelry": 5053,
      "Actually": 5054,
      "ael": 5055,
      "Ġcous": 5056,
      "Ġhomes": 5057,
      "Ġairport": 5058,
      "Ġexperienced": 5059,
      "Ġobviously": 5060,
      "Ġdeposit": 5061,
      "riana": 5062,
      "Ġexpenses": 5063,
      "ctory": 5064,
      "anya": 5065,
      "Ġcollecting": 5066,
      "Ġalcohol": 5067,
      "ets": 5068,
      "ttes": 5069,
      "working": 5070,
      "iter": 5071,
      "Ġconv": 5072,
      "ĠRemember": 5073,
      "Ġmenu": 5074,
      "onor": 5075,
      "lette": 5076,
      "ryn": 5077,
      "Ġtie": 5078,
      "ĠLyn": 5079,
      "Ġafterwards": 5080,
      "onscious": 5081,
      "Ġsalary": 5082,
      "ĠiP": 5083,
      "Wait": 5084,
      "put": 5085,
      "Ġbru": 5086,
      "Ġjustice": 5087,
      "rats": 5088,
      "Ġdisg": 5089,
      "ĠMarqu": 5090,
      "Ġinstrument": 5091,
      "Ġcomfort": 5092,
      "Ġshad": 5093,
      "Ġentirely": 5094,
      "Ġsuspicious": 5095,
      "din": 5096,
      "ĠHo": 5097,
      "ĠTer": 5098,
      "ĠSan": 5099,
      "Ġgives": 5100,
      "dict": 5101,
      "Ġguide": 5102,
      "ĠGet": 5103,
      "Ġdefend": 5104,
      "Ġattending": 5105,
      "ĠDemet": 5106,
      "cakes": 5107,
      "ĠDal": 5108,
      "Ġempt": 5109,
      "ãģ": 5110,
      "Ġvent": 5111,
      "Ġconclus": 5112,
      "Ġrelationships": 5113,
      "Ġentertain": 5114,
      "Ġsimilar": 5115,
      "Ġpanic": 5116,
      "Ġpreparing": 5117,
      "ju": 5118,
      "reme": 5119,
      "hand": 5120,
      "reamed": 5121,
      "ats": 5122,
      "ĠMac": 5123,
      "Ġspoke": 5124,
      "Ġprefer": 5125,
      "ĠOli": 5126,
      "Ġdeeply": 5127,
      "Ġbreaths": 5128,
      "Ġjournal": 5129,
      "Ġcrashing": 5130,
      "Ġdoub": 5131,
      "val": 5132,
      "used": 5133,
      "Ġcomb": 5134,
      "Ġenth": 5135,
      "Ġdrag": 5136,
      "Ġtasks": 5137,
      "ugh": 5138,
      "Ġ9": 5139,
      "race": 5140,
      "Ġinjuries": 5141,
      "Sh": 5142,
      "yles": 5143,
      "inting": 5144,
      "ĠTower": 5145,
      "ĠCatcher": 5146,
      "ĠLill": 5147,
      "Ġdesperate": 5148,
      "Ġfruit": 5149,
      "Ġtransport": 5150,
      "key": 5151,
      "ues": 5152,
      "ership": 5153,
      "ĠBrad": 5154,
      "Ġoccasion": 5155,
      "ulp": 5156,
      "ĠBea": 5157,
      "ĠMil": 5158,
      "urning": 5159,
      "Ġpocket": 5160,
      "Ġsmaller": 5161,
      "Ġgraduation": 5162,
      "Ġfootball": 5163,
      "Ġenthus": 5164,
      "Ġsending": 5165,
      "anch": 5166,
      "Ġshock": 5167,
      "Ġdrank": 5168,
      "Ġroll": 5169,
      "ĠMake": 5170,
      "ĠAar": 5171,
      "Ġappli": 5172,
      "Ġrabb": 5173,
      "Ġhigher": 5174,
      "Ġstylish": 5175,
      "lani": 5176,
      "Ġcree": 5177,
      "Ġweigh": 5178,
      "ards": 5179,
      "Ġburning": 5180,
      "Ġphilosophy": 5181,
      "Ġ6": 5182,
      "Ġconvin": 5183,
      "ĠRand": 5184,
      "eren": 5185,
      "Ġsweat": 5186,
      "Ġfriendship": 5187,
      "ĠZam": 5188,
      "ariyah": 5189,
      "Ġsuggested": 5190,
      "ĠAnything": 5191,
      "Ġfreedom": 5192,
      "ser": 5193,
      "Ġtheory": 5194,
      "Ġnet": 5195,
      "Ġhectic": 5196,
      "ante": 5197,
      "Ġstol": 5198,
      "Ġoverhe": 5199,
      "Ġvolunteering": 5200,
      "Ġstolen": 5201,
      "iction": 5202,
      "ervation": 5203,
      "Ġafterno": 5204,
      "Ġ100": 5205,
      "ĠJamal": 5206,
      "Ġrose": 5207,
      "antic": 5208,
      "Ġavoiding": 5209,
      "Ġintelligent": 5210,
      "Ġtraveling": 5211,
      "Ġpace": 5212,
      "aghett": 5213,
      "Ġpunished": 5214,
      "aghetti": 5215,
      "Ġwra": 5216,
      "Ġincome": 5217,
      "arks": 5218,
      "onestly": 5219,
      "Ġextreme": 5220,
      "Ġrice": 5221,
      "Ġstat": 5222,
      "Ġorange": 5223,
      "Ġconstru": 5224,
      "Ġengineer": 5225,
      "ĠAngel": 5226,
      "bur": 5227,
      "hone": 5228,
      "Ġfries": 5229,
      "ĠSky": 5230,
      "Ġrights": 5231,
      "Ġattend": 5232,
      "Ġparking": 5233,
      "Ġbenefic": 5234,
      "gypt": 5235,
      "Ġcigarettes": 5236,
      "Ġafternoon": 5237,
      "gen": 5238,
      "Ġtut": 5239,
      "Ġforce": 5240,
      "Ġcancell": 5241,
      "Ġbuildings": 5242,
      "Ġholds": 5243,
      "Ġdevelopment": 5244,
      "ghan": 5245,
      "pri": 5246,
      "Ġsocks": 5247,
      "ĠEr": 5248,
      "ĠRose": 5249,
      "Ġincredibly": 5250,
      "Ġanswers": 5251,
      "Ġlegal": 5252,
      "ashawn": 5253,
      "ĠTeacher": 5254,
      "ormed": 5255,
      "Ġuna": 5256,
      "Ġmotor": 5257,
      "Ġgardening": 5258,
      "Ġbaseball": 5259,
      "nan": 5260,
      "Ġsil": 5261,
      "lla": 5262,
      "Ġbattle": 5263,
      "Ġdow": 5264,
      "Ġdare": 5265,
      "Ġmeas": 5266,
      "inda": 5267,
      "Ġrare": 5268,
      "Ġexpectations": 5269,
      "Ġinterrupting": 5270,
      "Ġactivity": 5271,
      "Ġdiagn": 5272,
      "Ġmutual": 5273,
      "isyn": 5274,
      "road": 5275,
      "Ġcow": 5276,
      "enia": 5277,
      "Ġovercome": 5278,
      "Ġunfortunately": 5279,
      "Ġcreatures": 5280,
      "ĠStreet": 5281,
      "Ġconcuss": 5282,
      "Ġlifted": 5283,
      "bby": 5284,
      "ĠID": 5285,
      "arion": 5286,
      "ĠBay": 5287,
      "rica": 5288,
      "Ġprep": 5289,
      "amond": 5290,
      "Ġinvestigating": 5291,
      "Ġphotography": 5292,
      "ĠMah": 5293,
      "ĠEiffe": 5294,
      "Ġinteract": 5295,
      "Ġsweating": 5296,
      "ĠEiffel": 5297,
      "Ne": 5298,
      "iliz": 5299,
      "vors": 5300,
      "ĠHmm": 5301,
      "Ġcostume": 5302,
      "Ġdownt": 5303,
      "lett": 5304,
      "ief": 5305,
      "ĠEgypt": 5306,
      "ĠRae": 5307,
      "ĠFather": 5308,
      "Ġshelf": 5309,
      "Ġbranch": 5310,
      "ificant": 5311,
      "Likewise": 5312,
      "Ġprincess": 5313,
      "ote": 5314,
      "ode": 5315,
      "Ġproposal": 5316,
      "Ġlikely": 5317,
      "Ġspilled": 5318,
      "Ġclosed": 5319,
      "Ġindeed": 5320,
      "Ġroute": 5321,
      "nee": 5322,
      "sey": 5323,
      "ĠJane": 5324,
      "ĠEven": 5325,
      "ĠWork": 5326,
      "Ġotherwise": 5327,
      "Ġhealthier": 5328,
      "ĠCe": 5329,
      "Ġquarter": 5330,
      "Ġpossibility": 5331,
      "Ġefforts": 5332,
      "Ġthrilled": 5333,
      "Ke": 5334,
      "zo": 5335,
      "Ġwomen": 5336,
      "Ġreduce": 5337,
      "ĠKh": 5338,
      "Ġvan": 5339,
      "Ġrecovery": 5340,
      "Ġdestination": 5341,
      "Ġfamiliar": 5342,
      "Ġwealthy": 5343,
      "stin": 5344,
      "ĠTru": 5345,
      "ĠCom": 5346,
      "Ġreflect": 5347,
      "ĠNothing": 5348,
      "mission": 5349,
      "itiz": 5350,
      "chit": 5351,
      "riah": 5352,
      "ĠAbd": 5353,
      "Ġabandoned": 5354,
      "ela": 5355,
      "wan": 5356,
      "yana": 5357,
      "Ġcope": 5358,
      "ĠLex": 5359,
      "Ġadventures": 5360,
      "Jam": 5361,
      "Nah": 5362,
      "oh": 5363,
      "ada": 5364,
      "Ġsomebody": 5365,
      "Ġunderstands": 5366,
      "Ġtaught": 5367,
      "Ġconcussion": 5368,
      "Ġdowntown": 5369,
      "Honestly": 5370,
      "Ġstaring": 5371,
      "Ġsolar": 5372,
      "Ġnearly": 5373,
      "Ġsushi": 5374,
      "Ġmember": 5375,
      "ĠKyl": 5376,
      "Ġspaghetti": 5377,
      "Ġarran": 5378,
      "bye": 5379,
      "Ġpunish": 5380,
      "Ġmental": 5381,
      "bing": 5382,
      "chan": 5383,
      "Ġpump": 5384,
      "avious": 5385,
      "Ġrum": 5386,
      "Ġsurvive": 5387,
      "Ġmagazine": 5388,
      "hon": 5389,
      "Ġfrea": 5390,
      "Ġgam": 5391,
      "Ġrelief": 5392,
      "ently": 5393,
      "Ġmarathon": 5394,
      "Ġindivid": 5395,
      "ĠKimber": 5396,
      "Ġoppon": 5397,
      "Ġempty": 5398,
      "Ch": 5399,
      "Jake": 5400,
      "Ġmur": 5401,
      "ĠMatt": 5402,
      "ĠDer": 5403,
      "andro": 5404,
      "Nope": 5405,
      "ĠHall": 5406,
      "ĠMiss": 5407,
      "Ġreplace": 5408,
      "Ġreturning": 5409,
      "Ġparticip": 5410,
      "Ġpatter": 5411,
      "Ġmodels": 5412,
      "Ġradio": 5413,
      "Um": 5414,
      "ared": 5415,
      "Ġsoaked": 5416,
      "Ġmechan": 5417,
      "Ġisol": 5418,
      "Ġsecure": 5419,
      "avier": 5420,
      "ĠShay": 5421,
      "Ġorganizing": 5422,
      "bet": 5423,
      "arrow": 5424,
      "ĠSch": 5425,
      "esty": 5426,
      "Ġdresses": 5427,
      "ĠLen": 5428,
      "Ġimm": 5429,
      "Ġromantic": 5430,
      "Ġbeneficial": 5431,
      "Ġnur": 5432,
      "ustain": 5433,
      "Ġsail": 5434,
      "ational": 5435,
      "Ġoffic": 5436,
      "ĠYourself": 5437,
      "dered": 5438,
      "Ġpointless": 5439,
      "ĠAbb": 5440,
      "Ġdirections": 5441,
      "Ġcough": 5442,
      "iff": 5443,
      "ilit": 5444,
      "xton": 5445,
      "hold": 5446,
      "Ġstocks": 5447,
      "Ġprepare": 5448,
      "ĠRey": 5449,
      "Ġthroughout": 5450,
      "Ġclothing": 5451,
      "Ġscrewing": 5452,
      "ornia": 5453,
      "Ġeth": 5454,
      "Ġchasing": 5455,
      "Ġdisturb": 5456,
      "ĠJapan": 5457,
      "ep": 5458,
      "Ġmonster": 5459,
      "Ġemerg": 5460,
      "Ġrobbery": 5461,
      "Ġjeans": 5462,
      "Ġaut": 5463,
      "rett": 5464,
      "Ġdressed": 5465,
      "ĠMich": 5466,
      "Ġneat": 5467,
      "Ġaspect": 5468,
      "Ġsculp": 5469,
      "hole": 5470,
      "Ġtechnique": 5471,
      "ĠJuliet": 5472,
      "Re": 5473,
      "Ġcitiz": 5474,
      "ĠHonor": 5475,
      "ndred": 5476,
      "ĠRen": 5477,
      "ĠGl": 5478,
      "Ġhundred": 5479,
      "Ġclaim": 5480,
      "Ġrecyc": 5481,
      "Ġbeliefs": 5482,
      "Ġfascinated": 5483,
      "Ġconsiderate": 5484,
      "Ġpound": 5485,
      "Ġsea": 5486,
      "rian": 5487,
      "Ġnewsp": 5488,
      "laced": 5489,
      "idents": 5490,
      "Ġcrashed": 5491,
      "Ġinnocent": 5492,
      "Ġsustain": 5493,
      "ĠLili": 5494,
      "ĠKi": 5495,
      "ĠKail": 5496,
      "Ġripped": 5497,
      "Ġadmiring": 5498,
      "ĠBeing": 5499,
      "ĠAngeles": 5500,
      "Ġfucking": 5501,
      "Ha": 5502,
      "cey": 5503,
      "ugg": 5504,
      "Ġwa": 5505,
      "Ġliking": 5506,
      "ĠNick": 5507,
      "Ġsuppose": 5508,
      "ĠChina": 5509,
      "Ġfamilies": 5510,
      "Sounds": 5511,
      "pha": 5512,
      "Ġbless": 5513,
      "ĠShy": 5514,
      "ĠLore": 5515,
      "ective": 5516,
      "Ġagg": 5517,
      "appy": 5518,
      "Ġstreets": 5519,
      "Ġcomputers": 5520,
      "Ġadmit": 5521,
      "ĠCalif": 5522,
      "ĠRachel": 5523,
      "Ġextremely": 5524,
      "ua": 5525,
      "ĠEste": 5526,
      "Ġgrant": 5527,
      "Ġresponsibilities": 5528,
      "ĠCarl": 5529,
      "ĠAnton": 5530,
      "Ġcommitment": 5531,
      "Ġprivate": 5532,
      "Ġauthor": 5533,
      "Ġhall": 5534,
      "ĠTr": 5535,
      "Ġgoodbye": 5536,
      "Ġsimp": 5537,
      "Ġfingers": 5538,
      "ĠCalifornia": 5539,
      "mine": 5540,
      "Ġgather": 5541,
      "lict": 5542,
      "andy": 5543,
      "Ġaccur": 5544,
      "ianne": 5545,
      "Ġvictory": 5546,
      "sive": 5547,
      "Ġtast": 5548,
      "Ġcure": 5549,
      "ceful": 5550,
      "ĠJim": 5551,
      "Ġbully": 5552,
      "Ġaccord": 5553,
      "ĠZo": 5554,
      "Ġrepairs": 5555,
      "Ġstressing": 5556,
      "Tea": 5557,
      "beth": 5558,
      "Ġshy": 5559,
      "Ġhey": 5560,
      "ĠMi": 5561,
      "Ġshore": 5562,
      "Ġcompan": 5563,
      "Ġterrif": 5564,
      "Ġfreeing": 5565,
      "Ġdiscouraged": 5566,
      "ĠRebe": 5567,
      "iov": 5568,
      "Ġjuice": 5569,
      "Ġfilled": 5570,
      "lished": 5571,
      "rel": 5572,
      "Ġshut": 5573,
      "Ġexpert": 5574,
      "Ġscreen": 5575,
      "Ġlights": 5576,
      "Ty": 5577,
      "house": 5578,
      "ĠTake": 5579,
      "Ġspread": 5580,
      "Ġconflict": 5581,
      "ictim": 5582,
      "Ġproduce": 5583,
      "Ġsnake": 5584,
      "ĠRyan": 5585,
      "Ġsculpt": 5586,
      "lif": 5587,
      "ilee": 5588,
      "Ġtrade": 5589,
      "Ġkicked": 5590,
      "Ġfabric": 5591,
      "free": 5592,
      "Ġchose": 5593,
      "Ġimprovement": 5594,
      "Ġeaten": 5595,
      "Ġblame": 5596,
      "Ġreligious": 5597,
      "ĠJosh": 5598,
      "Ġfirm": 5599,
      "Ġshown": 5600,
      "ĠRu": 5601,
      "Ġrule": 5602,
      "anni": 5603,
      "Ġpunct": 5604,
      "Ġdrugs": 5605,
      "Ġguests": 5606,
      "uc": 5607,
      "vyn": 5608,
      "Â¿": 5609,
      "ened": 5610,
      "play": 5611,
      "overed": 5612,
      "Ġoverslept": 5613,
      "yon": 5614,
      "Ġlady": 5615,
      "ĠMiguel": 5616,
      "ĠEs": 5617,
      "bits": 5618,
      "ĠLou": 5619,
      "Ġvictim": 5620,
      "lines": 5621,
      "Ġgenerations": 5622,
      "Ġcommunication": 5623,
      "Ġplanets": 5624,
      "Ġceleb": 5625,
      "low": 5626,
      "ĠMicha": 5627,
      "Ġeveryday": 5628,
      "Ġpride": 5629,
      "Ġclients": 5630,
      "respons": 5631,
      "Ġcritic": 5632,
      "500": 5633,
      "Ġpounds": 5634,
      "Ġcy": 5635,
      "ashed": 5636,
      "Ġwel": 5637,
      "Ġchem": 5638,
      "Ġtroub": 5639,
      "Ġtrapped": 5640,
      "Ġclimate": 5641,
      "Ġchoosing": 5642,
      "Ġrespected": 5643,
      "Ġdesigned": 5644,
      "Ġbottom": 5645,
      "ĠiPhone": 5646,
      "ez": 5647,
      "Ġmission": 5648,
      "Ġstayed": 5649,
      "Ġshaking": 5650,
      "Ġgrandfather": 5651,
      "Ġjudging": 5652,
      "ĠBaham": 5653,
      "inley": 5654,
      "ĠBas": 5655,
      "Ġbustle": 5656,
      "Ġdut": 5657,
      "ĠPer": 5658,
      "Ġinspir": 5659,
      "sych": 5660,
      "Ġdisruptive": 5661,
      "Ġapplied": 5662,
      "ĠBahamas": 5663,
      "taking": 5664,
      "ĠEn": 5665,
      "ĠShak": 5666,
      "ylah": 5667,
      "Ġsuffer": 5668,
      "Ġirrespons": 5669,
      "Ġsearching": 5670,
      "Ġdreamed": 5671,
      "Ġlamp": 5672,
      "Ġamb": 5673,
      "osen": 5674,
      "Ġwatched": 5675,
      "ĠJeff": 5676,
      "vision": 5677,
      "walk": 5678,
      "mie": 5679,
      "ĠMir": 5680,
      "Ġtools": 5681,
      "ĠKryst": 5682,
      "Ġskating": 5683,
      "Ġconditions": 5684,
      "Ġallows": 5685,
      "Ġrabbit": 5686,
      "Ġmotorcy": 5687,
      "Ġtor": 5688,
      "Ġlower": 5689,
      "sting": 5690,
      "Ġdonation": 5691,
      "Ġtips": 5692,
      "Ġcustoms": 5693,
      "Ġcaptured": 5694,
      "Ġtechnology": 5695,
      "Ġinvented": 5696,
      "Ġhunting": 5697,
      "Ġwelcoming": 5698,
      "Ġirresponsible": 5699,
      "bella": 5700,
      "Ġhabit": 5701,
      "Ġstairs": 5702,
      "ĠKee": 5703,
      "Ġschools": 5704,
      "Ġclassmates": 5705,
      "ival": 5706,
      "avon": 5707,
      "Ġdeveloped": 5708,
      "Ġflavors": 5709,
      "Ġneglect": 5710,
      "Ġtourna": 5711,
      "Ġuniversity": 5712,
      "ially": 5713,
      "Ġsilly": 5714,
      "vey": 5715,
      "lew": 5716,
      "Ġoutd": 5717,
      "ĠKier": 5718,
      "ĠEver": 5719,
      "ĠGive": 5720,
      "unday": 5721,
      "Ġcards": 5722,
      "To": 5723,
      "die": 5724,
      "non": 5725,
      "ites": 5726,
      "cting": 5727,
      "ĠCivil": 5728,
      "Ġspra": 5729,
      "ĠRevolutionary": 5730,
      "Waiter": 5731,
      "ington": 5732,
      "ĠMade": 5733,
      "Ġvir": 5734,
      "Ġhouses": 5735,
      "Ġsignificant": 5736,
      "Ġsevere": 5737,
      "Ġlecture": 5738,
      "ota": 5739,
      "ĠLak": 5740,
      "ĠKell": 5741,
      "ĠGw": 5742,
      "load": 5743,
      "pected": 5744,
      "ĠScout": 5745,
      "Ġarchit": 5746,
      "Ġordered": 5747,
      "elena": 5748,
      "Ġchef": 5749,
      "Ġhobby": 5750,
      "Ġdiamond": 5751,
      "ĠPaul": 5752,
      "Ġexhilar": 5753,
      "Ġrescue": 5754,
      "Kay": 5755,
      "Ġpig": 5756,
      "Ġthreat": 5757,
      "Ġhustle": 5758,
      "idget": 5759,
      "Ġlimit": 5760,
      "rice": 5761,
      "ĠSab": 5762,
      "Ġsailing": 5763,
      "Ġguard": 5764,
      "ĠJesse": 5765,
      "Ġconclusion": 5766,
      "Ġaggressive": 5767,
      "ĠJour": 5768,
      "rated": 5769,
      "isy": 5770,
      "Ġlake": 5771,
      "ĠFlor": 5772,
      "iva": 5773,
      "Ġdrives": 5774,
      "off": 5775,
      "Ġnut": 5776,
      "Ġnicely": 5777,
      "tering": 5778,
      "Ġsunlight": 5779,
      "ugust": 5780,
      "Ġcreepy": 5781,
      "ĠAcc": 5782,
      "ĠSunday": 5783,
      "ĠGen": 5784,
      "Ġpayment": 5785,
      "Ġblowing": 5786,
      "Ġsleepy": 5787,
      "obi": 5788,
      "Ġpublish": 5789,
      "Ġrecognized": 5790,
      "Ġsoul": 5791,
      "name": 5792,
      "stairs": 5793,
      "Ġsauce": 5794,
      "Ġvom": 5795,
      "hanna": 5796,
      "Ġstruggle": 5797,
      "acle": 5798,
      "avin": 5799,
      "Ġgrowth": 5800,
      "aela": 5801,
      "ĠLooks": 5802,
      "Ġexhib": 5803,
      "Ġstrategy": 5804,
      "wa": 5805,
      "Ġpink": 5806,
      "ionna": 5807,
      "Ġallerg": 5808,
      "Ġgrass": 5809,
      "Ġparent": 5810,
      "abel": 5811,
      "Ġapology": 5812,
      "Ġnearby": 5813,
      "Ġaffecting": 5814,
      "Ġinflu": 5815,
      "Ġconcepts": 5816,
      "Ġskiing": 5817,
      "Carmen": 5818,
      "Ġunex": 5819,
      "Damn": 5820,
      "Ġmir": 5821,
      "Ġenc": 5822,
      "Ġprin": 5823,
      "Ġpermission": 5824,
      "Ġfallen": 5825,
      "ĠÂ¿": 5826,
      "Ġlines": 5827,
      "ĠSus": 5828,
      "even": 5829,
      "ĠKass": 5830,
      "ĠWin": 5831,
      "Ġmoves": 5832,
      "ĠYo": 5833,
      "shawn": 5834,
      "Ġhorri": 5835,
      "Ġrefreshed": 5836,
      "Ġcopy": 5837,
      "Ġplunge": 5838,
      "di": 5839,
      "ms": 5840,
      "Ġser": 5841,
      "Ġdelay": 5842,
      "Ġapologizing": 5843,
      "Ġselfish": 5844,
      "ĠHan": 5845,
      "Ġapprove": 5846,
      "ĠKor": 5847,
      "Ġpoll": 5848,
      "reeze": 5849,
      "Ġwrapped": 5850,
      "Ġisolated": 5851,
      "cca": 5852,
      "person": 5853,
      "Ġlending": 5854,
      "Ġcabin": 5855,
      "Ġcalls": 5856,
      "aila": 5857,
      "Ġstraw": 5858,
      "Ġsweater": 5859,
      "Ġtutor": 5860,
      "Things": 5861,
      "ule": 5862,
      "hew": 5863,
      "Ġcannot": 5864,
      "cast": 5865,
      "Ġreaders": 5866,
      "Ġpresence": 5867,
      "Ġadvisor": 5868,
      "Ġpublished": 5869,
      "Ġlung": 5870,
      "Ġbattery": 5871,
      "Ġclouds": 5872,
      "juan": 5873,
      "rah": 5874,
      "reg": 5875,
      "Ġmeals": 5876,
      "ĠFred": 5877,
      "Ġrooms": 5878,
      "ĠAma": 5879,
      "ĠStar": 5880,
      "Ġdiscovered": 5881,
      "Ġprotest": 5882,
      "Ġefficiently": 5883,
      "Ġsensitive": 5884,
      "Ġtraditional": 5885,
      "Ã©": 5886,
      "Ġath": 5887,
      "cip": 5888,
      "ileigh": 5889,
      "ĠNor": 5890,
      "Ġlaid": 5891,
      "Ġrange": 5892,
      "Ġfruits": 5893,
      "Ġerror": 5894,
      "Ġunexpected": 5895,
      "mond": 5896,
      "yal": 5897,
      "ero": 5898,
      "Ġpow": 5899,
      "Ġitself": 5900,
      "oop": 5901,
      "ĠSay": 5902,
      "ĠCy": 5903,
      "ĠFrom": 5904,
      "Ġclassic": 5905,
      "Ġtopics": 5906,
      "Ġstressful": 5907,
      "Ġcrimin": 5908,
      "Ġpolitical": 5909,
      "Ġbrainstorm": 5910,
      "Teacher": 5911,
      "rad": 5912,
      "asy": 5913,
      "Ġdowns": 5914,
      "Ġattic": 5915,
      "retch": 5916,
      "Ġarmy": 5917,
      "Ġdestroyed": 5918,
      "Ġaccording": 5919,
      "EO": 5920,
      "Kam": 5921,
      "gly": 5922,
      "Ġmilit": 5923,
      "Ġfans": 5924,
      "rik": 5925,
      "Ġreve": 5926,
      "ĠKir": 5927,
      "ĠOn": 5928,
      "ĠMarg": 5929,
      "Ġparked": 5930,
      "Ġenvironmental": 5931,
      "Ġemergency": 5932,
      "Ġfract": 5933,
      "Ġciv": 5934,
      "otic": 5935,
      "Ġstyles": 5936,
      "udd": 5937,
      "Ġrecover": 5938,
      "Ġfilling": 5939,
      "Ġmisunder": 5940,
      "urally": 5941,
      "Ġtransfer": 5942,
      "written": 5943,
      "Ġmotorcycle": 5944,
      "Ġsprained": 5945,
      "Lily": 5946,
      "Ġhammer": 5947,
      "ĠJord": 5948,
      "Ġexe": 5949,
      "Ġpayments": 5950,
      "abeth": 5951,
      "Ġhobb": 5952,
      "Doing": 5953,
      "Ġ19": 5954,
      "brush": 5955,
      "Ġdentist": 5956,
      "Ġdoubt": 5957,
      "Ġmilitary": 5958,
      "Har": 5959,
      "inal": 5960,
      "ĠAry": 5961,
      "ĠCas": 5962,
      "Ġprevious": 5963,
      "ĠFace": 5964,
      "ĠOct": 5965,
      "Ġmemory": 5966,
      "Ġexhilarating": 5967,
      "bs": 5968,
      "Ġast": 5969,
      "ito": 5970,
      "ĠIre": 5971,
      "Ġpour": 5972,
      "Ġdisaster": 5973,
      "Ġdreaming": 5974,
      "Ġyellow": 5975,
      "ĠSec": 5976,
      "Ġsuitcase": 5977,
      "Ġshelves": 5978,
      "ralia": 5979,
      "Ġteen": 5980,
      "Ġscient": 5981,
      "ĠCher": 5982,
      "ĠCong": 5983,
      "Ġspo": 5984,
      "Ġfunction": 5985,
      "ĠFrench": 5986,
      "Ġlemon": 5987,
      "born": 5988,
      "Ġdetermination": 5989,
      "Ġjumped": 5990,
      "Ġsource": 5991,
      "200": 5992,
      "vy": 5993,
      "Ġslice": 5994,
      "Ġlikes": 5995,
      "rating": 5996,
      "onsider": 5997,
      "Ġpotatoes": 5998,
      "Ġstranger": 5999,
      "Ġburger": 6000,
      "Ġthrobbing": 6001,
      "Ġlux": 6002,
      "Ġnails": 6003,
      "Ġsimply": 6004,
      "Ġtournament": 6005,
      "cul": 6006,
      "ĠBer": 6007,
      "ista": 6008,
      "Ġugly": 6009,
      "Ġrele": 6010,
      "ĠGray": 6011,
      "hana": 6012,
      "ĠFinally": 6013,
      "Ġinjury": 6014,
      "Ġassistant": 6015,
      "Ġchips": 6016,
      "Ġmultiple": 6017,
      "Ġinfection": 6018,
      "Ġtelevision": 6019,
      "ĠFacebook": 6020,
      "Fine": 6021,
      "ba": 6022,
      "cis": 6023,
      "lar": 6024,
      "Ġtoes": 6025,
      "eda": 6026,
      "Ġstuffed": 6027,
      "ĠAdam": 6028,
      "ĠAuntie": 6029,
      "Ouch": 6030,
      "itza": 6031,
      "Ġpsych": 6032,
      "eya": 6033,
      "Ġod": 6034,
      "lio": 6035,
      "ĠJill": 6036,
      "Ġspelling": 6037,
      "ĠGi": 6038,
      "Ġpassport": 6039,
      "Ġsunny": 6040,
      "ĠStephan": 6041,
      "Ġerrand": 6042,
      "ivers": 6043,
      "ality": 6044,
      "Ġvill": 6045,
      "ĠWanna": 6046,
      "ĠGian": 6047,
      "Ġcheer": 6048,
      "Ġshoe": 6049,
      "Ġsidewalk": 6050,
      "Ġcarpet": 6051,
      "ĠOtherwise": 6052,
      "In": 6053,
      "cee": 6054,
      "pro": 6055,
      "Ġoven": 6056,
      "Ġstain": 6057,
      "Ġrate": 6058,
      "Ġdeserves": 6059,
      "Ġenter": 6060,
      "Ġappearance": 6061,
      "Ġscarf": 6062,
      "Ġhobbies": 6063,
      "af": 6064,
      "Ġinput": 6065,
      "lyne": 6066,
      "ilet": 6067,
      "ĠRoy": 6068,
      "ĠNy": 6069,
      "Ġsalt": 6070,
      "por": 6071,
      "Ġ7": 6072,
      "Ġplat": 6073,
      "ĠLind": 6074,
      "igan": 6075,
      "ĠNic": 6076,
      "Ġpoet": 6077,
      "Ġtrail": 6078,
      "Ġfridge": 6079,
      "aced": 6080,
      "Ġnaturally": 6081,
      "Ġdeveloping": 6082,
      "Ġpunctual": 6083,
      "ĠKyn": 6084,
      "ĠKens": 6085,
      "Ġscat": 6086,
      "avion": 6087,
      "anae": 6088,
      "Ġcounter": 6089,
      "Ġprofession": 6090,
      "Ġdiary": 6091,
      "ĠTimmy": 6092,
      "Ġrequest": 6093,
      "anced": 6094,
      "Ġliter": 6095,
      "Ġsoda": 6096,
      "iona": 6097,
      "ĠCEO": 6098,
      "Ġintention": 6099,
      "Ġstruct": 6100,
      "ension": 6101,
      "Ġdaily": 6102,
      "Ġprograms": 6103,
      "Ġfulfill": 6104,
      "Ġwrap": 6105,
      "selor": 6106,
      "ĠJare": 6107,
      "ĠKall": 6108,
      "Ġfighter": 6109,
      "Ġshirts": 6110,
      "ĠAlay": 6111,
      "Ġcauses": 6112,
      "Ġinstructor": 6113,
      "Ġverdict": 6114,
      "Ġinspiration": 6115,
      "Mal": 6116,
      "hia": 6117,
      "jour": 6118,
      "wood": 6119,
      "Ġpatch": 6120,
      "ĠBill": 6121,
      "Ġstaff": 6122,
      "entle": 6123,
      "Ġunderstood": 6124,
      "Ġsuggestions": 6125,
      "lut": 6126,
      "using": 6127,
      "Officer": 6128,
      "rently": 6129,
      "ĠYe": 6130,
      "Ġadded": 6131,
      "rance": 6132,
      "uff": 6133,
      "vie": 6134,
      "yram": 6135,
      "anish": 6136,
      "Ġreck": 6137,
      "Ġswings": 6138,
      "ĠFrank": 6139,
      "Ġhandled": 6140,
      "ĠAnal": 6141,
      "ĠJaqu": 6142,
      "Uh": 6143,
      "Ġgentle": 6144,
      "usty": 6145,
      "cio": 6146,
      "Ġcourage": 6147,
      "Ġsite": 6148,
      "Ġshall": 6149,
      "Ġtyp": 6150,
      "Ġignored": 6151,
      "ĠStef": 6152,
      "ĠAustralia": 6153,
      "Ġhesitant": 6154,
      "Ġrob": 6155,
      "Ġsomeday": 6156,
      "ĠLes": 6157,
      "ceptable": 6158,
      "Ġadding": 6159,
      "Ġserved": 6160,
      "Ġcousin": 6161,
      "Ġunac": 6162,
      "Ka": 6163,
      "ices": 6164,
      "ĠEt": 6165,
      "ĠShant": 6166,
      "mani": 6167,
      "Ġcosts": 6168,
      "ĠMaxim": 6169,
      "Ġpancakes": 6170,
      "Ġbeef": 6171,
      "Ġgrandparents": 6172,
      "ĠRodri": 6173,
      "Ġopponent": 6174,
      "Ġunacceptable": 6175,
      "oma": 6176,
      "ĠDoes": 6177,
      "iza": 6178,
      "aryn": 6179,
      "Ġtrial": 6180,
      "rink": 6181,
      "Ġcharges": 6182,
      "Ġboxes": 6183,
      "ĠSpanish": 6184,
      "Ġlifesa": 6185,
      "sses": 6186,
      "Ġcro": 6187,
      "ĠTrist": 6188,
      "ĠMor": 6189,
      "Ġload": 6190,
      "Ġappeal": 6191,
      "ĠWay": 6192,
      "Ġnamed": 6193,
      "ĠBryn": 6194,
      "Ġvoting": 6195,
      "Ġrequire": 6196,
      "Ġcrowded": 6197,
      "Ġlifesaver": 6198,
      "boy": 6199,
      "sten": 6200,
      "utions": 6201,
      "ĠSar": 6202,
      "ĠEme": 6203,
      "ĠSofia": 6204,
      "ĠZa": 6205,
      "ĠVin": 6206,
      "ylin": 6207,
      "Ġphysically": 6208,
      "Ġinvestigate": 6209,
      "Ġscraped": 6210,
      "ĠAccidents": 6211,
      "Ġtend": 6212,
      "antha": 6213,
      "Ġstro": 6214,
      "ĠTen": 6215,
      "Ġshared": 6216,
      "Ġnames": 6217,
      "insert": 6218,
      "Ġopinions": 6219,
      "Ġsurface": 6220,
      "Ġerrands": 6221,
      "ux": 6222,
      "ĠBart": 6223,
      "Ġbien": 6224,
      "Ġhandling": 6225,
      "ĠYam": 6226,
      "ĠBrook": 6227,
      "Ġaccurate": 6228,
      "iara": 6229,
      "Ġroot": 6230,
      "utiful": 6231,
      "Ġchosen": 6232,
      "Ġoffense": 6233,
      "Ġdeadline": 6234,
      "Ġaudition": 6235,
      "Ġsnack": 6236,
      "Ġillness": 6237,
      "ĠJeremy": 6238,
      "jon": 6239,
      "Ġinse": 6240,
      "Ġchased": 6241,
      "Ġcarefully": 6242,
      "avan": 6243,
      "Ġbrothers": 6244,
      "berto": 6245,
      ",\"": 6246,
      "kin": 6247,
      "Ġbeans": 6248,
      "ĠGis": 6249,
      "Ġviews": 6250,
      "Ġsentence": 6251,
      "Sam": 6252,
      "Ġter": 6253,
      "Ġpill": 6254,
      "ett": 6255,
      "andre": 6256,
      "ĠKas": 6257,
      "ĠPri": 6258,
      "rown": 6259,
      "Ġhoped": 6260,
      "Ġpays": 6261,
      "mming": 6262,
      "Ġleadership": 6263,
      "Ġtouched": 6264,
      "Ġblocks": 6265,
      "Ġfortun": 6266,
      "Ġboo": 6267,
      "reading": 6268,
      "rielle": 6269,
      "ĠLilly": 6270,
      "Ġspl": 6271,
      "eline": 6272,
      "Ġdriven": 6273,
      "ĠViv": 6274,
      "Ġclient": 6275,
      "Ġdamages": 6276,
      "Ġassigned": 6277,
      "Dr": 6278,
      "Ġtoll": 6279,
      "ĠBren": 6280,
      "Ġcris": 6281,
      "Ġshout": 6282,
      "ĠKath": 6283,
      "ĠNay": 6284,
      "ĠIsa": 6285,
      "Ġpunishment": 6286,
      "Ġrecycling": 6287,
      "bi": 6288,
      "itz": 6289,
      "ancy": 6290,
      "lei": 6291,
      "irl": 6292,
      "Ġalley": 6293,
      "Ġcaring": 6294,
      "ĠGerm": 6295,
      "Ġattracted": 6296,
      "Ġrenting": 6297,
      "Ġcompete": 6298,
      "Ġrecords": 6299,
      "ĠLynd": 6300,
      "Ġcancelled": 6301,
      "Alex": 6302,
      "Cha": 6303,
      "isley": 6304,
      "idyn": 6305,
      "olina": 6306,
      "ĠPay": 6307,
      "Ġbridge": 6308,
      "hob": 6309,
      "Ġmotions": 6310,
      "ĠAfrica": 6311,
      "Ġcycle": 6312,
      "First": 6313,
      "Lu": 6314,
      "Ġhabits": 6315,
      "Ġstretch": 6316,
      "ĠSyl": 6317,
      "Ġnewest": 6318,
      "Ġenem": 6319,
      "ĠEb": 6320,
      "Ġbitch": 6321,
      "oda": 6322,
      "ĠSteve": 6323,
      "Ġjuicy": 6324,
      "Ġsigned": 6325,
      "Ġsolid": 6326,
      "olf": 6327,
      "Ġsen": 6328,
      "chel": 6329,
      "Ġfift": 6330,
      "Ġease": 6331,
      "Ġmakeup": 6332,
      "Ġstub": 6333,
      "ptain": 6334,
      "Ġmovement": 6335,
      "Ġhopeful": 6336,
      "Ġtricks": 6337,
      "arest": 6338,
      "Ġsupporting": 6339,
      "Ġreservation": 6340,
      "Ġinstall": 6341,
      "Ġrefund": 6342,
      "Ġpracticed": 6343,
      "ĠUncle": 6344,
      "ĠBeautiful": 6345,
      "ghed": 6346,
      "ium": 6347,
      "ches": 6348,
      "Ġtoler": 6349,
      "Ġbreeze": 6350,
      "Ġdude": 6351,
      "Ġstable": 6352,
      "ĠChel": 6353,
      "ĠChant": 6354,
      "Ġconvinced": 6355,
      "Ky": 6356,
      "Kar": 6357,
      "itri": 6358,
      "Ġsigning": 6359,
      "alina": 6360,
      "Ġgolf": 6361,
      "ĠMaken": 6362,
      "Ġloyal": 6363,
      "Ġplot": 6364,
      "Ġmoder": 6365,
      "asty": 6366,
      "ĠVio": 6367,
      "ĠKael": 6368,
      "ĠJuan": 6369,
      "Ġappropri": 6370,
      "Ġeffectively": 6371,
      "Ġremove": 6372,
      "Ah": 6373,
      "nosis": 6374,
      "Ġlend": 6375,
      "ĠAugust": 6376,
      "Ġpros": 6377,
      "ĠOak": 6378,
      "ylee": 6379,
      "ĠMaj": 6380,
      "Ġlaughed": 6381,
      "Ġhonesty": 6382,
      "Ġdistract": 6383,
      "Ġwillingness": 6384,
      "Ġtotaled": 6385,
      "Ġmaintain": 6386,
      "Je": 6387,
      "cen": 6388,
      "het": 6389,
      "ĠTak": 6390,
      "ĠCoach": 6391,
      "ĠKate": 6392,
      "ĠFin": 6393,
      "Ġcuts": 6394,
      "Ġgrounded": 6395,
      "Ġshorter": 6396,
      "Ġjokes": 6397,
      "Ġdouble": 6398,
      "Ġsquare": 6399,
      "ughn": 6400,
      "cl": 6401,
      "aniyah": 6402,
      "etime": 6403,
      "ril": 6404,
      "Ġnearest": 6405,
      "Ġrelease": 6406,
      "ĠLor": 6407,
      "Ġvideos": 6408,
      "Ġintelligence": 6409,
      "ority": 6410,
      "Ġ8": 6411,
      "Ġtear": 6412,
      "rities": 6413,
      "ĠSw": 6414,
      "urt": 6415,
      "Ġindependence": 6416,
      "Ġzoo": 6417,
      "ĠSchool": 6418,
      "iece": 6419,
      "ĠWor": 6420,
      "Ġcompos": 6421,
      "ĠYas": 6422,
      "Ġairpl": 6423,
      "Ġcompetitive": 6424,
      "Ġcenturies": 6425,
      "Ġventure": 6426,
      "Ġmer": 6427,
      "ĠJud": 6428,
      "Ġsafer": 6429,
      "Ġreplaced": 6430,
      "Ġstandards": 6431,
      "loe": 6432,
      "ĠBrian": 6433,
      "Ġdemanding": 6434,
      "Ġarchitecture": 6435,
      "Ġcush": 6436,
      "Ġfinals": 6437,
      "cipl": 6438,
      "Ġlaunch": 6439,
      "ability": 6440,
      "Ġregister": 6441,
      "box": 6442,
      "Ġcharged": 6443,
      "ĠJazz": 6444,
      "ĠSyd": 6445,
      "ĠMcKenzie": 6446,
      "Ġplatform": 6447,
      "bell": 6448,
      "berry": 6449,
      "ki": 6450,
      "kn": 6451,
      "nell": 6452,
      "Ġfed": 6453,
      "Ġsoap": 6454,
      "ĠCourt": 6455,
      "ige": 6456,
      "igner": 6457,
      "Ġord": 6458,
      "ĠOver": 6459,
      "erved": 6460,
      "Ġprognosis": 6461,
      "Ġpasta": 6462,
      "Ġsexy": 6463,
      "Ġwithdraw": 6464,
      "Ġstubborn": 6465,
      "Ġbone": 6466,
      "Ġcu": 6467,
      "atient": 6468,
      "Ġimpul": 6469,
      "care": 6470,
      "ĠReally": 6471,
      "Ġtesting": 6472,
      "Ġdepression": 6473,
      "Ġdelivery": 6474,
      "Ġparano": 6475,
      "Ġsnacks": 6476,
      "Ġsettling": 6477,
      "ltim": 6478,
      "mony": 6479,
      "Ġwrist": 6480,
      "ĠLond": 6481,
      "Ġargue": 6482,
      "rief": 6483,
      "Ġremote": 6484,
      "Ġsticking": 6485,
      "Ġcomplaining": 6486,
      "Ġexpanding": 6487,
      "Professor": 6488,
      "aper": 6489,
      "eight": 6490,
      "rep": 6491,
      "Ġwit": 6492,
      "orable": 6493,
      "Ġreaction": 6494,
      "ĠHer": 6495,
      "Ġoutcome": 6496,
      "ĠAmber": 6497,
      "Ġending": 6498,
      "Ġclosely": 6499,
      "Ġnotebook": 6500,
      "Ġvomit": 6501,
      "fo": 6502,
      "Ġiniti": 6503,
      "ĠMus": 6504,
      "Ġproced": 6505,
      "Ġcaf": 6506,
      "Ġconvert": 6507,
      "Ġsuf": 6508,
      "Ġsunb": 6509,
      "ĠJacqu": 6510,
      "Ġmurder": 6511,
      "Ġnewspaper": 6512,
      "umb": 6513,
      "ĠTat": 6514,
      "asting": 6515,
      "ĠRh": 6516,
      "ĠNak": 6517,
      "Ġhopefully": 6518,
      "ĠDev": 6519,
      "Ġforgotten": 6520,
      "Ġestate": 6521,
      "Ġdarling": 6522,
      "Ġdragon": 6523,
      "Ġmaster": 6524,
      "Ġbones": 6525,
      "sell": 6526,
      "Ġrushing": 6527,
      "itter": 6528,
      "Ġimpatient": 6529,
      "Ġchap": 6530,
      "gged": 6531,
      "ĠZacha": 6532,
      "obey": 6533,
      "Ġneighbors": 6534,
      "Ġsmartest": 6535,
      "Ġpromote": 6536,
      "Ġlandm": 6537,
      "Ġsettle": 6538,
      "Ġuncertain": 6539,
      "Ġsuffered": 6540,
      "made": 6541,
      "Ġsides": 6542,
      "arily": 6543,
      "onda": 6544,
      "Ġsepar": 6545,
      "Ġlistened": 6546,
      "Ġmeantime": 6547,
      "ĠKenn": 6548,
      "Ġdeadlines": 6549,
      "Ġsewing": 6550,
      "Ġtransportation": 6551,
      "Ġtorn": 6552,
      "Yep": 6553,
      "Ġpyram": 6554,
      "eden": 6555,
      "ĠTry": 6556,
      "ctive": 6557,
      "Ġprof": 6558,
      "Ġcave": 6559,
      "Ġchea": 6560,
      "ĠRee": 6561,
      "Ġshoulder": 6562,
      "ĠPet": 6563,
      "Ġmostly": 6564,
      "avian": 6565,
      "Ġburnt": 6566,
      "ĠMadd": 6567,
      "Ġ30": 6568,
      "Ġtroubled": 6569,
      "ĠFlorida": 6570,
      "ĠSecond": 6571,
      "aleigh": 6572,
      "Ġabs": 6573,
      "ĠHal": 6574,
      "ĠDerri": 6575,
      "gel": 6576,
      "ĠEle": 6577,
      "Ġorganize": 6578,
      "Ġclosing": 6579,
      "Ġmeditation": 6580,
      "Ġrecipes": 6581,
      "Ġtoothbrush": 6582,
      "Ġdisgusting": 6583,
      "lifting": 6584,
      "ĠBy": 6585,
      "isters": 6586,
      "Ġbegging": 6587,
      "Ġinher": 6588,
      "etta": 6589,
      "ĠLove": 6590,
      "aze": 6591,
      "ĠPar": 6592,
      "Ġpoli": 6593,
      "Ġbrown": 6594,
      "ĠBlake": 6595,
      "Ġvirus": 6596,
      "ointing": 6597,
      "Ã¡": 6598,
      "eral": 6599,
      "Ġcere": 6600,
      "stru": 6601,
      "Ġkar": 6602,
      "Ġcolon": 6603,
      "Ġsup": 6604,
      "agan": 6605,
      "ĠYa": 6606,
      "Ġentail": 6607,
      "ĠBrend": 6608,
      "ĠJames": 6609,
      "Ġcirc": 6610,
      "Ġtastes": 6611,
      "ĠIr": 6612,
      "Ġden": 6613,
      "orough": 6614,
      "Ġthorough": 6615,
      "adie": 6616,
      "celyn": 6617,
      "ĠAuri": 6618,
      "ĠLake": 6619,
      "inese": 6620,
      "ipment": 6621,
      "action": 6622,
      "Ġattach": 6623,
      "upied": 6624,
      "ĠChinese": 6625,
      "Ġfellow": 6626,
      "balls": 6627,
      "Ġequipment": 6628,
      "Ġlifetime": 6629,
      "Ġindividual": 6630,
      "Ġappropriate": 6631,
      "iar": 6632,
      "town": 6633,
      "inos": 6634,
      "Ġsin": 6635,
      "isten": 6636,
      "like": 6637,
      "ĠLin": 6638,
      "ĠRic": 6639,
      "term": 6640,
      "Ġdiscipl": 6641,
      "ĠDez": 6642,
      "ĠDevon": 6643,
      "Ġhighly": 6644,
      "Ġprices": 6645,
      "ĠSpain": 6646,
      "Mmmm": 6647,
      "ĠDomin": 6648,
      "Ġaspects": 6649,
      "Ġparanoid": 6650,
      "Ġpolicies": 6651,
      "Jerry": 6652,
      "oa": 6653,
      "hered": 6654,
      "verage": 6655,
      "ĠLar": 6656,
      "essert": 6657,
      "ĠGa": 6658,
      "Ġunl": 6659,
      "ailey": 6660,
      "ĠSimon": 6661,
      "gent": 6662,
      "Ġdessert": 6663,
      "reason": 6664,
      "Ġdesigner": 6665,
      "Ġpossess": 6666,
      "Ġsnee": 6667,
      "Ġobs": 6668,
      "Ġpainted": 6669,
      "ashaun": 6670,
      "Ġbasement": 6671,
      "Ġciviliz": 6672,
      "Ray": 6673,
      "vard": 6674,
      "llyn": 6675,
      "Ġhire": 6676,
      "Ġrepe": 6677,
      "ĠAnderson": 6678,
      "mploy": 6679,
      "itionally": 6680,
      "ĠKai": 6681,
      "Ġrecommended": 6682,
      "Ġstove": 6683,
      "Ġjumping": 6684,
      "screen": 6685,
      "Ġtension": 6686,
      "Ġflex": 6687,
      "ĠSil": 6688,
      "Ġtragic": 6689,
      "Ġwarning": 6690,
      "Ġbreathtaking": 6691,
      "Ġengaged": 6692,
      "Ġbrighten": 6693,
      "Ġkitten": 6694,
      "Ġpoetry": 6695,
      "Ġreckless": 6696,
      "Ġic": 6697,
      "Ġpitch": 6698,
      "ĠBible": 6699,
      "aden": 6700,
      "ĠMall": 6701,
      "Ġpatience": 6702,
      "Ġrisky": 6703,
      "Ġcritical": 6704,
      "Ġopera": 6705,
      "Ġattractive": 6706,
      "Ġconstruction": 6707,
      "Ġcoughing": 6708,
      "uing": 6709,
      "stead": 6710,
      "ppa": 6711,
      "ĠLey": 6712,
      "olar": 6713,
      "Ġunp": 6714,
      "Ġcommer": 6715,
      "Ġtwice": 6716,
      "Ġvacu": 6717,
      "Ġvalid": 6718,
      "Ġengaging": 6719,
      "Ġpanick": 6720,
      "Ġfactory": 6721,
      "Ġitchy": 6722,
      "Int": 6723,
      "dies": 6724,
      "Ġtit": 6725,
      "alu": 6726,
      "Ġrat": 6727,
      "ĠNich": 6728,
      "shaun": 6729,
      "Ġelected": 6730,
      "Ġhumili": 6731,
      "Neither": 6732,
      "Ġpatterns": 6733,
      "Ġcriminal": 6734,
      "Ok": 6735,
      "bling": 6736,
      "oon": 6737,
      "Ġmile": 6738,
      "Ġmint": 6739,
      "ula": 6740,
      "rael": 6741,
      "ĠLis": 6742,
      "iest": 6743,
      "ĠEst": 6744,
      "ĠAmaz": 6745,
      "odi": 6746,
      "Ġvoices": 6747,
      "bitious": 6748,
      "ĠValent": 6749,
      "Bri": 6750,
      "Ros": 6751,
      "place": 6752,
      "xy": 6753,
      "Ġsess": 6754,
      "Ġstare": 6755,
      "Ġimpression": 6756,
      "ĠAndre": 6757,
      "lynne": 6758,
      "Ġcreativity": 6759,
      "Ġstudio": 6760,
      "ĠMaha": 6761,
      "Ġbasically": 6762,
      "Ġdepending": 6763,
      "Ġpets": 6764,
      "Ġconversations": 6765,
      "Ġmanagement": 6766,
      "Ġcapital": 6767,
      "Ġvillage": 6768,
      "ĠBrea": 6769,
      "thony": 6770,
      "Ġouts": 6771,
      "Ġdeer": 6772,
      "ĠEz": 6773,
      "Ġactor": 6774,
      "ĠFer": 6775,
      "Ġpursu": 6776,
      "Ġrelative": 6777,
      "Ġvolunteers": 6778,
      "olden": 6779,
      "Ġdigging": 6780,
      "Ġhorrible": 6781,
      "hobic": 6782,
      "Ġcommercial": 6783,
      "enna": 6784,
      "ĠTw": 6785,
      "ĠJenn": 6786,
      "ĠSn": 6787,
      "Ġspa": 6788,
      "Ġagent": 6789,
      "ĠWant": 6790,
      "Ġrelate": 6791,
      "ĠHarvard": 6792,
      "vity": 6793,
      "Ġloser": 6794,
      "Ġambitious": 6795,
      "indy": 6796,
      "hann": 6797,
      "Ġears": 6798,
      "odie": 6799,
      "Ġacceptable": 6800,
      "Ġchapter": 6801,
      "Ġlandmarks": 6802,
      "God": 6803,
      "Un": 6804,
      "Ġjar": 6805,
      "ado": 6806,
      "Ġbump": 6807,
      "Ġcramped": 6808,
      "ĠAddy": 6809,
      "Ġfully": 6810,
      "Ġaffordable": 6811,
      "Ġyelled": 6812,
      "Ġemotional": 6813,
      "carlos": 6814,
      "Ġspiritual": 6815,
      "Ġcompanies": 6816,
      "May": 6817,
      "Mary": 6818,
      "myn": 6819,
      "Ġfest": 6820,
      "aniya": 6821,
      "Ġur": 6822,
      "Ġcoin": 6823,
      "ondra": 6824,
      "Ġfocusing": 6825,
      "Ġstrongly": 6826,
      "Ġpresents": 6827,
      "Ġinformative": 6828,
      "Ġsecrets": 6829,
      "Ġdirect": 6830,
      "Ġhumans": 6831,
      "Ġmilliona": 6832,
      "Ġmeatballs": 6833,
      "Ġkingdom": 6834,
      "Ġvanilla": 6835,
      "Ġmodern": 6836,
      "bra": 6837,
      "cur": 6838,
      "pm": 6839,
      "Ġanaly": 6840,
      "Ġbul": 6841,
      "ĠAal": 6842,
      "ĠAliz": 6843,
      "ushed": 6844,
      "Ġovernight": 6845,
      "ĠNav": 6846,
      "Ġrunner": 6847,
      "Ġfights": 6848,
      "def": 6849,
      "Ġdropping": 6850,
      "Ġannivers": 6851,
      "Ġballet": 6852,
      "ĠLaw": 6853,
      "ĠGeorg": 6854,
      "Ġblanket": 6855,
      "des": 6856,
      "mmed": 6857,
      "ĠInt": 6858,
      "Ġpor": 6859,
      "onie": 6860,
      "Ġbutt": 6861,
      "Ġsuits": 6862,
      "Ġclut": 6863,
      "ĠRick": 6864,
      "Ġdisplay": 6865,
      "ggage": 6866,
      "erto": 6867,
      "Ġclassroom": 6868,
      "iyana": 6869,
      "Ġexplode": 6870,
      "Ġhost": 6871,
      "obal": 6872,
      "Ġgraceful": 6873,
      "Ġaccounting": 6874,
      "ĠGrandpa": 6875,
      "conscious": 6876,
      "ipe": 6877,
      "Ġaverage": 6878,
      "erget": 6879,
      "Ġpupp": 6880,
      "leah": 6881,
      "cest": 6882,
      "ĠMother": 6883,
      "Ġenerget": 6884,
      "lfred": 6885,
      "ĠPors": 6886,
      "agon": 6887,
      "ionship": 6888,
      "ians": 6889,
      "acey": 6890,
      "Ġ12": 6891,
      "Ġfreezing": 6892,
      "Ġshots": 6893,
      "Ġslacking": 6894,
      "Ġpepper": 6895,
      "Ġkitty": 6896,
      "Ġfulfilling": 6897,
      "ĠMajesty": 6898,
      "Ġanniversary": 6899,
      "dal": 6900,
      "Ġted": 6901,
      "Ġnarrow": 6902,
      "ustrop": 6903,
      "kes": 6904,
      "orey": 6905,
      "Ġlog": 6906,
      "azar": 6907,
      "assion": 6908,
      "Ġunw": 6909,
      "Ġtomatoes": 6910,
      "Ġtrend": 6911,
      "ĠFrancis": 6912,
      "Ġcereal": 6913,
      "Ġpounding": 6914,
      "dee": 6915,
      "Ġancest": 6916,
      "ĠBus": 6917,
      "Ġlas": 6918,
      "ĠMaz": 6919,
      "Ġbutton": 6920,
      "Ġadvert": 6921,
      "iesha": 6922,
      "Ġcraft": 6923,
      "Ġcaptain": 6924,
      "Ġclaustrop": 6925,
      "Ġcases": 6926,
      "Ġscreaming": 6927,
      "Ġmeasure": 6928,
      "Ġduty": 6929,
      "Ġenergetic": 6930,
      "El": 6931,
      "oti": 6932,
      "ĠAmb": 6933,
      "ĠAlee": 6934,
      "ĠKin": 6935,
      "Ġchaotic": 6936,
      "Ġadorable": 6937,
      "Ġheads": 6938,
      "Ġtrap": 6939,
      "Ġpetition": 6940,
      "ex": 6941,
      "jan": 6942,
      "occ": 6943,
      "oner": 6944,
      "lls": 6945,
      "Ġthesis": 6946,
      "Ġdoors": 6947,
      "ifer": 6948,
      "Ġneither": 6949,
      "ives": 6950,
      "standing": 6951,
      "ĠNah": 6952,
      "Ġacce": 6953,
      "ylen": 6954,
      "Ġdiscover": 6955,
      "Ġexercises": 6956,
      "Ġlanded": 6957,
      "ontae": 6958,
      "Ġcompliments": 6959,
      "Ġbowl": 6960,
      "Ġmassage": 6961,
      "Ġclaustrophobic": 6962,
      "kward": 6963,
      "uy": 6964,
      "zed": 6965,
      "erin": 6966,
      "Ġgut": 6967,
      "thy": 6968,
      "ĠAless": 6969,
      "Ġbelieved": 6970,
      "Ġcomment": 6971,
      "Ġintim": 6972,
      "Ġthankful": 6973,
      "ĠFinn": 6974,
      "Ġawkward": 6975,
      "Ġmedal": 6976,
      "fficient": 6977,
      "ĠBreck": 6978,
      "Ġcheesebur": 6979,
      "Ġfortunate": 6980,
      "Ms": 6981,
      "kah": 6982,
      "Ġped": 6983,
      "lda": 6984,
      "Ġcomments": 6985,
      "Ġpreocc": 6986,
      "Ġschoolwork": 6987,
      "Ġmeetings": 6988,
      "ĠVi": 6989,
      "Ġpolite": 6990,
      "ĠMario": 6991,
      "Ġrecognize": 6992,
      "Ġcounselor": 6993,
      "Ġparticipate": 6994,
      "Ġairplane": 6995,
      "ziel": 6996,
      "ĠHam": 6997,
      "Ġoffend": 6998,
      "Ġunreason": 6999,
      "ĠYan": 7000,
      "Ġgrabbed": 7001,
      "Ġobey": 7002,
      "Ġlocated": 7003,
      "Ġgolden": 7004,
      "Ġmethods": 7005,
      "Ġpreoccupied": 7006,
      "Ġunreasonable": 7007,
      "Ay": 7008,
      "syn": 7009,
      "Ġwasting": 7010,
      "Ġsisters": 7011,
      "rod": 7012,
      "ĠSasha": 7013,
      "ulate": 7014,
      "Ġcarro": 7015,
      "Ġkindness": 7016,
      "aret": 7017,
      "Ġproduction": 7018,
      "Ġhistor": 7019,
      "Ġexercising": 7020,
      "Ġnecessarily": 7021,
      "Ġcontribut": 7022,
      "Ġcigarette": 7023,
      "Ġdiagnosed": 7024,
      "Ġterrified": 7025,
      "Bl": 7026,
      "Emm": 7027,
      "ini": 7028,
      "Ġseries": 7029,
      "Ġdrove": 7030,
      "Ġliar": 7031,
      "Ġstam": 7032,
      "Ġchilly": 7033,
      "aker": 7034,
      "risha": 7035,
      "ups": 7036,
      "Ġ15": 7037,
      "stery": 7038,
      "Ġskyd": 7039,
      "Ġdiscussion": 7040,
      "going": 7041,
      "nesses": 7042,
      "Ġpollution": 7043,
      "Ġlemonade": 7044,
      "Ġsunburn": 7045,
      "Cam": 7046,
      "bu": 7047,
      "Ġbicy": 7048,
      "Ġcone": 7049,
      "Ġultim": 7050,
      "riever": 7051,
      "rigu": 7052,
      "ĠMid": 7053,
      "ĠMill": 7054,
      "Ġreject": 7055,
      "ulting": 7056,
      "Ġsacri": 7057,
      "illian": 7058,
      "Ġscholar": 7059,
      "Ġimportance": 7060,
      "ĠFo": 7061,
      "ĠFab": 7062,
      "ĠOw": 7063,
      "Ġbreaks": 7064,
      "Ġcatchy": 7065,
      "Ġreput": 7066,
      "ĠEmili": 7067,
      "Ġdescription": 7068,
      "Ġconvicted": 7069,
      "Ew": 7070,
      "Grand": 7071,
      "isted": 7072,
      "Ġpud": 7073,
      "Ġund": 7074,
      "ĠTrying": 7075,
      "Ġtool": 7076,
      "Ġcondu": 7077,
      "Ġimposs": 7078,
      "Ġsword": 7079,
      "Ġcollap": 7080,
      "Ġsunscreen": 7081,
      "Ġfits": 7082,
      "Ġwarmth": 7083,
      "Ġformal": 7084,
      "ĠThom": 7085,
      "Ġmagical": 7086,
      "Ġvalues": 7087,
      "Ġtraditions": 7088,
      "Ġenthusi": 7089,
      "ĠWorld": 7090,
      "ĠLondon": 7091,
      "Jan": 7092,
      "grand": 7093,
      "Ġbeg": 7094,
      "Ġmystery": 7095,
      "rion": 7096,
      "Ġstitch": 7097,
      "ĠAj": 7098,
      "ooked": 7099,
      "Ġprint": 7100,
      "ĠFat": 7101,
      "ĠFriend": 7102,
      "Ġruns": 7103,
      "Ġoptim": 7104,
      "iko": 7105,
      "Ġcampus": 7106,
      "Ġremain": 7107,
      "Ġwebsites": 7108,
      "ĠBrant": 7109,
      "Ġdump": 7110,
      "ĠWithout": 7111,
      "Ġbutterf": 7112,
      "Ġimpossible": 7113,
      "Wh": 7114,
      "iry": 7115,
      "vable": 7116,
      "Ġpil": 7117,
      "ront": 7118,
      "ahir": 7119,
      "ĠDani": 7120,
      "ĠCand": 7121,
      "Ġshiny": 7122,
      "Ġintrigu": 7123,
      "olas": 7124,
      "Ġdisrupting": 7125,
      "Ġjury": 7126,
      "Ġideal": 7127,
      "Ġweighing": 7128,
      "Ġmillionaire": 7129,
      "Ġancestors": 7130,
      "Ġthunder": 7131,
      "Ġweap": 7132,
      "ĠEx": 7133,
      "Ġmessages": 7134,
      "order": 7135,
      "Ġstepping": 7136,
      "Ġrestless": 7137,
      "ĠBeat": 7138,
      "Bon": 7139,
      "Lila": 7140,
      "how": 7141,
      "Ġtail": 7142,
      "hara": 7143,
      "alian": 7144,
      "secut": 7145,
      "Ġdonations": 7146,
      "ĠCli": 7147,
      "Ġspider": 7148,
      "Ġspreading": 7149,
      "lam": 7150,
      "Ġlean": 7151,
      "Ġskate": 7152,
      "ĠVan": 7153,
      "Ġdetention": 7154,
      "ĠReady": 7155,
      "Ġparticularly": 7156,
      "Ġinformed": 7157,
      "Ġhealing": 7158,
      "Ġghosts": 7159,
      "Ġinitiative": 7160,
      "Ġceremony": 7161,
      "Ann": 7162,
      "word": 7163,
      "Ġtack": 7164,
      "Ġtiny": 7165,
      "Ġheights": 7166,
      "Ġexcept": 7167,
      "ĠCele": 7168,
      "Ġvast": 7169,
      "Ġbushes": 7170,
      "Ġbug": 7171,
      "ĠJov": 7172,
      "ĠFl": 7173,
      "Ġseconds": 7174,
      "ĠMarcell": 7175,
      "Ġresol": 7176,
      "Ġcliff": 7177,
      "Excellent": 7178,
      "Ġlarger": 7179,
      "Ġdecorations": 7180,
      "Ġshadow": 7181,
      "Da": 7182,
      "Day": 7183,
      "Ġwasted": 7184,
      "staff": 7185,
      "ĠHappy": 7186,
      "ĠMain": 7187,
      "ĠShel": 7188,
      "eam": 7189,
      "Ġsumm": 7190,
      "Ġexcha": 7191,
      "ĠPro": 7192,
      "iani": 7193,
      "Ġnegoti": 7194,
      "Ġturkey": 7195,
      "Bob": 7196,
      "Ca": 7197,
      "zer": 7198,
      "ĠRub": 7199,
      "ressing": 7200,
      "Ġartwork": 7201,
      "Ġjunk": 7202,
      "Ġboys": 7203,
      "ĠShould": 7204,
      "ĠNathan": 7205,
      "Ġoverheard": 7206,
      "Ġgambling": 7207,
      "Ġserving": 7208,
      "cipal": 7209,
      "drated": 7210,
      "ford": 7211,
      "new": 7212,
      "zee": 7213,
      "Ġdip": 7214,
      "ĠJerm": 7215,
      "ĠDak": 7216,
      "eaven": 7217,
      "Ġhometown": 7218,
      "rue": 7219,
      "Ġmindful": 7220,
      "Ġpoison": 7221,
      "ĠMarvel": 7222,
      "Ġrug": 7223,
      "Ġarrive": 7224,
      "Ġincreasing": 7225,
      "ĠKhali": 7226,
      "Ġframe": 7227,
      "Ġzone": 7228,
      "quez": 7229,
      "Ġkarate": 7230,
      "defense": 7231,
      "Ġscholarship": 7232,
      "Dar": 7233,
      "FO": 7234,
      "dan": 7235,
      "rings": 7236,
      "si": 7237,
      "lli": 7238,
      "Ġhamb": 7239,
      "Ġgoss": 7240,
      "Ġplaced": 7241,
      "ousand": 7242,
      "Ġacade": 7243,
      "Ġleak": 7244,
      "ĠYu": 7245,
      "Ġdriveway": 7246,
      "ĠColl": 7247,
      "Ġsurroundings": 7248,
      "check": 7249,
      "romise": 7250,
      "ĠBoston": 7251,
      "hetic": 7252,
      "Ġpyramids": 7253,
      "Ġporch": 7254,
      "Ġhambur": 7255,
      "Ġgossip": 7256,
      "eeing": 7257,
      "Ġbegan": 7258,
      "ases": 7259,
      "Ġlim": 7260,
      "ĠJail": 7261,
      "lph": 7262,
      "Ġglo": 7263,
      "Ġanytime": 7264,
      "ĠNi": 7265,
      "beat": 7266,
      "Ġunit": 7267,
      "ogan": 7268,
      "Ġteachers": 7269,
      "Ġsymb": 7270,
      "Ġrefer": 7271,
      "Ġpenny": 7272,
      "Ġrespectful": 7273,
      "Ġsuffoc": 7274,
      "Ġmiser": 7275,
      "Ġirrit": 7276,
      "Ġcombination": 7277,
      "Ġcitizen": 7278,
      "Ġcheeseburger": 7279,
      "bes": 7280,
      "iment": 7281,
      "Ġ*": 7282,
      "Ġwaking": 7283,
      "Ġmark": 7284,
      "Ġrow": 7285,
      "ĠAza": 7286,
      "ĠSel": 7287,
      "ĠCord": 7288,
      "Ġraising": 7289,
      "ĠAmy": 7290,
      "Ġruining": 7291,
      "Ġfitness": 7292,
      "ĠJama": 7293,
      "Ġfloating": 7294,
      "Ġhorses": 7295,
      "ĠCamb": 7296,
      "Ġdrawer": 7297,
      "ĠScar": 7298,
      "Ġspinning": 7299,
      "Christ": 7300,
      "Ġimpulsive": 7301,
      "Ġcircum": 7302,
      "Ġreputation": 7303,
      "La": 7304,
      "Ã³": 7305,
      "Ġserm": 7306,
      "inger": 7307,
      "Ġcities": 7308,
      "mel": 7309,
      "ĠItalian": 7310,
      "ĠTar": 7311,
      "ĠMin": 7312,
      "Ġtires": 7313,
      "Ġreson": 7314,
      "Ġfaint": 7315,
      "ilani": 7316,
      "amin": 7317,
      "tern": 7318,
      "erior": 7319,
      "Ġblur": 7320,
      "rison": 7321,
      "ylan": 7322,
      "Ġdiscount": 7323,
      "Ġhonestly": 7324,
      "ketch": 7325,
      "venience": 7326,
      "Ġsigns": 7327,
      "Ġdistance": 7328,
      "Ġreasonable": 7329,
      "ĠCongrats": 7330,
      "Son": 7331,
      "Ste": 7332,
      "belle": 7333,
      "Ġwound": 7334,
      "Ġmelt": 7335,
      "atic": 7336,
      "life": 7337,
      "ĠLib": 7338,
      "ĠEvan": 7339,
      "ĠRhy": 7340,
      "Ġskilled": 7341,
      "uming": 7342,
      "ĠUFO": 7343,
      "cript": 7344,
      "Ġpulling": 7345,
      "Ġexpressing": 7346,
      "Ġcandidates": 7347,
      "____": 7348,
      "roads": 7349,
      "Ġpuddle": 7350,
      "Ġtum": 7351,
      "Ġtrop": 7352,
      "Ġwise": 7353,
      "ednes": 7354,
      "Ġthousand": 7355,
      "uled": 7356,
      "Ġamuse": 7357,
      "ĠKather": 7358,
      "Ġrise": 7359,
      "Ġrides": 7360,
      "Ġspots": 7361,
      "Ġstrict": 7362,
      "Max": 7363,
      "Ġcalcul": 7364,
      "Ġattached": 7365,
      "Ġenthusiastic": 7366,
      "ednesday": 7367,
      "Av": 7368,
      "las": 7369,
      "rus": 7370,
      "hem": 7371,
      "Ġbou": 7372,
      "Ġtheater": 7373,
      "Ġknitting": 7374,
      "ĠSun": 7375,
      "Ġrecess": 7376,
      "ĠDy": 7377,
      "Ġrash": 7378,
      "eresting": 7379,
      "ĠGiov": 7380,
      "Ġcares": 7381,
      "ucky": 7382,
      "Ġhimself": 7383,
      "lord": 7384,
      "ĠChristian": 7385,
      "Ġinsight": 7386,
      "Ġcrossroads": 7387,
      "Ġkicking": 7388,
      "Ġearthqu": 7389,
      "Sir": 7390,
      "corn": 7391,
      "oci": 7392,
      "ody": 7393,
      "aries": 7394,
      "Ġbreed": 7395,
      "ĠMath": 7396,
      "Ġintru": 7397,
      "ĠKing": 7398,
      "ĠRasha": 7399,
      "Ġacted": 7400,
      "ĠYose": 7401,
      "Ġfaces": 7402,
      "Ġpopcorn": 7403,
      "ĠDont": 7404,
      "onta": 7405,
      "together": 7406,
      "ĠJesus": 7407,
      "ĠestÃ¡": 7408,
      "Ġfortune": 7409,
      "Ġbruises": 7410,
      "Ġorders": 7411,
      "Ġamusement": 7412,
      "As": 7413,
      "hic": 7414,
      "rint": 7415,
      "had": 7416,
      "Ġtoilet": 7417,
      "ĠBla": 7418,
      "Ġmic": 7419,
      "Ġly": 7420,
      "Ġklut": 7421,
      "ĠMate": 7422,
      "Ġexcite": 7423,
      "Ġdisobey": 7424,
      "Ġaccused": 7425,
      "Ġspecies": 7426,
      "ĠVen": 7427,
      "Ġdisappointing": 7428,
      "Ġchocolates": 7429,
      "Ġdeveloper": 7430,
      "Ġengineering": 7431,
      "Ġscratching": 7432,
      "Ġsilver": 7433,
      "oe": 7434,
      "Ġdust": 7435,
      "aling": 7436,
      "Ġwashed": 7437,
      "ĠAis": 7438,
      "Ġtied": 7439,
      "ĠEmber": 7440,
      "Ġupsetting": 7441,
      "empt": 7442,
      "Ġsets": 7443,
      "ĠAdri": 7444,
      "Ġinvestments": 7445,
      "Ġdamaged": 7446,
      "Ġproviding": 7447,
      "ĠMayor": 7448,
      "phone": 7449,
      "Ġrequires": 7450,
      "ĠMcKenna": 7451,
      "Ġpowers": 7452,
      "onsiderate": 7453,
      "Ġbicycle": 7454,
      "Ã³mo": 7455,
      "Ġexcitement": 7456,
      "eme": 7457,
      "gant": 7458,
      "Ġmi": 7459,
      "Ġsomehow": 7460,
      "ĠChy": 7461,
      "opher": 7462,
      "opening": 7463,
      "osha": 7464,
      "Ġinconsiderate": 7465,
      "ĠMarke": 7466,
      "loie": 7467,
      "ĠAdditionally": 7468,
      "Ġhumor": 7469,
      "ĠDemetri": 7470,
      "Ġnurse": 7471,
      "ĠTrust": 7472,
      "Ġcircumst": 7473,
      "Ra": 7474,
      "for": 7475,
      "lant": 7476,
      "Ġbond": 7477,
      "Ġblew": 7478,
      "Ġhill": 7479,
      "alty": 7480,
      "enton": 7481,
      "oline": 7482,
      "ĠRow": 7483,
      "elen": 7484,
      "ĠWednesday": 7485,
      "Ġarts": 7486,
      "Ġfairly": 7487,
      "Ġluggage": 7488,
      "Ġoutdone": 7489,
      "Ġlungs": 7490,
      "Ġrevenge": 7491,
      "Ġklutz": 7492,
      "iver": 7493,
      "Ġmug": 7494,
      "Ġroast": 7495,
      "Ġbon": 7496,
      "sean": 7497,
      "lder": 7498,
      "ĠMare": 7499,
      "ĠJun": 7500,
      "Ġbugging": 7501,
      "shia": 7502,
      "Ġprogra": 7503,
      "Ġ17": 7504,
      "Ġtape": 7505,
      "ĠBeck": 7506,
      "Ġforms": 7507,
      "Ġfacts": 7508,
      "Ġneglecting": 7509,
      "Ġpursuing": 7510,
      "ĠTrey": 7511,
      "ĠCD": 7512,
      "ĠEmp": 7513,
      "ĠRom": 7514,
      "ĠPen": 7515,
      "ĠFeli": 7516,
      "works": 7517,
      "Ġexplan": 7518,
      "Ġimagined": 7519,
      "Ġdifficulty": 7520,
      "Ġbothers": 7521,
      "riela": 7522,
      "Ġbankrupt": 7523,
      "Ġposted": 7524,
      "Ġheadaches": 7525,
      "Ġclimbed": 7526,
      "Ġallergic": 7527,
      "Ġdelayed": 7528,
      "Ġsuperv": 7529,
      "Jac": 7530,
      "mail": 7531,
      "was": 7532,
      "Ġpile": 7533,
      "heem": 7534,
      "Ġcart": 7535,
      "store": 7536,
      "Ġbes": 7537,
      "ĠAlly": 7538,
      "ĠWest": 7539,
      "Ġcoord": 7540,
      "ĠEach": 7541,
      "Ġtrigg": 7542,
      "Ġroommate": 7543,
      "Ġsubs": 7544,
      "Ġgenerally": 7545,
      "Ġdetailed": 7546,
      "Ġsatisfaction": 7547,
      "Ġintrodu": 7548,
      "ĠToday": 7549,
      "Ġethic": 7550,
      "ĠBasically": 7551,
      "Gab": 7552,
      "Mad": 7553,
      "Try": 7554,
      "bow": 7555,
      "ji": 7556,
      "ued": 7557,
      "Ġton": 7558,
      "Ġdiving": 7559,
      "entially": 7560,
      "eable": 7561,
      "ĠLea": 7562,
      "ĠKourt": 7563,
      "mbled": 7564,
      "Ġunne": 7565,
      "Ġblow": 7566,
      "Ġfloors": 7567,
      "rics": 7568,
      "ricular": 7569,
      "Ġcongrats": 7570,
      "laying": 7571,
      "iasm": 7572,
      "Ġcastle": 7573,
      "Ġnonstop": 7574,
      "Ġunconscious": 7575,
      "Ġastron": 7576,
      "Ġunnecess": 7577,
      "well": 7578,
      "ision": 7579,
      "ĠHend": 7580,
      "Ġgoods": 7581,
      "ĠDion": 7582,
      "Ġspell": 7583,
      "Ġmonk": 7584,
      "Ġva": 7585,
      "olo": 7586,
      "Ġflown": 7587,
      "Ġsolving": 7588,
      "Ġmayor": 7589,
      "ĠJulie": 7590,
      "Ġpatients": 7591,
      "Ġadopted": 7592,
      "Ġunemploy": 7593,
      "Ġenthusiasm": 7594,
      "Ġcomposition": 7595,
      "12": 7596,
      "mir": 7597,
      "rees": 7598,
      "itl": 7599,
      "hea": 7600,
      "Ġduck": 7601,
      "ading": 7602,
      "ĠJann": 7603,
      "eagan": 7604,
      "eara": 7605,
      "Ġshares": 7606,
      "Ġgifts": 7607,
      "Ġbars": 7608,
      "Ġartists": 7609,
      "Ġsuspect": 7610,
      "Ġroller": 7611,
      "Ġgranted": 7612,
      "ĠAmazon": 7613,
      "curricular": 7614,
      "Ġbesides": 7615,
      "Aly": 7616,
      "oppy": 7617,
      "Ġwand": 7618,
      "Ġwinner": 7619,
      "Ġbeating": 7620,
      "ĠAg": 7621,
      "Ġbodies": 7622,
      "ĠGer": 7623,
      "lings": 7624,
      "annie": 7625,
      "Ġextracurricular": 7626,
      "ĠArt": 7627,
      "Ġmetal": 7628,
      "ĠBrianna": 7629,
      "Ġinsights": 7630,
      "Ġgraduating": 7631,
      "Ġtextbook": 7632,
      "ĠMost": 7633,
      "Help": 7634,
      "ichael": 7635,
      "Ġgrip": 7636,
      "Ġpretending": 7637,
      "Ġwaited": 7638,
      "ĠGwen": 7639,
      "Bonjour": 7640,
      "staffed": 7641,
      "ĠestÃ¡s": 7642,
      "Cor": 7643,
      "Eli": 7644,
      "Yo": 7645,
      "mund": 7646,
      "olyn": 7647,
      "Ġtone": 7648,
      "anges": 7649,
      "Ġsoot": 7650,
      "icia": 7651,
      "ĠPho": 7652,
      "oryn": 7653,
      "ĠAnne": 7654,
      "Ġcrack": 7655,
      "licate": 7656,
      "Ġinspire": 7657,
      "Ġlandscape": 7658,
      "Ġcollected": 7659,
      "Ġmentioned": 7660,
      "Ġtaller": 7661,
      "guez": 7662,
      "Ġmechanic": 7663,
      "ĠRodriguez": 7664,
      "inosaur": 7665,
      "ost": 7666,
      "rid": 7667,
      "sley": 7668,
      "Ġlad": 7669,
      "enting": 7670,
      "enne": 7671,
      "atha": 7672,
      "idan": 7673,
      "ĠAve": 7674,
      "ĠAra": 7675,
      "Ġbak": 7676,
      "Ġoranges": 7677,
      "laus": 7678,
      "Ġlab": 7679,
      "lievable": 7680,
      "Ġattacking": 7681,
      "Ġarrange": 7682,
      "Ġpsychology": 7683,
      "Ġmiserable": 7684,
      "Ġsermon": 7685,
      "bies": 7686,
      "oll": 7687,
      "Ġdy": 7688,
      "onnect": 7689,
      "ador": 7690,
      "ĠSol": 7691,
      "hya": 7692,
      "Ġspark": 7693,
      "iled": 7694,
      "Ġhardworking": 7695,
      "ĠEast": 7696,
      "Ġclum": 7697,
      "ĠRed": 7698,
      "Ġincon": 7699,
      "ĠZac": 7700,
      "erries": 7701,
      "loey": 7702,
      "ĠLeon": 7703,
      "Ġperspectives": 7704,
      "Ġflattered": 7705,
      "Ġfluids": 7706,
      "Ġstrive": 7707,
      "Ġearthquake": 7708,
      "Hola": 7709,
      "Ġaunt": 7710,
      "Ġthirt": 7711,
      "riella": 7712,
      "oph": 7713,
      "Ġherself": 7714,
      "Ġhandy": 7715,
      "Then": 7716,
      "ĠAmanda": 7717,
      "Ġregist": 7718,
      "ĠOfficer": 7719,
      "Ġdishwas": 7720,
      "Ġexcuses": 7721,
      "Ġelement": 7722,
      "Ġflir": 7723,
      "Ġlocker": 7724,
      "Ġprocedure": 7725,
      "Ġcarrots": 7726,
      "Ġskydiving": 7727,
      "YZ": 7728,
      "sie": 7729,
      "ãĢ": 7730,
      "Ġtun": 7731,
      "igi": 7732,
      "ĠCanyon": 7733,
      "ĠGene": 7734,
      "Ġcarefree": 7735,
      "Ġfrustration": 7736,
      "Ġtwenty": 7737,
      "Ġtank": 7738,
      "Ġmedium": 7739,
      "Ġdestru": 7740,
      "Ġpersonality": 7741,
      "Ġgallon": 7742,
      "Ġaccepting": 7743,
      "mari": 7744,
      "Ġtent": 7745,
      "Ġtoe": 7746,
      "Ġbom": 7747,
      "Ġdinosaur": 7748,
      "Ġeli": 7749,
      "utious": 7750,
      "Ġprosecut": 7751,
      "Ġcautious": 7752,
      "itten": 7753,
      "forest": 7754,
      "Ġdepressed": 7755,
      "Ġaddiction": 7756,
      "unting": 7757,
      "ĠTyt": 7758,
      "Ġgroups": 7759,
      "Ġmotivation": 7760,
      "Ġdebate": 7761,
      "ĠQuin": 7762,
      "ĠJasper": 7763,
      "Ġstabbed": 7764,
      "nest": 7765,
      "ĠBoss": 7766,
      "Ġroasted": 7767,
      "onic": 7768,
      "adi": 7769,
      "ĠMitch": 7770,
      "eared": 7771,
      "aint": 7772,
      "ĠKyle": 7773,
      "igha": 7774,
      "Ġrepay": 7775,
      "ĠVir": 7776,
      "Ġleads": 7777,
      "venue": 7778,
      "Ġqualities": 7779,
      "Ġsubm": 7780,
      "Ġvarious": 7781,
      "ĠRox": 7782,
      "ĠJenna": 7783,
      "Ġeconom": 7784,
      "leaf": 7785,
      "ĠClar": 7786,
      "Ġseven": 7787,
      "Ġacadem": 7788,
      "Che": 7789,
      "ga": 7790,
      "Ġvers": 7791,
      "Ġmort": 7792,
      "ĠJor": 7793,
      "quet": 7794,
      "Ġclover": 7795,
      "ĠRain": 7796,
      "Ġclassical": 7797,
      "Ġlabor": 7798,
      "Ġhits": 7799,
      "iera": 7800,
      "Ġgramm": 7801,
      "ĠAbig": 7802,
      "Ġvalued": 7803,
      "Ġpolitic": 7804,
      "Ġbelongings": 7805,
      "Ġadults": 7806,
      "Ġpretend": 7807,
      "Ġultimately": 7808,
      "Ġbakery": 7809,
      "ynt": 7810,
      "Ġshat": 7811,
      "Ġmop": 7812,
      "Ġrope": 7813,
      "edrick": 7814,
      "Ġmel": 7815,
      "etective": 7816,
      "rix": 7817,
      "Ġworn": 7818,
      "ifying": 7819,
      "ĠJoy": 7820,
      "ĠDill": 7821,
      "ĠCad": 7822,
      "ĠCort": 7823,
      "Ġfrosting": 7824,
      "ĠKash": 7825,
      "ĠKels": 7826,
      "amon": 7827,
      "ĠWatch": 7828,
      "Ġbookstore": 7829,
      "Ġflour": 7830,
      "Ġretriever": 7831,
      "Ġdrama": 7832,
      "Ġcorrupt": 7833,
      "Ġachieved": 7834,
      "Ġsnap": 7835,
      "ĠColt": 7836,
      "ĠOlivia": 7837,
      "Ġsession": 7838,
      "Ġlyrics": 7839,
      "Ġclumsy": 7840,
      "Shan": 7841,
      "nel": 7842,
      "hari": 7843,
      "ĠBern": 7844,
      "Ġfiles": 7845,
      "Ġcivil": 7846,
      "anas": 7847,
      "Ġnasty": 7848,
      "Ġthera": 7849,
      "aldo": 7850,
      "utic": 7851,
      "Ġstates": 7852,
      "omin": 7853,
      "ĠDave": 7854,
      "ĠRem": 7855,
      "Ġexposed": 7856,
      "assan": 7857,
      "Ġbucket": 7858,
      "Ġnights": 7859,
      "peutic": 7860,
      "Ġslide": 7861,
      "ablo": 7862,
      "Ġassert": 7863,
      "Ġcakes": 7864,
      "Ġarguments": 7865,
      "Ġlargest": 7866,
      "Ġsubjects": 7867,
      "Ġapplications": 7868,
      "Ġrumors": 7869,
      "phant": 7870,
      "ĠJimmy": 7871,
      "Ġrepeat": 7872,
      "Ġcircumstances": 7873,
      "Ġtherapeutic": 7874,
      "Mak": 7875,
      "brea": 7876,
      "vals": 7877,
      "rolling": 7878,
      "Ġtoast": 7879,
      "lete": 7880,
      "Ġstream": 7881,
      "ĠJeri": 7882,
      "ĠAx": 7883,
      "ĠSav": 7884,
      "Ġproof": 7885,
      "ĠCame": 7886,
      "iego": 7887,
      "Ġclown": 7888,
      "Ġcompared": 7889,
      "Ġdesp": 7890,
      "agement": 7891,
      "ĠSomeone": 7892,
      "venient": 7893,
      "Ġsnapping": 7894,
      "Maria": 7895,
      "ĠSanta": 7896,
      "Ġidentify": 7897,
      "Ġfifty": 7898,
      "Finally": 7899,
      "bul": 7900,
      "arcus": 7901,
      "Ġnaked": 7902,
      "Ġuh": 7903,
      "rim": 7904,
      "ĠTes": 7905,
      "andal": 7906,
      "inded": 7907,
      "Ġappet": 7908,
      "Ġconqu": 7909,
      "Ġsmiling": 7910,
      "Ġskirt": 7911,
      "Ġrespon": 7912,
      "Ġbeaches": 7913,
      "Ġreached": 7914,
      "ĠTyre": 7915,
      "Ġenergized": 7916,
      "Ġburg": 7917,
      "Ġstatement": 7918,
      "Ġdrug": 7919,
      "Ġposting": 7920,
      "ĠRosa": 7921,
      "Ġinnov": 7922,
      "ĠMacken": 7923,
      "pson": 7924,
      "Ġweed": 7925,
      "Ġnone": 7926,
      "ĠHers": 7927,
      "ĠDiv": 7928,
      "entry": 7929,
      "ĠKain": 7930,
      "Ġjog": 7931,
      "Ġunhe": 7932,
      "Ġscen": 7933,
      "Ġtroubles": 7934,
      "ĠMarce": 7935,
      "Ġawfully": 7936,
      "Ġaddicted": 7937,
      "ĠChad": 7938,
      "ĠXYZ": 7939,
      "Ġshoplifting": 7940,
      "zzled": 7941,
      "Ġsuggesting": 7942,
      "Isn": 7943,
      "Ġathlet": 7944,
      "Ġluxurious": 7945,
      "cco": 7946,
      "Ġtu": 7947,
      "anny": 7948,
      "adise": 7949,
      "rict": 7950,
      "artial": 7951,
      "Ġworkers": 7952,
      "Ġcommend": 7953,
      "Ġwheels": 7954,
      "ĠKah": 7955,
      "ĠNeed": 7956,
      "agna": 7957,
      "shit": 7958,
      "ĠVa": 7959,
      "umn": 7960,
      "Ġcolleges": 7961,
      "ĠStorm": 7962,
      "Ġvisitors": 7963,
      "Ġevil": 7964,
      "ĠJacob": 7965,
      "ĠSteff": 7966,
      "Ġelephant": 7967,
      "Ġtowel": 7968,
      "ĠAhmed": 7969,
      "Ġdevast": 7970,
      "Ġinfluence": 7971,
      "Ġoptimistic": 7972,
      "Jos": 7973,
      "Ġx": 7974,
      "ĠBeth": 7975,
      "ĠBlay": 7976,
      "ĠAley": 7977,
      "ĠSame": 7978,
      "Ġdefe": 7979,
      "Ġcared": 7980,
      "ĠKem": 7981,
      "Ġbast": 7982,
      "Ġappreciation": 7983,
      "ĠRock": 7984,
      "ĠWes": 7985,
      "ĠNee": 7986,
      "ĠJoce": 7987,
      "mph": 7988,
      "odka": 7989,
      "Ġspeaker": 7990,
      "ĠMalik": 7991,
      "Ġequal": 7992,
      "Ġincludes": 7993,
      "Ġfulfilled": 7994,
      "ĠGetting": 7995,
      "Ġencour": 7996,
      "Ġterrit": 7997,
      "Ġtrophy": 7998,
      "Ġunnecessary": 7999,
      "inations": 8000,
      "erie": 8001,
      "Ġpal": 8002,
      "sters": 8003,
      "andria": 8004,
      "Ġfav": 8005,
      "Ġharsh": 8006,
      "isson": 8007,
      "Ġflash": 8008,
      "ariya": 8009,
      "Ġconsult": 8010,
      "ĠJuly": 8011,
      "ĠHarmon": 8012,
      "Ġloudly": 8013,
      "Ġsentiment": 8014,
      "Ġsandwiches": 8015,
      "ĠBobby": 8016,
      "Ġfarmer": 8017,
      "ĠConst": 8018,
      "Ġbullshit": 8019,
      "Ġcouncil": 8020,
      "Ġwisdom": 8021,
      "Ġnetwork": 8022,
      "Ġstructure": 8023,
      "\"?": 8024,
      "Ju": 8025,
      "Kat": 8026,
      "bast": 8027,
      "Ġet": 8028,
      "Ġ50": 8029,
      "isle": 8030,
      "Ġpiling": 8031,
      "Ġmask": 8032,
      "ulation": 8033,
      "ĠDim": 8034,
      "Ġdelicate": 8035,
      "ĠEsha": 8036,
      "Ġassoci": 8037,
      "Ġoverweight": 8038,
      "Ġsneak": 8039,
      "Ġexhausting": 8040,
      "Ġbarking": 8041,
      "Ġflattering": 8042,
      "Ġessential": 8043,
      "Ġchampionship": 8044,
      "uesday": 8045,
      "Listen": 8046,
      "hest": 8047,
      "lying": 8048,
      "omer": 8049,
      "Ġsees": 8050,
      "ĠKesha": 8051,
      "Ġbaked": 8052,
      "Ġqueen": 8053,
      "ĠZah": 8054,
      "Ġruins": 8055,
      "Ġassure": 8056,
      "Ġswimmer": 8057,
      "Ġobst": 8058,
      "Ġrainforest": 8059,
      "Ġlandlord": 8060,
      "ĠMalak": 8061,
      "vonne": 8062,
      "Ġeditor": 8063,
      "ĠNeighbor": 8064,
      "ĠWilliam": 8065,
      "Ġskipping": 8066,
      "ĠSuz": 8067,
      "Ġdevice": 8068,
      "Ġunwind": 8069,
      "Ġgloves": 8070,
      "minded": 8071,
      "ples": 8072,
      "rine": 8073,
      "Ġsib": 8074,
      "anut": 8075,
      "Ġheaven": 8076,
      "rynn": 8077,
      "ĠJason": 8078,
      "ando": 8079,
      "Ġvodka": 8080,
      "Ġpartners": 8081,
      "ĠOd": 8082,
      "ĠOly": 8083,
      "Ġlack": 8084,
      "Ġpaycheck": 8085,
      "Ġmeaningful": 8086,
      "ĠHelp": 8087,
      "insley": 8088,
      "ĠElis": 8089,
      "Ġinsane": 8090,
      "Ġflames": 8091,
      "Ġcrossed": 8092,
      "Ġtrainer": 8093,
      "Ġoccur": 8094,
      "Ġfreak": 8095,
      "Unfortunately": 8096,
      "Ġstamps": 8097,
      "Ġpilot": 8098,
      "ĠCelest": 8099,
      "ral": 8100,
      "xting": 8101,
      "heim": 8102,
      "Ġbart": 8103,
      "Ġmesses": 8104,
      "Ġlips": 8105,
      "ĠAlp": 8106,
      "enda": 8107,
      "iela": 8108,
      "ĠEliz": 8109,
      "manuel": 8110,
      "Ġfireworks": 8111,
      "marie": 8112,
      "Ġawareness": 8113,
      "Ġcoward": 8114,
      "iarra": 8115,
      "Ġsoothing": 8116,
      "Brit": 8117,
      "nor": 8118,
      "xon": 8119,
      "zen": 8120,
      "Ġrot": 8121,
      "Ġstack": 8122,
      "ĠTrent": 8123,
      "ĠDall": 8124,
      "ĠPap": 8125,
      "hesis": 8126,
      "Ġchoir": 8127,
      "Ġtexting": 8128,
      "Ġretired": 8129,
      "ĠShiv": 8130,
      "Ġbelt": 8131,
      "Ġplanting": 8132,
      "Ġcruel": 8133,
      "Ġstatus": 8134,
      "Ġliterature": 8135,
      "Ġpuppies": 8136,
      "Ġlasagna": 8137,
      "Ġterritory": 8138,
      "lom": 8139,
      "vous": 8140,
      "Ġgig": 8141,
      "ustin": 8142,
      "Ġwest": 8143,
      "Ġupon": 8144,
      "Ġupstairs": 8145,
      "Ġstone": 8146,
      "ĠLisa": 8147,
      "Ġensure": 8148,
      "ĠKon": 8149,
      "ĠKan": 8150,
      "ffy": 8151,
      "Ġcompassion": 8152,
      "Ġcompromise": 8153,
      "Ġbucks": 8154,
      "Ġadvanced": 8155,
      "Ġshortcut": 8156,
      "Ġeyeing": 8157,
      "Ġbehave": 8158,
      "Ġunfairly": 8159,
      "Ġarticles": 8160,
      "Ġcovering": 8161,
      "Ġrecognition": 8162,
      "Ġbananas": 8163,
      "mesan": 8164,
      "Ġportfo": 8165,
      "Ġgrammar": 8166,
      "Ġbastard": 8167,
      "Ge": 8168,
      "fight": 8169,
      "gth": 8170,
      "nown": 8171,
      "Ãº": 8172,
      "ĠTerri": 8173,
      "ĠKl": 8174,
      "erene": 8175,
      "Ġfounded": 8176,
      "Ġhopes": 8177,
      "Ġunless": 8178,
      "Ġfalls": 8179,
      "Ġpossibilities": 8180,
      "Ġweights": 8181,
      "Ġthrown": 8182,
      "Ġrising": 8183,
      "ĠHarry": 8184,
      "Ġoriginal": 8185,
      "ography": 8186,
      "Ġfrazzled": 8187,
      "Ġsources": 8188,
      "Ġoverhear": 8189,
      "Ġdisturbance": 8190,
      "Ġbullying": 8191,
      "Interesting": 8192,
      "agonist": 8193,
      "Ġdishwasher": 8194,
      "Ġassertive": 8195,
      "Ash": 8196,
      "Jaz": 8197,
      "cers": 8198,
      "ĠtÃº": 8199,
      "istry": 8200,
      "Ġbound": 8201,
      "Ġbind": 8202,
      "anthony": 8203,
      "ĠTab": 8204,
      "ione": 8205,
      "ĠDany": 8206,
      "ĠDae": 8207,
      "Ġdisp": 8208,
      "Ġcontrolled": 8209,
      "ĠMae": 8210,
      "Ġachie": 8211,
      "Ġsolved": 8212,
      "suit": 8213,
      "ĠCorin": 8214,
      "Which": 8215,
      "Ġportfolio": 8216,
      "eran": 8217,
      "veon": 8218,
      "ayna": 8219,
      "Ġupg": 8220,
      "nda": 8221,
      "ĠJace": 8222,
      "ĠSouth": 8223,
      "wayne": 8224,
      "raig": 8225,
      "Ġvul": 8226,
      "Ġchase": 8227,
      "Ġgum": 8228,
      "ĠPart": 8229,
      "ruz": 8230,
      "workers": 8231,
      "ensei": 8232,
      "Ġpleasant": 8233,
      "Ġcalmly": 8234,
      "ĠJulia": 8235,
      "ĠShow": 8236,
      "Ġpurchasing": 8237,
      "Ġcompleting": 8238,
      "ĠEmma": 8239,
      "Ġtourist": 8240,
      "Ġarrivals": 8241,
      "Ġcircus": 8242,
      "Ġsleepyhead": 8243,
      "boyfriend": 8244,
      "Ġtitle": 8245,
      "OK": 8246,
      "iser": 8247,
      "ĠIza": 8248,
      "Ġprank": 8249,
      "ĠSid": 8250,
      "ĠDash": 8251,
      "hany": 8252,
      "sperson": 8253,
      "Ġuncle": 8254,
      "Ġcontain": 8255,
      "arek": 8256,
      "Ġconfess": 8257,
      "Ġcommitt": 8258,
      "althy": 8259,
      "Ġexamples": 8260,
      "Ġvehic": 8261,
      "ĠBrooke": 8262,
      "Ġlanguages": 8263,
      "Ġpraying": 8264,
      "ĠRomeo": 8265,
      "Ġresponding": 8266,
      "Ġsacrif": 8267,
      "Ġresolve": 8268,
      "Ġhamburger": 8269,
      "Ari": 8270,
      "Key": 8271,
      "mod": 8272,
      "pret": 8273,
      "isen": 8274,
      "Ġlen": 8275,
      "Ġgods": 8276,
      "ĠTere": 8277,
      "ĠTuesday": 8278,
      "ĠJab": 8279,
      "Ġglobal": 8280,
      "imo": 8281,
      "Ġgotta": 8282,
      "ggy": 8283,
      "Ġcheering": 8284,
      "Ġstuffy": 8285,
      "ĠMale": 8286,
      "Ġsubmit": 8287,
      "Ġparade": 8288,
      "ribute": 8289,
      "Ġidentity": 8290,
      "Ġmiracle": 8291,
      "Ġsupervisor": 8292,
      "Ġvulner": 8293,
      "Pa": 8294,
      "iant": 8295,
      "you": 8296,
      "ĠBran": 8297,
      "istics": 8298,
      "Ġhairst": 8299,
      "enced": 8300,
      "ldon": 8301,
      "Ġstring": 8302,
      "Ġoutgoing": 8303,
      "ĠJed": 8304,
      "ĠSara": 8305,
      "ĠDomen": 8306,
      "hero": 8307,
      "Ġmonit": 8308,
      "ĠPrin": 8309,
      "ĠGrey": 8310,
      "ĠMyk": 8311,
      "Ġdesire": 8312,
      "inton": 8313,
      "ĠMaris": 8314,
      "nox": 8315,
      "Ġbands": 8316,
      "ĠSurely": 8317,
      "Ġnightmares": 8318,
      "Ġfoolish": 8319,
      "Ġpeanut": 8320,
      "ĠGlad": 8321,
      "ĠRichar": 8322,
      "Ġsneezing": 8323,
      "Ġtumor": 8324,
      "Give": 8325,
      "Sa": 8326,
      "ben": 8327,
      "Ġpipe": 8328,
      "ĠBree": 8329,
      "istent": 8330,
      "stal": 8331,
      "Ġunk": 8332,
      "asing": 8333,
      "Ġheck": 8334,
      "ĠHope": 8335,
      "igor": 8336,
      "Ġfuneral": 8337,
      "amel": 8338,
      "ĠGia": 8339,
      "ĠShaw": 8340,
      "Ġdifferences": 8341,
      "Ġtouching": 8342,
      "ĠAngeli": 8343,
      "Ġprivacy": 8344,
      "Ġelectricity": 8345,
      "ĠCeci": 8346,
      "Ġsculpture": 8347,
      "ĠNorth": 8348,
      "poration": 8349,
      "Ġcushions": 8350,
      "Ġreferring": 8351,
      "ãĢĤ": 8352,
      "Ooh": 8353,
      "Tony": 8354,
      "iro": 8355,
      "pot": 8356,
      "Ġpills": 8357,
      "arant": 8358,
      "Ġdili": 8359,
      "Ġgoner": 8360,
      "ĠTav": 8361,
      "ĠMed": 8362,
      "bles": 8363,
      "ĠCle": 8364,
      "Ġboots": 8365,
      "Ġmole": 8366,
      "assing": 8367,
      "Ġbugs": 8368,
      "Ġperfu": 8369,
      "ailee": 8370,
      "racter": 8371,
      "Ġbloo": 8372,
      "holic": 8373,
      "tem": 8374,
      "Ġchildish": 8375,
      "Ġparticles": 8376,
      "ĠSamantha": 8377,
      "zek": 8378,
      "ĠScot": 8379,
      "Ġflavorful": 8380,
      "ĠJackson": 8381,
      "ĠPhili": 8382,
      "Ġgallery": 8383,
      "Ġmisunderstood": 8384,
      "formed": 8385,
      "inist": 8386,
      "Ġmartial": 8387,
      "Ġeast": 8388,
      "ĠJany": 8389,
      "ĠSeren": 8390,
      "Ġprosp": 8391,
      "ĠDere": 8392,
      "ilo": 8393,
      "Ġrounds": 8394,
      "Ġcarried": 8395,
      "These": 8396,
      "Ġcollea": 8397,
      "Ġtwisted": 8398,
      "Ġdressing": 8399,
      "Ġhired": 8400,
      "Ġweekends": 8401,
      "Ġaffected": 8402,
      "Ġdebts": 8403,
      "angel": 8404,
      "Ġprivile": 8405,
      "Ġsuperhero": 8406,
      "Ġdocuments": 8407,
      "ĠHoll": 8408,
      "Ġrumor": 8409,
      "Ġambul": 8410,
      "Ġinsec": 8411,
      "Ġenemy": 8412,
      "Ġbutterfly": 8413,
      "Ġexplanation": 8414,
      "Ġresponse": 8415,
      "Mor": 8416,
      "Ġmouse": 8417,
      "Ġstrand": 8418,
      "ĠJhon": 8419,
      "ĠSum": 8420,
      "ilton": 8421,
      "Ġoverrea": 8422,
      "itty": 8423,
      "quel": 8424,
      "ĠRas": 8425,
      "ĠWait": 8426,
      "ĠFar": 8427,
      "Ġcheckup": 8428,
      "ĠYear": 8429,
      "Ġtrips": 8430,
      "ĠEverybody": 8431,
      "Ġtomato": 8432,
      "Ġconnecting": 8433,
      "Ġbikes": 8434,
      "arae": 8435,
      "Ġbrace": 8436,
      "ĠLuis": 8437,
      "ĠCharlie": 8438,
      "rystal": 8439,
      "Ġprayer": 8440,
      "Ġreminds": 8441,
      "ĠGuess": 8442,
      "ĠHolly": 8443,
      "Ġprofile": 8444,
      "Ġsubscri": 8445,
      "Ġambulance": 8446,
      "11": 8447,
      "Ed": 8448,
      "down": 8449,
      "ofer": 8450,
      "print": 8451,
      "rish": 8452,
      "uh": 8453,
      "ĠBrent": 8454,
      "ĠBron": 8455,
      "state": 8456,
      "atan": 8457,
      "aliyah": 8458,
      "ceive": 8459,
      "ĠKaya": 8460,
      "Ġdeals": 8461,
      "ogue": 8462,
      "ĠKamb": 8463,
      "Ġvegetarian": 8464,
      "ĠAleks": 8465,
      "Ġreviews": 8466,
      "Ġchampion": 8467,
      "Ġentertaining": 8468,
      "Ġreleased": 8469,
      "Ġcluttered": 8470,
      "Ġexchange": 8471,
      "Ġsiblings": 8472,
      "Ġcommittee": 8473,
      "Every": 8474,
      "vana": 8475,
      "andi": 8476,
      "ĠMommy": 8477,
      "Ġdownstairs": 8478,
      "Ġminds": 8479,
      "Ġdesert": 8480,
      "mper": 8481,
      "Ġtraum": 8482,
      "aterina": 8483,
      "Ġlighter": 8484,
      "obbes": 8485,
      "Ġborrowed": 8486,
      "Ġprovides": 8487,
      "Ġslip": 8488,
      "Ġilleg": 8489,
      "Ġlifting": 8490,
      "Ġbullied": 8491,
      "Ġsurfing": 8492,
      "Ġprescribe": 8493,
      "Ġsweaty": 8494,
      "Ġcitizens": 8495,
      "Ġnutri": 8496,
      "Ġscattered": 8497,
      "Ġtrends": 8498,
      "Ġsymbol": 8499,
      "Ġcommendable": 8500,
      "Ġhairstyle": 8501,
      "%.": 8502,
      "Kha": 8503,
      "lary": 8504,
      "Ġcert": 8505,
      "Ġthick": 8506,
      "Ġthumb": 8507,
      "ĠTon": 8508,
      "Ġspring": 8509,
      "ĠEvent": 8510,
      "elani": 8511,
      "Ġplayground": 8512,
      "arya": 8513,
      "Ġincident": 8514,
      "loat": 8515,
      "Ġproposed": 8516,
      "Ġprotection": 8517,
      "Ġkissed": 8518,
      "Ġaffects": 8519,
      "Ġstrateg": 8520,
      "ĠIndia": 8521,
      "Ġholidays": 8522,
      "Ġpanicked": 8523,
      "Ġhumiliated": 8524,
      "Ġstranded": 8525,
      "vant": 8526,
      "vest": 8527,
      "verty": 8528,
      "ĠHas": 8529,
      "ĠMic": 8530,
      "ĠJew": 8531,
      "ĠSi": 8532,
      "ĠDinner": 8533,
      "ĠCait": 8534,
      "ille": 8535,
      "Ġpoverty": 8536,
      "Ġoldest": 8537,
      "ĠMars": 8538,
      "Ġinvis": 8539,
      "Ġsolutions": 8540,
      "Ġchickens": 8541,
      "Ġappears": 8542,
      "Ġantib": 8543,
      "Ġadvertising": 8544,
      "Ġinnovative": 8545,
      "Ġunhealthy": 8546,
      "Ġachieving": 8547,
      "Ġperfume": 8548,
      "Ba": 8549,
      "Bre": 8550,
      "Te": 8551,
      "phe": 8552,
      "zander": 8553,
      "inzie": 8554,
      "nka": 8555,
      "Ġdrew": 8556,
      "Ġforced": 8557,
      "rich": 8558,
      "Ġworkload": 8559,
      "ĠKirst": 8560,
      "Ġcoaster": 8561,
      "Ġunderw": 8562,
      "Ġworlds": 8563,
      "ĠFay": 8564,
      "Ġbreast": 8565,
      "Ġscru": 8566,
      "acles": 8567,
      "Ġconfront": 8568,
      "Ġpositions": 8569,
      "Ġproductivity": 8570,
      "Ġprotagonist": 8571,
      "Ġsimpl": 8572,
      "Ġgrilled": 8573,
      "knit": 8574,
      "Char": 8575,
      "Some": 8576,
      "cence": 8577,
      "dri": 8578,
      "lana": 8579,
      "zlee": 8580,
      "edan": 8581,
      "Ġome": 8582,
      "Ġknit": 8583,
      "riq": 8584,
      "ĠSensei": 8585,
      "ĠDi": 8586,
      "ĠClement": 8587,
      "Ġcomf": 8588,
      "ĠKhy": 8589,
      "Ġguarant": 8590,
      "iaan": 8591,
      "Ġdisorder": 8592,
      "Ġafloat": 8593,
      "Ġshamp": 8594,
      "Ġmuscle": 8595,
      "Ġmusical": 8596,
      "maan": 8597,
      "brah": 8598,
      "Ġregard": 8599,
      "Ġsmarter": 8600,
      "Ġraces": 8601,
      "Ġballs": 8602,
      "Ġcrush": 8603,
      "ĠJessica": 8604,
      "Ġgenu": 8605,
      "Emily": 8606,
      "Ġcelebrating": 8607,
      "ĠAdams": 8608,
      "Ġunemployed": 8609,
      "Ġladder": 8610,
      "Ġinconvenience": 8611,
      "Ġvulnerable": 8612,
      "Ġshampoo": 8613,
      "Bry": 8614,
      "Com": 8615,
      "umed": 8616,
      "oween": 8617,
      "leb": 8618,
      "Ġstood": 8619,
      "Ġalert": 8620,
      "ĠDor": 8621,
      "ĠRoman": 8622,
      "osity": 8623,
      "hani": 8624,
      "Ġpermit": 8625,
      "udia": 8626,
      "ĠOkay": 8627,
      "avius": 8628,
      "Ġcraw": 8629,
      "raya": 8630,
      "ĠAlon": 8631,
      "Ġaffair": 8632,
      "Ġobsess": 8633,
      "Ġbehaving": 8634,
      "Ġjudg": 8635,
      "Ġvoted": 8636,
      "Ġmailbox": 8637,
      "Ġrequired": 8638,
      "Ġbiking": 8639,
      "Ġharmless": 8640,
      "ĠGeov": 8641,
      "ĠDestin": 8642,
      "ĠMonday": 8643,
      "Ġcasual": 8644,
      "Stop": 8645,
      "ĠRobert": 8646,
      "Ġdiagnosis": 8647,
      "ĠHalloween": 8648,
      "Ġtransferred": 8649,
      "Ġspacious": 8650,
      "Ġsubmitted": 8651,
      "Ġnutrients": 8652,
      "Ġinvisible": 8653,
      "His": 8654,
      "Sc": 8655,
      "home": 8656,
      "rol": 8657,
      "Ġbeard": 8658,
      "iform": 8659,
      "oren": 8660,
      "irah": 8661,
      "iram": 8662,
      "ĠLiv": 8663,
      "ĠPr": 8664,
      "Ġdecent": 8665,
      "Ġscheme": 8666,
      "ĠGreg": 8667,
      "Ġactress": 8668,
      "izes": 8669,
      "avyn": 8670,
      "Ġinvitation": 8671,
      "Ġdifficulties": 8672,
      "Ġadvance": 8673,
      "ĠTyree": 8674,
      "ĠElm": 8675,
      "ottie": 8676,
      "Ġforgiveness": 8677,
      "Ġtexts": 8678,
      "ĠDavid": 8679,
      "Ġdegrees": 8680,
      "Ġauction": 8681,
      "Ġoperate": 8682,
      "Ġphotographer": 8683,
      "Ġadjusting": 8684,
      "Ġmassive": 8685,
      "Ġfatig": 8686,
      "Ġsculptures": 8687,
      "Ġspoken": 8688,
      "Ġunlock": 8689,
      "Ġstitches": 8690,
      "mundo": 8691,
      "Ġflirting": 8692,
      "Ġshattered": 8693,
      "Bro": 8694,
      "ixt": 8695,
      "won": 8696,
      "hael": 8697,
      "Ġben": 8698,
      "ades": 8699,
      "Ġupt": 8700,
      "Ġsteam": 8701,
      "rain": 8702,
      "Ġconvenient": 8703,
      "Ġtells": 8704,
      "Ġclar": 8705,
      "ĠGem": 8706,
      "Ġunlike": 8707,
      "izy": 8708,
      "abelle": 8709,
      "ĠAmar": 8710,
      "Ġrested": 8711,
      "Ġinterpret": 8712,
      "Ġrestaurants": 8713,
      "Ġdirector": 8714,
      "Ġchilling": 8715,
      "Ġpoems": 8716,
      "Ġgained": 8717,
      "Ġperiods": 8718,
      "Ġmembership": 8719,
      "ĠLynn": 8720,
      "Ġoutsider": 8721,
      "Ġhistorical": 8722,
      "Ant": 8723,
      "ox": 8724,
      "cho": 8725,
      "Ġfond": 8726,
      "ĠSak": 8727,
      "Ġexit": 8728,
      "Ġours": 8729,
      "ĠRad": 8730,
      "Ġbossy": 8731,
      "iago": 8732,
      "Ġunbe": 8733,
      "Ġuniform": 8734,
      "Ġclever": 8735,
      "Ġsloppy": 8736,
      "Ġinvigor": 8737,
      "ierra": 8738,
      "Ġgraph": 8739,
      "ĠDeli": 8740,
      "Ġresearching": 8741,
      "Ġadminist": 8742,
      "Ġempow": 8743,
      "ĠBrig": 8744,
      "Ġbandage": 8745,
      "ĠShane": 8746,
      "ĠAlyss": 8747,
      "ĠJenny": 8748,
      "Ġinnocence": 8749,
      "Ġobjects": 8750,
      "ĠEventually": 8751,
      "Ġantibiot": 8752,
      "fish": 8753,
      "Ġwat": 8754,
      "Ġbout": 8755,
      "Ġdrow": 8756,
      "Ġgrat": 8757,
      "stick": 8758,
      "ayden": 8759,
      "ĠTara": 8760,
      "ngle": 8761,
      "ĠCash": 8762,
      "Ġspray": 8763,
      "mental": 8764,
      "Ġearrings": 8765,
      "uda": 8766,
      "Ġblouse": 8767,
      "Ġattribute": 8768,
      "ification": 8769,
      "eriously": 8770,
      "ĠShaqu": 8771,
      "ensie": 8772,
      "ĠReg": 8773,
      "Ġjungle": 8774,
      "Ġpowerless": 8775,
      "Ġaccommod": 8776,
      "Ġphysics": 8777,
      "Ġscratched": 8778,
      "ernet": 8779,
      "ĠDesi": 8780,
      "Ġarranged": 8781,
      "Ġexhibit": 8782,
      "Ġexecut": 8783,
      "Ġflexible": 8784,
      "Ġfestival": 8785,
      "Ġmortg": 8786,
      "mphony": 8787,
      "Krist": 8788,
      "Na": 8789,
      "dae": 8790,
      "mee": 8791,
      "ted": 8792,
      "than": 8793,
      "Ġaim": 8794,
      "iner": 8795,
      "eryn": 8796,
      "esar": 8797,
      "Ġreun": 8798,
      "Ġcol": 8799,
      "Ġchew": 8800,
      "ondre": 8801,
      "elene": 8802,
      "Ġbossing": 8803,
      "Ġstartle": 8804,
      "Ġmonsters": 8805,
      "Ġwondered": 8806,
      "Ġshade": 8807,
      "Ġrelaxation": 8808,
      "Ġlaps": 8809,
      "ĠZen": 8810,
      "Ġpromising": 8811,
      "resha": 8812,
      "Ġworthless": 8813,
      "kenzie": 8814,
      "Ġtreatments": 8815,
      "Ġ16": 8816,
      "Ġcurtain": 8817,
      "Ġflag": 8818,
      "Ġinvolve": 8819,
      "ĠKatie": 8820,
      "ĠNatha": 8821,
      "Ġfears": 8822,
      "Ġsquir": 8823,
      "ĠMcken": 8824,
      "Ġmirror": 8825,
      "ĠIreland": 8826,
      "Ġteddy": 8827,
      "Ġsunburned": 8828,
      "Ġrejected": 8829,
      "Ġdinosaurs": 8830,
      "Jer": 8831,
      "tle": 8832,
      "Ġtap": 8833,
      "rene": 8834,
      "arina": 8835,
      "Ġnag": 8836,
      "Ġanyways": 8837,
      "Ġoverth": 8838,
      "Ġoffended": 8839,
      "Ġunstead": 8840,
      "iann": 8841,
      "avi": 8842,
      "Ġholes": 8843,
      "almon": 8844,
      "ensitive": 8845,
      "Ġcustody": 8846,
      "Ġflowing": 8847,
      "Ġcharming": 8848,
      "Ġassets": 8849,
      "ienna": 8850,
      "Ġnovels": 8851,
      "Ġpuzzles": 8852,
      "Ġprescription": 8853,
      "Ġportra": 8854,
      "Ġimmig": 8855,
      "Ġerrors": 8856,
      "Ġpepperoni": 8857,
      "Ġcontributing": 8858,
      "Ġweapon": 8859,
      "ĠKourtney": 8860,
      "Ġunsteady": 8861,
      "Kal": 8862,
      "uals": 8863,
      "arose": 8864,
      "orney": 8865,
      "anah": 8866,
      "Ġnor": 8867,
      "Ġthief": 8868,
      "outs": 8869,
      "Ġrebu": 8870,
      "Ġnoises": 8871,
      "Ġcarn": 8872,
      "Ġplayful": 8873,
      "Ġbuzz": 8874,
      "Ġforehead": 8875,
      "ĠOK": 8876,
      "ĠShar": 8877,
      "ĠShawn": 8878,
      "risa": 8879,
      "Ġlaws": 8880,
      "Ġdesigns": 8881,
      "Ġchatting": 8882,
      "Ġfields": 8883,
      "Ġassignments": 8884,
      "Ġsexual": 8885,
      "Ġtoothp": 8886,
      "Ġreminder": 8887,
      "Ġemotionally": 8888,
      "Ġspilling": 8889,
      "Ġgathering": 8890,
      "Ġodds": 8891,
      "Ġinherit": 8892,
      "Ġpolitician": 8893,
      "Ġsimpler": 8894,
      "Happy": 8895,
      "itan": 8896,
      "Ġsalmon": 8897,
      "Ġdiss": 8898,
      "organ": 8899,
      "vette": 8900,
      "stic": 8901,
      "Ġhass": 8902,
      "lden": 8903,
      "thia": 8904,
      "ĠTah": 8905,
      "ĠTrin": 8906,
      "ĠMaya": 8907,
      "ĠJade": 8908,
      "uscript": 8909,
      "Ġplus": 8910,
      "Ġcoins": 8911,
      "amines": 8912,
      "Ġchain": 8913,
      "ĠRich": 8914,
      "Ġsemin": 8915,
      "Ġburied": 8916,
      "Ġsweep": 8917,
      "Ġacqu": 8918,
      "ĠOthers": 8919,
      "Ġblind": 8920,
      "Ġmommy": 8921,
      "iba": 8922,
      "iyanna": 8923,
      "Ġcracked": 8924,
      "Ġrelated": 8925,
      "Ġkiller": 8926,
      "Ġemployer": 8927,
      "ĠKenned": 8928,
      "Ġdolls": 8929,
      "Ġflaw": 8930,
      "iency": 8931,
      "Ġbelow": 8932,
      "Ġmatches": 8933,
      "ĠNikola": 8934,
      "Ġantsy": 8935,
      "Ġbanana": 8936,
      "Ġcells": 8937,
      "Ġfreaked": 8938,
      "Ġblessed": 8939,
      "Ġboost": 8940,
      "Ġprogramming": 8941,
      "Ġappetite": 8942,
      "Get": 8943,
      "ĠBu": 8944,
      "Ġfem": 8945,
      "stro": 8946,
      "idia": 8947,
      "anton": 8948,
      "ĠHouse": 8949,
      "ĠHeaven": 8950,
      "ĠMur": 8951,
      "ĠMerry": 8952,
      "Ġcoast": 8953,
      "Ġmanuscript": 8954,
      "Ġunb": 8955,
      "Ġshed": 8956,
      "ĠAnast": 8957,
      "ranger": 8958,
      "Ġpotentially": 8959,
      "Ġwarming": 8960,
      "Ġhighway": 8961,
      "Ġaffairs": 8962,
      "loyd": 8963,
      "Ġroads": 8964,
      "Ġcaptiv": 8965,
      "Ġfantasy": 8966,
      "Ġequally": 8967,
      "ĠCaptain": 8968,
      "Ġfundra": 8969,
      "Ġshipment": 8970,
      "Ġeighteen": 8971,
      "ĠPorsche": 8972,
      "30": 8973,
      "cu": 8974,
      "ä½": 8975,
      "ourite": 8976,
      "ĠId": 8977,
      "ros": 8978,
      "Ġbri": 8979,
      "Ġlur": 8980,
      "idi": 8981,
      "Ġups": 8982,
      "ĠSana": 8983,
      "ĠLon": 8984,
      "amaria": 8985,
      "Ġchann": 8986,
      "Ġdefense": 8987,
      "Ġresort": 8988,
      "Ġdisconnect": 8989,
      "Ġrip": 8990,
      "Ġgrabbing": 8991,
      "ĠAsia": 8992,
      "Ġparmesan": 8993,
      "ĠRosal": 8994,
      "Ġmachines": 8995,
      "Ġelements": 8996,
      "angelo": 8997,
      "Ġfrag": 8998,
      "Ġdull": 8999,
      "crazy": 9000,
      "Ġcousins": 9001,
      "Ġinstalled": 9002,
      "Ġseparate": 9003,
      "pparently": 9004,
      "ĠBusy": 9005,
      "Ġinsightful": 9006,
      "Ġfavourite": 9007,
      "Ġobstacles": 9008,
      "Ġbracelet": 9009,
      "Ġboutique": 9010,
      "Ġmortgage": 9011,
      "Jak": 9012,
      "mary": 9013,
      "Ġtoss": 9014,
      "Ġbot": 9015,
      "Ġfright": 9016,
      "Ġlash": 9017,
      "Ġabroad": 9018,
      "eson": 9019,
      "ĠDut": 9020,
      "ĠDai": 9021,
      "Ġlitter": 9022,
      "ilea": 9023,
      "ĠWall": 9024,
      "ĠFord": 9025,
      "shine": 9026,
      "Ġminor": 9027,
      "Ġforecast": 9028,
      "Ġlistener": 9029,
      "Ġcontrolling": 9030,
      "Ġcreature": 9031,
      "Ġretiring": 9032,
      "Ġseats": 9033,
      "Ġinsult": 9034,
      "Ġburst": 9035,
      "ĠUnfortunately": 9036,
      "ĠHaving": 9037,
      "ĠSebast": 9038,
      "Ġincreased": 9039,
      "Ġelev": 9040,
      "Ġphotograph": 9041,
      "betes": 9042,
      "Ġsustainable": 9043,
      "Ġprotesting": 9044,
      "Ġbouquet": 9045,
      "Ġdespite": 9046,
      "Ġstrategies": 9047,
      "Ġlurking": 9048,
      "Ale": 9049,
      "miss": 9050,
      "say": 9051,
      "what": 9052,
      "Ġpha": 9053,
      "Ġgest": 9054,
      "atible": 9055,
      "alah": 9056,
      "Ġec": 9057,
      "ĠTiff": 9058,
      "ĠJens": 9059,
      "Ġexists": 9060,
      "ĠCale": 9061,
      "cias": 9062,
      "Ġdehy": 9063,
      "Ġhardest": 9064,
      "Ġquiz": 9065,
      "Ġguessed": 9066,
      "Ġstores": 9067,
      "ĠZack": 9068,
      "Ġcolorful": 9069,
      "Ġfirefight": 9070,
      "Ġinsensitive": 9071,
      "ĠKyli": 9072,
      "Ġgenre": 9073,
      "Ġpockets": 9074,
      "Ġteenager": 9075,
      "ĠYeh": 9076,
      "Ġmonitoring": 9077,
      "Ġcomforting": 9078,
      "Aunt": 9079,
      "Den": 9080,
      "Ell": 9081,
      "hua": 9082,
      "ijah": 9083,
      "maine": 9084,
      "ĠIly": 9085,
      "haan": 9086,
      "Ġflew": 9087,
      "anu": 9088,
      "Ġgiant": 9089,
      "edyn": 9090,
      "Ġliber": 9091,
      "ĠHill": 9092,
      "Ġimplement": 9093,
      "ĠRash": 9094,
      "ache": 9095,
      "atching": 9096,
      "Ġwherever": 9097,
      "Ġscra": 9098,
      "Ġblend": 9099,
      "Ġsteady": 9100,
      "Ġdanced": 9101,
      "Ġgracias": 9102,
      "yaan": 9103,
      "Ġdraft": 9104,
      "Ġmotivates": 9105,
      "Ġcentury": 9106,
      "ĠEngland": 9107,
      "ĠGeorge": 9108,
      "Ġmentally": 9109,
      "Ġauthority": 9110,
      "Ġwishes": 9111,
      "Ġconvincing": 9112,
      "Ġofficially": 9113,
      "Ġsustained": 9114,
      "ĠEstef": 9115,
      "Ġathlete": 9116,
      "Ġodd": 9117,
      "Ġcuis": 9118,
      "Ġcheaper": 9119,
      "Ġbomb": 9120,
      "ĠTesla": 9121,
      "Miguel": 9122,
      "mina": 9123,
      "ansh": 9124,
      "Ġham": 9125,
      "ĠHim": 9126,
      "iman": 9127,
      "Ġbacon": 9128,
      "ĠPe": 9129,
      "Ġcareers": 9130,
      "Ġlease": 9131,
      "Ġwaiter": 9132,
      "Ġhandful": 9133,
      "Ġdetective": 9134,
      "Ġconscious": 9135,
      "Ġconsulting": 9136,
      "Ġeffortless": 9137,
      "Ġballoon": 9138,
      "Ġcompetent": 9139,
      "Ġprofessor": 9140,
      "Ġbatter": 9141,
      "ĠGabby": 9142,
      "ĠAubre": 9143,
      "Ġshadows": 9144,
      "Ġdownsizing": 9145,
      "Ġvacuum": 9146,
      "Ġintroduced": 9147,
      "Ġbartender": 9148,
      "Ġcurtains": 9149,
      "Se": 9150,
      "Th": 9151,
      "elia": 9152,
      "fter": 9153,
      "ipt": 9154,
      "looking": 9155,
      "nah": 9156,
      "Ġaid": 9157,
      "Ġtan": 9158,
      "Ġdates": 9159,
      "Ġinner": 9160,
      "ooper": 9161,
      "Ġupbeat": 9162,
      "ĠHat": 9163,
      "ĠKac": 9164,
      "ĠEf": 9165,
      "amie": 9166,
      "astor": 9167,
      "ĠNas": 9168,
      "ĠZule": 9169,
      "ĠYare": 9170,
      "Ġresign": 9171,
      "Ġpractical": 9172,
      "Ġdelivered": 9173,
      "ĠStan": 9174,
      "Ġcorn": 9175,
      "ĠLuc": 9176,
      "Ġcontinent": 9177,
      "Ġallowance": 9178,
      "Ġcomplaints": 9179,
      "ĠEverest": 9180,
      "ĠCalla": 9181,
      "Ġpunched": 9182,
      "Ġ911": 9183,
      "Ġcheerful": 9184,
      "Ġtypically": 9185,
      "Ġcolonists": 9186,
      "ĠEmpire": 9187,
      "Ġunbelievable": 9188,
      "Ġtoothpaste": 9189,
      "Our": 9190,
      "Ġtro": 9191,
      "Ġneeding": 9192,
      "ĠCai": 9193,
      "ĠLad": 9194,
      "Ġfinds": 9195,
      "Ġcompatible": 9196,
      "ĠPark": 9197,
      "Ġearning": 9198,
      "Ġflood": 9199,
      "Ġphones": 9200,
      "Ġsuccessfully": 9201,
      "gues": 9202,
      "Ġbabysit": 9203,
      "Ġtyping": 9204,
      "Ġgravity": 9205,
      "ĠMakay": 9206,
      "lieving": 9207,
      "Ġfindings": 9208,
[...]
