{
  "version": "1.0",
  "truncation": null,
  "padding": null,
  "added_tokens": [
    {
      "id": 0,
      "content": "[UNK]",
      "single_word": false,
      "lstrip": false,
      "rstrip": false,
      "normalized": false,
      "special": true
    },
    {
      "id": 1,
      "content": "<|system|>",
      "single_word": false,
      "lstrip": false,
      "rstrip": false,
      "normalized": false,
      "special": true
    },
    {
      "id": 2,
      "content": "<|user|>",
      "single_word": false,
      "lstrip": false,
      "rstrip": false,
      "normalized": false,
      "special": true
    },
    {
      "id": 3,
      "content": "<|assistant|>",
      "single_word": false,
      "lstrip": false,
      "rstrip": false,
      "normalized": false,
      "special": true
    },
    {
      "id": 4,
      "content": "<|end|>",
      "single_word": false,
      "lstrip": false,
      "rstrip": false,
      "normalized": false,
      "special": true
    }
  ],
  "normalizer": null,
  "pre_tokenizer": {
    "type": "ByteLevel",
    "add_prefix_space": false,
    "trim_offsets": true,
    "use_regex": true
  },
  "post_processor": null,
  "decoder": {
    "type": "ByteLevel",
    "add_prefix_space": true,
    "trim_offsets": true,
    "use_regex": true
  },
  "model": {
    "type": "BPE",
    "dropout": null,
    "unk_token": "[UNK]",
    "continuing_subword_prefix": null,
    "end_of_word_suffix": null,
    "fuse_unk": false,
    "byte_fallback": false,
    "ignore_merges": false,
    "vocab": {
      "[UNK]": 0,
      "<|system|>": 1,
      "<|user|>": 2,
      "<|assistant|>": 3,
      "<|end|>": 4,
      "!": 5,
      "\"": 6,
      "#": 7,
      "$": 8,
      "%": 9,
      "&": 10,
      "'": 11,
      "(": 12,
      ")": 13,
      "*": 14,
      "+": 15,
      ",": 16,
      "-": 17,
      ".": 18,
      "/": 19,
      "0": 20,
      "1": 21,
      "2": 22,
      "3": 23,
      "4": 24,
      "5": 25,
      "6": 26,
      "7": 27,
      "8": 28,
      "9": 29,
      ":": 30,
      ";": 31,
      "<": 32,
      "=": 33,
      ">": 34,
      "?": 35,
      "@": 36,
      "A": 37,
      "B": 38,
      "C": 39,
      "D": 40,
      "E": 41,
      "F": 42,
      "G": 43,
      "H": 44,
      "I": 45,
      "J": 46,
      "K": 47,
      "L": 48,
      "M": 49,
      "N": 50,
      "O": 51,
      "P": 52,
      "Q": 53,
      "R": 54,
      "S": 55,
      "T": 56,
      "U": 57,
      "V": 58,
      "W": 59,
      "X": 60,
      "Y": 61,
      "Z": 62,
      "[": 63,
      "\\": 64,
      "]": 65,
      "^": 66,
      "_": 67,
      "`": 68,
      "a": 69,
      "b": 70,
      "c": 71,
      "d": 72,
      "e": 73,
      "f": 74,
      "g": 75,
      "h": 76,
      "i": 77,
      "j": 78,
      "k": 79,
      "l": 80,
      "m": 81,
      "n": 82,
      "o": 83,
      "p": 84,
      "q": 85,
      "r": 86,
      "s": 87,
      "t": 88,
      "u": 89,
      "v": 90,
      "w": 91,
      "x": 92,
      "y": 93,
      "z": 94,
      "{": 95,
      "|": 96,
      "}": 97,
      "~": 98,
      "¡": 99,
      "¢": 100,
      "£": 101,
      "¤": 102,
      "¥": 103,
      "¦": 104,
      "§": 105,
      "¨": 106,
      "©": 107,
      "ª": 108,
      "«": 109,
      "¬": 110,
      "®": 111,
      "¯": 112,
      "°": 113,
      "±": 114,
      "²": 115,
      "³": 116,
      "´": 117,
      "µ": 118,
      "¶": 119,
      "·": 120,
      "¸": 121,
      "¹": 122,
      "º": 123,
      "»": 124,
      "¼": 125,
      "½": 126,
      "¾": 127,
      "¿": 128,
      "Â": 129,
      "Ã": 130,
      "Ä": 131,
      "Å": 132,
      "Æ": 133,
      "Ç": 134,
      "È": 135,
      "É": 136,
      "Ê": 137,
      "Ë": 138,
      "Ì": 139,
      "Í": 140,
      "Î": 141,
      "Ï": 142,
      "Ð": 143,
      "Ñ": 144,
      "Ò": 145,
      "Ó": 146,
      "Ô": 147,
      "Õ": 148,
      "Ö": 149,
      "×": 150,
      "Ø": 151,
      "Ù": 152,
      "Ú": 153,
      "Û": 154,
      "Ü": 155,
      "Ý": 156,
      "Þ": 157,
      "ß": 158,
      "à": 159,
      "á": 160,
      "â": 161,
      "ã": 162,
      "ä": 163,
      "å": 164,
      "æ": 165,
      "ç": 166,
      "è": 167,
      "é": 168,
      "ê": 169,
      "ë": 170,
      "ì": 171,
      "í": 172,
      "î": 173,
      "ï": 174,
      "ð": 175,
      "ó": 176,
      "ô": 177,
      "ć": 178,
      "ē": 179,
      "ĕ": 180,
      "Ė": 181,
      "Ě": 182,
      "Ġ": 183,
      "Ģ": 184,
      "ģ": 185,
      "Ĥ": 186,
      "ĥ": 187,
      "Ħ": 188,
      "ħ": 189,
      "Ĩ": 190,
      "ĩ": 191,
      "Ī": 192,
      "ī": 193,
      "Ĭ": 194,
      "ĭ": 195,
      "Į": 196,
      "į": 197,
      "İ": 198,
      "ı": 199,
      "Ĳ": 200,
      "ĳ": 201,
      "Ĵ": 202,
      "ĵ": 203,
      "Ķ": 204,
      "ķ": 205,
      "ĸ": 206,
      "Ĺ": 207,
      "ĺ": 208,
      "Ļ": 209,
      "ļ": 210,
      "Ľ": 211,
      "ľ": 212,
      "Ŀ": 213,
      "ŀ": 214,
      "Ł": 215,
      "ł": 216,
      "Ń": 217,
      "Ġt": 218,
      "Ġa": 219,
      "he": 220,
      "in": 221,
      "re": 222,
      "Ġthe": 223,
      "Ġo": 224,
      "er": 225,
      "Ġs": 226,
      "on": 227,
      "Ġw": 228,
      "en": 229,
      "at": 230,
      "nd": 231,
      "is": 232,
      "Ġc": 233,
      "it": 234,
      "es": 235,
      "Ġb": 236,
      "or": 237,
      "Ġp": 238,
      "Ġf": 239,
      "ou": 240,
      "Ġd": 241,
      "ed": 242,
      "an": 243,
      "Ġof": 244,
      "Ġm": 245,
      "ar": 246,
      "ing": 247,
      "al": 248,
      "Ġin": 249,
      "Ġto": 250,
      "Ġand": 251,
      "Ġh": 252,
      "as": 253,
      "Ġl": 254,
      "ic": 255,
      "om": 256,
      "Ġth": 257,
      "ion": 258,
      "ll": 259,
      "Ġn": 260,
      "le": 261,
      "Ġe": 262,
      "ent": 263,
      "ĠT": 264,
      "st": 265,
      "ĠI": 266,
      "Ġg": 267,
      "Ġre": 268,
      "ro": 269,
      "ve": 270,
      "ĠS": 271,
      "Ġbe": 272,
      "ĠA": 273,
      "ly": 274,
      "âĢ": 275,
      "ut": 276,
      "ac": 277,
      "ot": 278,
      "et": 279,
      "ĠC": 280,
      "ur": 281,
      "ad": 282,
      "id": 283,
      "im": 284,
      "se": 285,
      "Ġu": 286,
      "Ġy": 287,
      "am": 288,
      "Ġon": 289,
      "Ġis": 290,
      "ig": 291,
      "Ġhe": 292,
      "Ġfor": 293,
      "ow": 294,
      "ĠM": 295,
      "ay": 296,
      "ir": 297,
      "Ġ1": 298,
      "ver": 299,
      "il": 300,
      "ct": 301,
      "Ġthat": 302,
      "ch": 303,
      "ce": 304,
      "ĠB": 305,
      "ith": 306,
      "Ġwh": 307,
      "ol": 308,
      "Ġde": 309,
      "ĠP": 310,
      "Ġst": 311,
      "Ġit": 312,
      "Ġyou": 313,
      "ation": 314,
      "Ġwith": 315,
      "Ġas": 316,
      "ĠThe": 317,
      "ter": 318,
      "ĠH": 319,
      "qu": 320,
      "Ġwe": 321,
      "Ġan": 322,
      "Ġwas": 323,
      "us": 324,
      "ĠW": 325,
      "ill": 326,
      "ĠD": 327,
      "Ġcon": 328,
      "ri": 329,
      "Ġv": 330,
      "ra": 331,
      "ld": 332,
      "her": 333,
      "ĠL": 334,
      "Ġha": 335,
      "ĠF": 336,
      "em": 337,
      "Ġ2": 338,
      "if": 339,
      "est": 340,
      "ĠR": 341,
      "ul": 342,
      "Ġse": 343,
      "Ġ(": 344,
      "Ġat": 345,
      "ge": 346,
      "um": 347,
      "un": 348,
      "ie": 349,
      "ers": 350,
      "od": 351,
      "ht": 352,
      "ĠG": 353,
      "ĠE": 354,
      "ke": 355,
      "ess": 356,
      "Ġor": 357,
      "Ġpro": 358,
      "ist": 359,
      "th": 360,
      "ore": 361,
      "pp": 362,
      "âĢĻ": 363,
      "Ġcom": 364,
      "rom": 365,
      "os": 366,
      "ant": 367,
      "Ġby": 368,
      "ab": 369,
      "res": 370,
      "ĠN": 371,
      "ain": 372,
      "and": 373,
      "Ġare": 374,
      "Ġsu": 375,
      "Ġnot": 376,
      "ate": 377,
      "Ġr": 378,
      "Ġex": 379,
      "ich": 380,
      "Ġne": 381,
      "el": 382,
      "op": 383,
      "Ġhis": 384,
      "ĠO": 385,
      "Ġfrom": 386,
      "nt": 387,
      "Ġsh": 388,
      "end": 389,
      "art": 390,
      "Ġal": 391,
      "ort": 392,
      "ĠâĢ": 393,
      "ĠJ": 394,
      "red": 395,
      "ect": 396,
      "Ġhave": 397,
      "all": 398,
      "Ġqu": 399,
      "our": 400,
      "Ġch": 401,
      "ity": 402,
      "ight": 403,
      "ard": 404,
      "ies": 405,
      "ould": 406,
      "Ġthis": 407,
      "ive": 408,
      "Ġle": 409,
      "ust": 410,
      "iv": 411,
      "ment": 412,
      "oc": 413,
      "Ġk": 414,
      "Ġ\"": 415,
      "Ġall": 416,
      "te": 417,
      "Ġwhich": 418,
      "ag": 419,
      "'s": 420,
      "Ġ-": 421,
      "Ġpl": 422,
      "ud": 423,
      "ous": 424,
      "Ġme": 425,
      "Ġj": 426,
      "ome": 427,
      "ost": 428,
      "Ġab": 429,
      "ap": 430,
      "Ġsp": 431,
      "hen": 432,
      "out": 433,
      "00": 434,
      "ast": 435,
      "oug": 436,
      "ine": 437,
      "Ġbut": 438,
      "Ġhad": 439,
      "ure": 440,
      "ak": 441,
      "Ġso": 442,
      "Ġwor": 443,
      "Ġen": 444,
      "Ġdo": 445,
      "ff": 446,
      "Ġun": 447,
      "ok": 448,
      "Ġ3": 449,
      "ong": 450,
      "Ġwill": 451,
      "ear": 452,
      "Ġcan": 453,
      "ip": 454,
      "ther": 455,
      "Ġthey": 456,
      "Ġtheir": 457,
      "ĠV": 458,
      "ans": 459,
      "ĠIn": 460,
      "Ġyour": 461,
      "pt": 462,
      "ind": 463,
      "Ġgo": 464,
      "ide": 465,
      "ally": 466,
      "Ġwho": 467,
      "Ġup": 468,
      "Ġtr": 469,
      "ame": 470,
      "Ġsa": 471,
      "Ġad": 472,
      "Ġman": 473,
      "ĠK": 474,
      "ound": 475,
      "ĠTh": 476,
      "ia": 477,
      "ib": 478,
      "Ġher": 479,
      "ĠâĢľ": 480,
      "ions": 481,
      "Ġwere": 482,
      "ack": 483,
      "ĠU": 484,
      "cc": 485,
      "âĢĿ": 486,
      "Ġone": 487,
      "ice": 488,
      "Ġar": 489,
      "ire": 490,
      "Ġhas": 491,
      "are": 492,
      "per": 493,
      "act": 494,
      "very": 495,
      "Ġmy": 496,
      "Ġla": 497,
      "og": 498,
      "ell": 499,
      "Ġim": 500,
      "one": 501,
      "ated": 502,
      "Ġcomp": 503,
      "ass": 504,
      "ial": 505,
      "ance": 506,
      "able": 507,
      "ue": 508,
      "Ġus": 509,
      "Ġout": 510,
      "ber": 511,
      "ec": 512,
      "ough": 513,
      "to": 514,
      "au": 515,
      "age": 516,
      "ĠSt": 517,
      "ry": 518,
      "ime": 519,
      "av": 520,
      "ace": 521,
      "Ġdes": 522,
      "ary": 523,
      "Ġcl": 524,
      "Ġper": 525,
      "ord": 526,
      "Ġmore": 527,
      "Ġhim": 528,
      "ĠCh": 529,
      "Ġthem": 530,
      "ne": 531,
      "Ġno": 532,
      "ake": 533,
      "Ġlo": 534,
      "reat": 535,
      "ite": 536,
      "Ġ4": 537,
      "Ġcont": 538,
      "ĠIt": 539,
      "ish": 540,
      "Ġpr": 541,
      "ĠHe": 542,
      "Ġ19": 543,
      "Ġbeen": 544,
      "oll": 545,
      "ach": 546,
      "ond": 547,
      "..": 548,
      "ence": 549,
      "pl": 550,
      "iz": 551,
      "Ġapp": 552,
      "ose": 553,
      "Ġother": 554,
      "Ġthere": 555,
      "ĠY": 556,
      "Ġund": 557,
      "ub": 558,
      "ign": 559,
      "ep": 560,
      "Ġdis": 561,
      "ount": 562,
      "ren": 563,
      "so": 564,
      "Ġag": 565,
      "cl": 566,
      "Ġpart": 567,
      "ens": 568,
      "Ġet": 569,
      "Ġfe": 570,
      "Ġwould": 571,
      "ike": 572,
      "Ġres": 573,
      "ks": 574,
      "Ġour": 575,
      "ru": 576,
      "ree": 577,
      "Ġshe": 578,
      "orm": 579,
      "du": 580,
      "ven": 581,
      "now": 582,
      "ress": 583,
      "Ġoff": 584,
      "ations": 585,
      "Ġany": 586,
      "itt": 587,
      "wn": 588,
      "ile": 589,
      "ult": 590,
      "Ġwhen": 591,
      "ays": 592,
      "Ġsome": 593,
      "Ġabout": 594,
      "Ġ.": 595,
      "Ġ20": 596,
      "ang": 597,
      "Ġtime": 598,
      "sel": 599,
      "Ġro": 600,
      "Ġpre": 601,
      "Ġ5": 602,
      "ical": 603,
      "Ġam": 604,
      "erv": 605,
      "ings": 606,
      "Ġ18": 607,
      "ian": 608,
      "ade": 609,
      "Ġ,": 610,
      "Ġpe": 611,
      "int": 612,
      "hed": 613,
      "mer": 614,
      "ition": 615,
      "Ġtw": 616,
      "Ġyear": 617,
      "ase": 618,
      "fe": 619,
      "Ġits": 620,
      "ents": 621,
      "Ġsc": 622,
      "lic": 623,
      "--": 624,
      "fter": 625,
      "Ġthan": 626,
      "Ġalso": 627,
      "Ġinto": 628,
      "Ġsaid": 629,
      "Ġif": 630,
      "here": 631,
      "oy": 632,
      "irst": 633,
      "Ġte": 634,
      "ons": 635,
      "Ġcomm": 636,
      "ors": 637,
      "Ġover": 638,
      "ild": 639,
      "Ġlike": 640,
      "ail": 641,
      "ood": 642,
      "old": 643,
      "ces": 644,
      "ark": 645,
      "ert": 646,
      "Ġwhat": 647,
      "Ġknow": 648,
      "Ġgr": 649,
      "ick": 650,
      "iss": 651,
      "Ġimp": 652,
      "ious": 653,
      "Ġ6": 654,
      "we": 655,
      "ory": 656,
      "Ġrec": 657,
      "les": 658,
      "ction": 659,
      "vel": 660,
      "vers": 661,
      "Ġwork": 662,
      "ft": 663,
      "Ġbec": 664,
      "Ġacc": 665,
      "Ġmay": 666,
      "ater": 667,
      "own": 668,
      "uch": 669,
      "Ġco": 670,
      "Ġfirst": 671,
      "Ġbl": 672,
      "ied": 673,
      "urn": 674,
      "form": 675,
      "fore": 676,
      "Ġonly": 677,
      "Ġpo": 678,
      "Ġcons": 679,
      "ont": 680,
      "Ġnew": 681,
      "ĠWe": 682,
      "ng": 683,
      "rit": 684,
      "ĠThis": 685,
      "ise": 686,
      "ull": 687,
      "Ġtwo": 688,
      "Ġind": 689,
      "Ġrep": 690,
      "ict": 691,
      "),": 692,
      "ople": 693,
      "ates": 694,
      "ath": 695,
      "ck": 696,
      "ĠRe": 697,
      ").": 698,
      ".\"": 699,
      "Ġhow": 700,
      "ink": 701,
      "ew": 702,
      "Ġafter": 703,
      "ĠAnd": 704,
      "ph": 705,
      "ov": 706,
      "ug": 707,
      "Ġbr": 708,
      "Ġbet": 709,
      "Ġgreat": 710,
      "Ġget": 711,
      "ob": 712,
      "Ġfl": 713,
      "Ġatt": 714,
      "igh": 715,
      "Ġvery": 716,
      "Ġthese": 717,
      "ife": 718,
      "che": 719,
      "Ġmost": 720,
      "Ġjust": 721,
      "Ġrem": 722,
      "Ġunder": 723,
      "Ġcould": 724,
      "oss": 725,
      "Ġob": 726,
      "Ġi": 727,
      "erm": 728,
      "Ġbo": 729,
      "ove": 730,
      "ual": 731,
      "Ġthr": 732,
      "amp": 733,
      "Ġ7": 734,
      "ĠWh": 735,
      "hing": 736,
      "ward": 737,
      "self": 738,
      "Ġthen": 739,
      "Ġpeople": 740,
      "Ġem": 741,
      "orn": 742,
      "Ġent": 743,
      "Ġ|": 744,
      "ily": 745,
      "Ġ8": 746,
      "tern": 747,
      "ier": 748,
      "ced": 749,
      "Ġexp": 750,
      ".,": 751,
      "Ġsuch": 752,
      "Ġshould": 753,
      "ĠUn": 754,
      "Ġ201": 755,
      "Ġact": 756,
      "Ġsee": 757,
      "und": 758,
      "Ġnow": 759,
      "ause": 760,
      "ener": 761,
      "io": 762,
      "land": 763,
      "ĠAs": 764,
      "Ġevery": 765,
      "Ġz": 766,
      "ject": 767,
      "Ġagain": 768,
      "Ġwhere": 769,
      "ung": 770,
      "Ġwell": 771,
      "ient": 772,
      "Ġmade": 773,
      "Ġthrough": 774,
      "Ġrel": 775,
      "ĠBut": 776,
      "Ġder": 777,
      "ful": 778,
      "Ġsub": 779,
      "Ġpres": 780,
      "Ġreg": 781,
      "oth": 782,
      "rent": 783,
      "'t": 784,
      "Ġest": 785,
      "ĠAn": 786,
      "Ġgood": 787,
      "Ġdid": 788,
      "row": 789,
      "ix": 790,
      "Ġmake": 791,
      "gr": 792,
      "rib": 793,
      "Ġlook": 794,
      "Ġdif": 795,
      "Ġsec": 796,
      "omm": 797,
      "ĠâĢĵ": 798,
      "Ġra": 799,
      "Ġ10": 800,
      "Ġass": 801,
      "other": 802,
      "ty": 803,
      "Ġmany": 804,
      "ought": 805,
      "Ġ200": 806,
      "ited": 807,
      "Ġbefore": 808,
      "Ġsupp": 809,
      "Ġown": 810,
      "Ġlong": 811,
      "clud": 812,
      "Ġprov": 813,
      "Ġback": 814,
      "Ġsm": 815,
      "Ġpers": 816,
      "Ġmuch": 817,
      "Ġserv": 818,
      "Ġsur": 819,
      "pe": 820,
      "Ġac": 821,
      "ating": 822,
      "ĠSe": 823,
      "air": 824,
      "Ġ9": 825,
      "Ġneed": 826,
      "vent": 827,
      "Ġbeing": 828,
      "Ġeven": 829,
      "ins": 830,
      "Ġadd": 831,
      "Ġyears": 832,
      "que": 833,
      "ock": 834,
      "ather": 835,
      "ĠAr": 836,
      "ool": 837,
      "als": 838,
      "Ġpar": 839,
      "ible": 840,
      ".âĢĿ": 841,
      "its": 842,
      "ities": 843,
      "ĠAl": 844,
      "ower": 845,
      "Ġinc": 846,
      "ĠLe": 847,
      "ale": 848,
      "ah": 849,
      "ran": 850,
      "Ġthose": 851,
      "Ġque": 852,
      "Ġ'": 853,
      "ular": 854,
      "Ġhand": 855,
      "Ġdie": 856,
      "ning": 857,
      "ness": 858,
      "ĠDe": 859,
      "Ġbu": 860,
      "Ġcar": 861,
      "ts": 862,
      "up": 863,
      "Ġtra": 864,
      "Ġway": 865,
      "cess": 866,
      "ait": 867,
      "Ġprodu": 868,
      "Ġplay": 869,
      "Ġche": 870,
      "led": 871,
      "Ġinst": 872,
      "Ġday": 873,
      "ble": 874,
      "Ġke": 875,
      "Ġdown": 876,
      "ĠMr": 877,
      "Ġph": 878,
      "Ġles": 879,
      "ten": 880,
      "Ġform": 881,
      "way": 882,
      "Ġsy": 883,
      "ER": 884,
      "ific": 885,
      ",\"": 886,
      "Ġcall": 887,
      "ouse": 888,
      "Ġbel": 889,
      "ures": 890,
      "ident": 891,
      "iew": 892,
      "ave": 893,
      "ĠYou": 894,
      "Ġ17": 895,
      "any": 896,
      "uring": 897,
      "Ġend": 898,
      "oh": 899,
      "ments": 900,
      "ters": 901,
      "ollow": 902,
      "ement": 903,
      "pr": 904,
      "ittle": 905,
      "aking": 906,
      "ien": 907,
      "Ġear": 908,
      "ys": 909,
      "ĠPro": 910,
      "Ġret": 911,
      "Ġuse": 912,
      "Ġright": 913,
      "Ġchar": 914,
      "xt": 915,
      "der": 916,
      "Ġwant": 917,
      "Ġop": 918,
      "Ġsame": 919,
      "ational": 920,
      "Ġcount": 921,
      "ĠIf": 922,
      "ince": 923,
      "Ġdi": 924,
      "Ġhel": 925,
      "Ġmon": 926,
      "ative": 927,
      "gan": 928,
      "me": 929,
      "ĠMar": 930,
      "li": 931,
      "Ġinclud": 932,
      "Ġset": 933,
      "Ġhere": 934,
      "man": 935,
      "Ġupon": 936,
      "Ġlife": 937,
      "ner": 938,
      "Ġgu": 939,
      "ting": 940,
      "ved": 941,
      "Ġdist": 942,
      "ĠNew": 943,
      "Ġfound": 944,
      "ased": 945,
      "Ġeff": 946,
      "ered": 947,
      "hip": 948,
      "ss": 949,
      "Ġpass": 950,
      "Ġmust": 951,
      "ices": 952,
      "Ġaut": 953,
      "ving": 954,
      "day": 955,
      "Ġinte": 956,
      "Ġfin": 957,
      "get": 958,
      "Ġ12": 959,
      "Ġ&": 960,
      "ĠQ": 961,
      "Ġread": 962,
      "olog": 963,
      "ĠFor": 964,
      "Ġhelp": 965,
      "Ġlittle": 966,
      "iness": 967,
      "Ġpub": 968,
      "Ġdon": 969,
      "Ġins": 970,
      "ished": 971,
      "Ġinv": 972,
      "ines": 973,
      "rest": 974,
      "iet": 975,
      "Ġmen": 976,
      "ern": 977,
      "Ġfollow": 978,
      "omet": 979,
      "Ġav": 980,
      "cept": 981,
      "Ġ15": 982,
      "Ġfr": 983,
      "ason": 984,
      "ever": 985,
      "Ġthink": 986,
      "Ġes": 987,
      "Ġdisc": 988,
      "Ġstud": 989,
      "Ġ16": 990,
      "az": 991,
      "Ġgl": 992,
      "cy": 993,
      "ene": 994,
      "Ġsl": 995,
      "Ġext": 996,
      "Ġcour": 997,
      "ution": 998,
      "ics": 999,
      "Ġlast": 1000,
      "lect": 1001,
      "ĠOn": 1002,
      "Ġsch": 1003,
      "Ġfind": 1004,
      "Ġmin": 1005,
      "Ġtake": 1006,
      "Ġsay": 1007,
      "urch": 1008,
      "Ġbecause": 1009,
      "vern": 1010,
      "oup": 1011,
      "ween": 1012,
      "Ġlet": 1013,
      "Ġnum": 1014,
      "Ġdec": 1015,
      "Ġfam": 1016,
      "ork": 1017,
      "ĠThere": 1018,
      "Ġer": 1019,
      "Ġau": 1020,
      "ience": 1021,
      "Ġma": 1022,
      "ves": 1023,
      "ĠThey": 1024,
      "Ġspec": 1025,
      "Ġinter": 1026,
      "meric": 1027,
      ",âĢĿ": 1028,
      "Ġint": 1029,
      "pect": 1030,
      "Ġwhile": 1031,
      "ĠShe": 1032,
      "Ġperson": 1033,
      "Ġmar": 1034,
      "ility": 1035,
      "ute": 1036,
      "ange": 1037,
      "Ġed": 1038,
      "ton": 1039,
      "ives": 1040,
      "oun": 1041,
      "Ġgener": 1042,
      "Ġhigh": 1043,
      "Ġart": 1044,
      "Ġ11": 1045,
      "ĠBe": 1046,
      "imes": 1047,
      "Ġmem": 1048,
      "aw": 1049,
      "Ġbetween": 1050,
      "Ġplace": 1051,
      "Ġworld": 1052,
      "ĠZ": 1053,
      "ric": 1054,
      "Ġser": 1055,
      "Ġpol": 1056,
      "ĠSh": 1057,
      "Ġbest": 1058,
      "Ġshow": 1059,
      "The": 1060,
      "Ġthree": 1061,
      "be": 1062,
      "Ġdu": 1063,
      "the": 1064,
      "Ġbus": 1065,
      "ann": 1066,
      "ret": 1067,
      "ature": 1068,
      "ĠSp": 1069,
      "Ġeach": 1070,
      "alk": 1071,
      "Ġtrans": 1072,
      "Ġinf": 1073,
      "Ġsim": 1074,
      "ĠAmeric": 1075,
      "Ġpoint": 1076,
      "arm": 1077,
      "read": 1078,
      "Ġdiffe": 1079,
      "Ġstill": 1080,
      "riend": 1081,
      "ON": 1082,
      "uss": 1083,
      "Ġold": 1084,
      "Ġposs": 1085,
      "Ġmod": 1086,
      "Ġdem": 1087,
      "Ġwithout": 1088,
      "urs": 1089,
      "ues": 1090,
      "ants": 1091,
      "âĢĶ": 1092,
      "Ġmat": 1093,
      "Ġstr": 1094,
      "Ġcome": 1095,
      "Ġev": 1096,
      "Ġmet": 1097,
      "Ġlar": 1098,
      "Ġdep": 1099,
      "Ġchild": 1100,
      "Ġexper": 1101,
      "Ġloc": 1102,
      "II": 1103,
      "uc": 1104,
      "Ġdet": 1105,
      "Ġcap": 1106,
      "stem": 1107,
      "rist": 1108,
      "ages": 1109,
      "ĠAt": 1110,
      "ĠEng": 1111,
      "ually": 1112,
      "ined": 1113,
      "19": 1114,
      "Ġmight": 1115,
      "ared": 1116,
      "Ġconf": 1117,
      "Ġnever": 1118,
      "Ġdire": 1119,
      "ank": 1120,
      "ek": 1121,
      "ook": 1122,
      "ars": 1123,
      "ertain": 1124,
      "Ġtoo": 1125,
      "rand": 1126,
      "...": 1127,
      "Ġdoes": 1128,
      "Ġcent": 1129,
      "Ġused": 1130,
      "Ġboth": 1131,
      "ĠInd": 1132,
      "less": 1133,
      "Ġstart": 1134,
      "Ġ$": 1135,
      "ted": 1136,
      "Ġhome": 1137,
      "alth": 1138,
      "ĠTo": 1139,
      "Ġden": 1140,
      "Ġref": 1141,
      "20": 1142,
      "Ġcoll": 1143,
      "Ġdef": 1144,
      "Ġ[": 1145,
      "velop": 1146,
      "hes": 1147,
      "Ġbro": 1148,
      "Ġrequ": 1149,
      "000": 1150,
      "ĠCl": 1151,
      "Ġel": 1152,
      "ets": 1153,
      "aut": 1154,
      "Ġcur": 1155,
      "ames": 1156,
      "gg": 1157,
      "inc": 1158,
      "ired": 1159,
      "Ġ14": 1160,
      "ĠAd": 1161,
      "Ġvis": 1162,
      "Ġce": 1163,
      "Ġ13": 1164,
      "ried": 1165,
      "att": 1166,
      "omp": 1167,
      "Ġrest": 1168,
      "Ġagainst": 1169,
      "Ġsomet": 1170,
      "Ġmed": 1171,
      "ody": 1172,
      "ik": 1173,
      "Ġcare": 1174,
      "ism": 1175,
      "oot": 1176,
      "Ġsign": 1177,
      "Ġseem": 1178,
      "atur": 1179,
      "isc": 1180,
      "ĠCon": 1181,
      "Ġfact": 1182,
      "Ġcor": 1183,
      "Ġhead": 1184,
      "ider": 1185,
      "Ġfew": 1186,
      "ield": 1187,
      "une": 1188,
      "ivers": 1189,
      "Ġpri": 1190,
      "ex": 1191,
      "Ġadv": 1192,
      "outh": 1193,
      "Ġwom": 1194,
      "ax": 1195,
      "Ġsk": 1196,
      "ĠSc": 1197,
      "ways": 1198,
      "Ġinform": 1199,
      "akes": 1200,
      "Ġword": 1201,
      "ĠSch": 1202,
      "Ġfriend": 1203,
      "ohn": 1204,
      "ĠEx": 1205,
      "Ġanother": 1206,
      "Ġcol": 1207,
      "Ġlead": 1208,
      "Ġaff": 1209,
      "Ġshall": 1210,
      "ists": 1211,
      "ĠAll": 1212,
      "ĠX": 1213,
      "ird": 1214,
      "ury": 1215,
      "Ġpresent": 1216,
      "ross": 1217,
      "ES": 1218,
      "ĠHow": 1219,
      "Ġcre": 1220,
      "Ġqui": 1221,
      "ĠSo": 1222,
      "Ġbook": 1223,
      "lish": 1224,
      "Ġocc": 1225,
      "IN": 1226,
      "Ġunt": 1227,
      "Ġput": 1228,
      "Ġcle": 1229,
      "Ġopen": 1230,
      "Ġquest": 1231,
      "tain": 1232,
      "AR": 1233,
      "Ġwr": 1234,
      "arn": 1235,
      "Ġver": 1236,
      "ality": 1237,
      "Ġfeel": 1238,
      "Ġcontin": 1239,
      "osed": 1240,
      "ĠIs": 1241,
      "Ġlaw": 1242,
      "Ġprof": 1243,
      "Ġil": 1244,
      "orth": 1245,
      "Ġvar": 1246,
      "Ġrece": 1247,
      "ĠWhen": 1248,
      "ĠPh": 1249,
      "Ġbusiness": 1250,
      "Ġsystem": 1251,
      "Ġcr": 1252,
      "Ġcomple": 1253,
      "AN": 1254,
      "Ġsmall": 1255,
      "Ġduring": 1256,
      "ĠPl": 1257,
      "ash": 1258,
      "Ġspe": 1259,
      "Ġval": 1260,
      "Ġfull": 1261,
      "Ġthings": 1262,
      "Ġsecond": 1263,
      "Ġlove": 1264,
      "orts": 1265,
      "ense": 1266,
      "Ġthought": 1267,
      "ling": 1268,
      "ived": 1269,
      "anc": 1270,
      "Ġhapp": 1271,
      "ract": 1272,
      "Ġsol": 1273,
      "bs": 1274,
      "iving": 1275,
      "ized": 1276,
      "ata": 1277,
      "Ġcame": 1278,
      "ina": 1279,
      "Ġturn": 1280,
      "Ġpat": 1281,
      "ium": 1282,
      "ms": 1283,
      "Ġpower": 1284,
      "Ġprop": 1285,
      "Ġson": 1286,
      "Ġmark": 1287,
      "Ġdifferent": 1288,
      "Ġdel": 1289,
      "Ġdevelop": 1290,
      "enn": 1291,
      "bers": 1292,
      "Ġinterest": 1293,
      "ection": 1294,
      "Ġgoing": 1295,
      "ĠJohn": 1296,
      "Ġconst": 1297,
      "ision": 1298,
      "Ġimport": 1299,
      "ides": 1300,
      "ĠGod": 1301,
      "EN": 1302,
      "Ġfil": 1303,
      "ger": 1304,
      "ours": 1305,
      "Ġpublic": 1306,
      "rop": 1307,
      "de": 1308,
      "Ġrun": 1309,
      "Ġname": 1310,
      "Ġcommun": 1311,
      "ral": 1312,
      "ams": 1313,
      "Ġpartic": 1314,
      "Ġopp": 1315,
      "Ġwater": 1316,
      "ised": 1317,
      "ying": 1318,
      "ĠChrist": 1319,
      "||": 1320,
      "ĠNo": 1321,
      "Ġfour": 1322,
      "arch": 1323,
      "Ġhum": 1324,
      "com": 1325,
      "Ġmain": 1326,
      "ĠOr": 1327,
      "ĠThat": 1328,
      "Ġnon": 1329,
      "den": 1330,
      "Ġschool": 1331,
      "feren": 1332,
      "Ġstand": 1333,
      "ĠTr": 1334,
      "ĠBl": 1335,
      "Ġgive": 1336,
      "ately": 1337,
      "line": 1338,
      "of": 1339,
      "Ġalways": 1340,
      "ither": 1341,
      "eb": 1342,
      "Ġask": 1343,
      "ided": 1344,
      "Ġnumber": 1345,
      "ession": 1346,
      "ux": 1347,
      "ize": 1348,
      "Ġple": 1349,
      "iven": 1350,
      "Ġsince": 1351,
      "Ġaround": 1352,
      "Ġeas": 1353,
      "Ġwar": 1354,
      "ĠPr": 1355,
      "thing": 1356,
      "eg": 1357,
      "Ġnear": 1358,
      "Ġdirect": 1359,
      "Ġland": 1360,
      "Ġbelie": 1361,
      "ior": 1362,
      "not": 1363,
      "Ġdesign": 1364,
      "Ġda": 1365,
      "Ġfar": 1366,
      "Ġcountry": 1367,
      "ital": 1368,
      "Ġ:": 1369,
      "Ġaway": 1370,
      "hor": 1371,
      "Ġcalled": 1372,
      "ĠTH": 1373,
      "Ġsoc": 1374,
      "Ġleg": 1375,
      "Ġreal": 1376,
      "Ġpost": 1377,
      "Ġless": 1378,
      "OR": 1379,
      "Ġhouse": 1380,
      "els": 1381,
      "Ġfree": 1382,
      "vernment": 1383,
      "ches": 1384,
      "ention": 1385,
      "ott": 1386,
      "ĠWhat": 1387,
      "Ġlight": 1388,
      "gin": 1389,
      "Ġeffect": 1390,
      "ission": 1391,
      "Ġey": 1392,
      "Ġleft": 1393,
      "ially": 1394,
      "Ġtre": 1395,
      "Ġlarge": 1396,
      "Ġsing": 1397,
      "ope": 1398,
      "br": 1399,
      "Ġbetter": 1400,
      "med": 1401,
      "Ġreally": 1402,
      "icht": 1403,
      "chn": 1404,
      "ently": 1405,
      "ley": 1406,
      "ai": 1407,
      "osition": 1408,
      "ains": 1409,
      "Ġconc": 1410,
      "Ġstate": 1411,
      "ering": 1412,
      "aug": 1413,
      "Ġmus": 1414,
      "Ġide": 1415,
      "Ġcertain": 1416,
      "Ġ*": 1417,
      "Ġinformation": 1418,
      "Ġresult": 1419,
      "Ġtem": 1420,
      "Ġmil": 1421,
      "10": 1422,
      "ably": 1423,
      "Ġkeep": 1424,
      "Ġhimself": 1425,
      "Ġorder": 1426,
      "ĠComm": 1427,
      "Ġhaving": 1428,
      "stand": 1429,
      "Ġdays": 1430,
      "Ġreturn": 1431,
      "ats": 1432,
      "Ġthough": 1433,
      "aken": 1434,
      "inal": 1435,
      "Ġprom": 1436,
      "âĢĵ": 1437,
      "view": 1438,
      "Ġve": 1439,
      "Ġhist": 1440,
      "ron": 1441,
      "Ġpop": 1442,
      "Ġmonth": 1443,
      "Ġbre": 1444,
      "Ġ199": 1445,
      "ps": 1446,
      "gy": 1447,
      "Ġnext": 1448,
      "Ġever": 1449,
      "Ġein": 1450,
      "Ġ25": 1451,
      "ĠFr": 1452,
      "ians": 1453,
      "alf": 1454,
      "ended": 1455,
      "ison": 1456,
      "ple": 1457,
      "Ġkind": 1458,
      "Ġ0": 1459,
      "Ġhard": 1460,
      "ged": 1461,
      "oint": 1462,
      ".)": 1463,
      "app": 1464,
      "Ġ30": 1465,
      "Ġsupport": 1466,
      "ruct": 1467,
      "irc": 1468,
      "Ġann": 1469,
      "ĠâĢĺ": 1470,
      "ured": 1471,
      "Ġadm": 1472,
      "Ġuntil": 1473,
      "mb": 1474,
      "Ġri": 1475,
      "ls": 1476,
      "Ġnight": 1477,
      "Ġsw": 1478,
      "Ġfa": 1479,
      "ius": 1480,
      "ĠAmerican": 1481,
      "Ġequ": 1482,
      "ows": 1483,
      "raph": 1484,
      "Ġyet": 1485,
      "ected": 1486,
      "Ġty": 1487,
      "Ġfamily": 1488,
      "wards": 1489,
      "ane": 1490,
      "oney": 1491,
      "atch": 1492,
      "ploy": 1493,
      "Ġwent": 1494,
      "ĠWith": 1495,
      "AT": 1496,
      "Ġside": 1497,
      "Ġgot": 1498,
      "ards": 1499,
      "Ġdra": 1500,
      "ccess": 1501,
      "Ġsent": 1502,
      "ining": 1503,
      "ges": 1504,
      "Ġvol": 1505,
      "ustom": 1506,
      "Ġclass": 1507,
      "lo": 1508,
      "Ġyoung": 1509,
      "Ġexpl": 1510,
      "Ġbuild": 1511,
      "Ġcase": 1512,
      "Ġdev": 1513,
      "Ġlist": 1514,
      "Ġmind": 1515,
      "Ġcond": 1516,
      "Ġproduct": 1517,
      "aus": 1518,
      "Ġsomething": 1519,
      "Ġfore": 1520,
      "ĠGo": 1521,
      "ĠGr": 1522,
      "Ġtell": 1523,
      "ze": 1524,
      "Ġproper": 1525,
      "ĠHis": 1526,
      "sc": 1527,
      "Ġdesc": 1528,
      "Ġoffic": 1529,
      "ases": 1530,
      "Ġorgan": 1531,
      "ances": 1532,
      "Ġpay": 1533,
      "Ġsit": 1534,
      "ember": 1535,
      "ille": 1536,
      "ery": 1537,
      "ology": 1538,
      "con": 1539,
      "Ġwithin": 1540,
      "aster": 1541,
      "iety": 1542,
      "veral": 1543,
      "iam": 1544,
      "use": 1545,
      "Ġamong": 1546,
      "ption": 1547,
      "by": 1548,
      "ĠBr": 1549,
      "Ġeng": 1550,
      "aces": 1551,
      "ained": 1552,
      "Ġdr": 1553,
      "Ġappear": 1554,
      "ĠQu": 1555,
      "Ġ24": 1556,
      "ically": 1557,
      "Ġcourse": 1558,
      "ĠGe": 1559,
      "18": 1560,
      "ĠCar": 1561,
      "itions": 1562,
      "Ġcharac": 1563,
      "Ġincre": 1564,
      "reen": 1565,
      "ament": 1566,
      "Ġtook": 1567,
      "Ġweek": 1568,
      "ĠCo": 1569,
      "ording": 1570,
      "Ġmov": 1571,
      "Ġthing": 1572,
      "ief": 1573,
      "Ġprocess": 1574,
      "Ġonce": 1575,
      "Ġele": 1576,
      "sh": 1577,
      "Ġfun": 1578,
      "Ġwrit": 1579,
      "most": 1580,
      "Ġtop": 1581,
      "Ġpour": 1582,
      "ĠPar": 1583,
      "Ġwhole": 1584,
      "Ġgroup": 1585,
      "fic": 1586,
      "ator": 1587,
      "Ġgiven": 1588,
      "Ġdans": 1589,
      "Ġbeh": 1590,
      "Ġcompany": 1591,
      "unt": 1592,
      "ĠMan": 1593,
      "Ġprot": 1594,
      "Ġmeet": 1595,
      "ote": 1596,
      "Ġchildren": 1597,
      "Ġdou": 1598,
      "Ġheart": 1599,
      "Ġterm": 1600,
      "ĠMay": 1601,
      "ĠAm": 1602,
      "ii": 1603,
      "Ġresp": 1604,
      "Ġill": 1605,
      "Ġoper": 1606,
      "ĠRo": 1607,
      "son": 1608,
      "ister": 1609,
      "Ġdone": 1610,
      "Ġtri": 1611,
      "IS": 1612,
      "Ġzu": 1613,
      "ĠTe": 1614,
      "Ġservice": 1615,
      "Ġprogr": 1616,
      "uck": 1617,
      "ĠTHE": 1618,
      "Ġappro": 1619,
      "iversity": 1620,
      "Ġsal": 1621,
      "ination": 1622,
      "aim": 1623,
      "ĠUnited": 1624,
      "wh": 1625,
      "Ġdri": 1626,
      "selves": 1627,
      "Ġwhe": 1628,
      "Ġview": 1629,
      "Ġothers": 1630,
      "aps": 1631,
      "Ġiss": 1632,
      "Ġste": 1633,
      "Ġknown": 1634,
      "Ġter": 1635,
      "ĠWill": 1636,
      "AL": 1637,
      "por": 1638,
      "Ġ21": 1639,
      "Ġorig": 1640,
      "50": 1641,
      "Ġsays": 1642,
      "Ġseveral": 1643,
      "eth": 1644,
      "Ġlot": 1645,
      "ony": 1646,
      "Ġperform": 1647,
      "Ġteam": 1648,
      "ued": 1649,
      "ivid": 1650,
      "Ġimportant": 1651,
      "uro": 1652,
      "Ġsure": 1653,
      "Ġpur": 1654,
      "ĠMy": 1655,
      "par": 1656,
      "na": 1657,
      "Ġhealth": 1658,
      "Ġvon": 1659,
      "Ġfollowing": 1660,
      "Ġoften": 1661,
      "Ġwin": 1662,
      "eng": 1663,
      "rie": 1664,
      "istr": 1665,
      "Ġconsider": 1666,
      "pped": 1667,
      "Ġ22": 1668,
      "let": 1669,
      "Ġsuccess": 1670,
      "ique": 1671,
      "Ġplan": 1672,
      "rew": 1673,
      "Ġincluding": 1674,
      "Ġvo": 1675,
      "iter": 1676,
      "Ġmom": 1677,
      "lished": 1678,
      "ĠStates": 1679,
      "Ġgame": 1680,
      "gen": 1681,
      "Ġable": 1682,
      "Ġroom": 1683,
      "Ġpract": 1684,
      "Ġline": 1685,
      "Ġport": 1686,
      "Ġhowever": 1687,
      "oci": 1688,
      "mber": 1689,
      "Ġtoget": 1690,
      "Ġtogether": 1691,
      "Ġstat": 1692,
      "ĠSte": 1693,
      "rown": 1694,
      "Ġgrow": 1695,
      "Ġtimes": 1696,
      "ĠII": 1697,
      "ched": 1698,
      "men": 1699,
      "Ġbody": 1700,
      "Ġdeath": 1701,
      "ĠAb": 1702,
      "arent": 1703,
      "resent": 1704,
      "Ġ23": 1705,
      "Ġcity": 1706,
      "elt": 1707,
      "ified": 1708,
      "Ġalong": 1709,
      "ĠEd": 1710,
      "ĠCan": 1711,
      "Ġsum": 1712,
      "ened": 1713,
      "Ġauthor": 1714,
      "ĠOne": 1715,
      "Ġseen": 1716,
      "ĠAfter": 1717,
      "ney": 1718,
      "Ġhon": 1719,
      "Ġsuff": 1720,
      "Ġcho": 1721,
      "Ġaccount": 1722,
      "Ġmeans": 1723,
      "ĠEn": 1724,
      "ĠCol": 1725,
      "Ġmoney": 1726,
      "Ġcustom": 1727,
      "Ġut": 1728,
      "Ġfre": 1729,
      "Ġshort": 1730,
      "Ġbig": 1731,
      "Ġans": 1732,
      "Ġfac": 1733,
      "Ġnecess": 1734,
      "ries": 1735,
      "ĠBy": 1736,
      "12": 1737,
      "Ġemploy": 1738,
      "Ġcost": 1739,
      "Ġtaken": 1740,
      "Ġx": 1741,
      "Ġmean": 1742,
      "my": 1743,
      "Ġtest": 1744,
      "ster": 1745,
      "Ġreport": 1746,
      "ortun": 1747,
      "Ġair": 1748,
      "ĠHer": 1749,
      "ler": 1750,
      "aint": 1751,
      "Ġmaking": 1752,
      "Ġlater": 1753,
      "Ġnothing": 1754,
      "Ġenough": 1755,
      "Ġmill": 1756,
      "uly": 1757,
      "Ġcontro": 1758,
      "Ġsi": 1759,
      "Ġface": 1760,
      "Ġord": 1761,
      "Ġsubject": 1762,
      "Ġhalf": 1763,
      "Ġrele": 1764,
      "ready": 1765,
      "Ġavail": 1766,
      "Ġallow": 1767,
      "jor": 1768,
      "ĠLa": 1769,
      "ĠThese": 1770,
      "ending": 1771,
      "Ġbecome": 1772,
      "iqu": 1773,
      "cent": 1774,
      "ising": 1775,
      "ample": 1776,
      "fer": 1777,
      "ĠMa": 1778,
      "yn": 1779,
      "ĠNot": 1780,
      "ui": 1781,
      "Ġtechn": 1782,
      "Ġwomen": 1783,
      "Ġgovernment": 1784,
      "ĠFl": 1785,
      "mp": 1786,
      "Ġpast": 1787,
      "ips": 1788,
      "Ġdiv": 1789,
      "go": 1790,
      "ude": 1791,
      "Ġreason": 1792,
      "incip": 1793,
      "Ġgeneral": 1794,
      "Ġhold": 1795,
      "ceed": 1796,
      "Ġmarket": 1797,
      "Ġplus": 1798,
      "uf": 1799,
      "Ġfav": 1800,
      "ĠComp": 1801,
      "Ġmanag": 1802,
      "ĠMe": 1803,
      "Ġvers": 1804,
      "ino": 1805,
      "ulation": 1806,
      "ĠâĢĶ": 1807,
      "Ġcirc": 1808,
      "Ġsix": 1809,
      "Ġtown": 1810,
      "----": 1811,
      "30": 1812,
      "Ġabove": 1813,
      "Ġchang": 1814,
      "Ġusing": 1815,
      "ĠDo": 1816,
      "Ġfall": 1817,
      "IT": 1818,
      "Ġfur": 1819,
      "lle": 1820,
      "Ġexperience": 1821,
      "ĠEnglish": 1822,
      "oud": 1823,
      "fect": 1824,
      "Ġbeaut": 1825,
      "Ġconn": 1826,
      "Ġlib": 1827,
      "Ġmag": 1828,
      "Ġune": 1829,
      "aring": 1830,
      "Ġfut": 1831,
      "Ġstrong": 1832,
      "Ġbas": 1833,
      "lf": 1834,
      "Ġbene": 1835,
      "urg": 1836,
      "Ġalready": 1837,
      "Ġ26": 1838,
      "ully": 1839,
      "IC": 1840,
      "Ġproject": 1841,
      "Ġtold": 1842,
      "ĠUniversity": 1843,
      "hr": 1844,
      "ĠSu": 1845,
      "Ġmove": 1846,
      "Ġpossible": 1847,
      "co": 1848,
      "Ġcommon": 1849,
      "ee": 1850,
      "aff": 1851,
      "bo": 1852,
      "Ġrecord": 1853,
      "iod": 1854,
      "ĠDr": 1855,
      "Ġelect": 1856,
      "idence": 1857,
      "Ġquestion": 1858,
      "Ġsoon": 1859,
      "Ġpolit": 1860,
      "Ġcharacter": 1861,
      "utes": 1862,
      "reet": 1863,
      "Ġleast": 1864,
      "ilt": 1865,
      "Ġmot": 1866,
      "ctor": 1867,
      "Ġpot": 1868,
      "Ġearly": 1869,
      "Ġsuper": 1870,
      "Ġ28": 1871,
      "Ġinvest": 1872,
      "Ġ27": 1873,
      "Ġenc": 1874,
      "ograph": 1875,
      "Ġprob": 1876,
      "ĠYork": 1877,
      "ories": 1878,
      "ball": 1879,
      "Ġhuman": 1880,
      "new": 1881,
      "Ġparticular": 1882,
      "osp": 1883,
      "lu": 1884,
      "ored": 1885,
      "Ġalmost": 1886,
      "Ġchange": 1887,
      "15": 1888,
      "Ġrese": 1889,
      "Ġunderstand": 1890,
      "ĠFran": 1891,
      "rodu": 1892,
      "vious": 1893,
      "icle": 1894,
      "Ġseason": 1895,
      "Ġbar": 1896,
      "Ġlim": 1897,
      "ĠGu": 1898,
      "ring": 1899,
      "rs": 1900,
      "Ġfather": 1901,
      "ument": 1902,
      "Ġspecial": 1903,
      "Ġproble": 1904,
      "Ã©": 1905,
      "Ġlat": 1906,
      "aced": 1907,
      "Ġwind": 1908,
      "ills": 1909,
      "Ġfive": 1910,
      "itted": 1911,
      "iron": 1912,
      "ĠBrit": 1913,
      "atic": 1914,
      "Ġmembers": 1915,
      "ĠKing": 1916,
      "Ġsaw": 1917,
      "ones": 1918,
      "Ġsat": 1919,
      "Ġfriends": 1920,
      "Ġ198": 1921,
      "Ġnatur": 1922,
      "Ġmo": 1923,
      "ization": 1924,
      "ware": 1925,
      "illed": 1926,
      "ĠState": 1927,
      "Ġabs": 1928,
      "Ġindivid": 1929,
      "Ġlevel": 1930,
      "ĠRes": 1931,
      "Ġvi": 1932,
      "irit": 1933,
      "Ġwords": 1934,
      "aper": 1935,
      "ili": 1936,
      "?\"": 1937,
      "bt": 1938,
      "ĠLord": 1939,
      "alt": 1940,
      "Ġlive": 1941,
      "Ġrespect": 1942,
      "acy": 1943,
      "Ġdas": 1944,
      "Ġestab": 1945,
      "Ġtalk": 1946,
      "Ġtreat": 1947,
      "Ġavailable": 1948,
      "ape": 1949,
      "ĠCent": 1950,
      "Ġcamp": 1951,
      "ĠJan": 1952,
      "Ġlab": 1953,
      "ode": 1954,
      "Ġlearn": 1955,
      "ĠNe": 1956,
      "ream": 1957,
      "Ġaddition": 1958,
      "ĠAug": 1959,
      "11": 1960,
      "port": 1961,
      "Ġvisit": 1962,
      "yl": 1963,
      "work": 1964,
      "Ġarea": 1965,
      "Ġeyes": 1966,
      "Ġtrad": 1967,
      "Ġcannot": 1968,
      "Ġpriv": 1969,
      "ĠPer": 1970,
      "Ġwhy": 1971,
      "ĠRep": 1972,
      "Ġant": 1973,
      "val": 1974,
      "Ġfoot": 1975,
      "ĠChar": 1976,
      "for": 1977,
      "side": 1978,
      "Ġprincip": 1979,
      "Ġthemselves": 1980,
      "Ġmer": 1981,
      "ots": 1982,
      "ump": 1983,
      "RE": 1984,
      "Ġclear": 1985,
      "Ġcurrent": 1986,
      "Ġ29": 1987,
      "Ġesp": 1988,
      "ĠCount": 1989,
      "Th": 1990,
      "Ġcomplete": 1991,
      "amm": 1992,
      "Ġstory": 1993,
      "Ġeither": 1994,
      "Ġlocal": 1995,
      "Ġhands": 1996,
      "Ġimpro": 1997,
      "ĠWor": 1998,
      "iment": 1999,
      "Ġexist": 2000,
      "Ġclose": 2001,
      "over": 2002,
      "itive": 2003,
      "joy": 2004,
      "17": 2005,
      "Ġpas": 2006,
      "Ġfood": 2007,
      "sp": 2008,
      "ette": 2009,
      "Ġten": 2010,
      "Ġobject": 2011,
      "Ġmid": 2012,
      "Ġexpress": 2013,
      "Ġbring": 2014,
      "wer": 2015,
      "16": 2016,
      "ounds": 2017,
      "Ġbecame": 2018,
      "though": 2019,
      "ume": 2020,
      "ourn": 2021,
      "Ġgir": 2022,
      "Ġ=": 2023,
      "Ġmusic": 2024,
      "Ġmoment": 2025,
      "ĠColl": 2026,
      "Ġmater": 2027,
      "Ġlooking": 2028,
      "aid": 2029,
      "Ġge": 2030,
      "Ġtou": 2031,
      "af": 2032,
      "lt": 2033,
      "irt": 2034,
      "Ġist": 2035,
      "Ġwhom": 2036,
      "Ġindividual": 2037,
      "uff": 2038,
      "Ġsil": 2039,
      "ĠThen": 2040,
      "Ġexc": 2041,
      "Ġwhether": 2042,
      "ady": 2043,
      "ĠEuro": 2044,
      "Ġheld": 2045,
      "uth": 2046,
      "Ġeduc": 2047,
      "Ġdata": 2048,
      "inn": 2049,
      "Ġperiod": 2050,
      ".-": 2051,
      "ference": 2052,
      "ĠHar": 2053,
      "ĠGerm": 2054,
      "iver": 2055,
      "asure": 2056,
      "ĠUS": 2057,
      "irm": 2058,
      "ĠBar": 2059,
      "Ġrather": 2060,
      "Ġquite": 2061,
      "ĠOF": 2062,
      "ben": 2063,
      "Ġworking": 2064,
      "Ġindust": 2065,
      "angu": 2066,
      "Ġtrue": 2067,
      "ais": 2068,
      "rem": 2069,
      "fully": 2070,
      "Ġhistory": 2071,
      "Ġdest": 2072,
      "Ġbegin": 2073,
      "Ġobs": 2074,
      "AS": 2075,
      "Ġcal": 2076,
      "Ġap": 2077,
      "Ġgra": 2078,
      "ĠCal": 2079,
      "ett": 2080,
      "....": 2081,
      "Ġess": 2082,
      "ids": 2083,
      "ires": 2084,
      "ush": 2085,
      "Ġformer": 2086,
      "Ġlow": 2087,
      "oph": 2088,
      "Ġdiffic": 2089,
      "ĠPe": 2090,
      "Ġintern": 2091,
      "ĠSouth": 2092,
      "Ġmatter": 2093,
      "Ġgrand": 2094,
      "Ġhig": 2095,
      "Ġservices": 2096,
      "Ġevent": 2097,
      "13": 2098,
      "eral": 2099,
      "Ġrepresent": 2100,
      "ae": 2101,
      "Ġnature": 2102,
      "bert": 2103,
      "ege": 2104,
      "Ġwon": 2105,
      "omin": 2106,
      "ils": 2107,
      "Ġcut": 2108,
      "ule": 2109,
      "ached": 2110,
      "ients": 2111,
      "Ġjo": 2112,
      "ĠÂ": 2113,
      "itten": 2114,
      "Ġbelieve": 2115,
      "âĢ¦": 2116,
      "Ġasked": 2117,
      "ogn": 2118,
      "Ġwhose": 2119,
      "Ġregard": 2120,
      "ops": 2121,
      "14": 2122,
      "rench": 2123,
      "empt": 2124,
      "Ġreceived": 2125,
      "Ġfell": 2126,
      "Ġmother": 2127,
      "ham": 2128,
      "Ġbit": 2129,
      "Ġpain": 2130,
      "inks": 2131,
      "ional": 2132,
      "Ġheav": 2133,
      "reg": 2134,
      "ĠMed": 2135,
      "Ġfire": 2136,
      "ead": 2137,
      "conom": 2138,
      "Ġwhite": 2139,
      "Ġbrought": 2140,
      "Ġrepl": 2141,
      "Ġpurp": 2142,
      "Ġhor": 2143,
      "?âĢĿ": 2144,
      "Ġ;": 2145,
      "Ġdifficult": 2146,
      "ĠEngland": 2147,
      "ĠPres": 2148,
      "Ġgen": 2149,
      "Ġbegan": 2150,
      "ĠBo": 2151,
      "ability": 2152,
      "Ġjud": 2153,
      "pping": 2154,
      "Ġcreat": 2155,
      "Ġage": 2156,
      "Ġmit": 2157,
      "ĠNow": 2158,
      "Ġred": 2159,
      "Ġcomb": 2160,
      "Ġprovide": 2161,
      "EL": 2162,
      "Ġfield": 2163,
      "ĠEurope": 2164,
      "elle": 2165,
      "'d": 2166,
      "ĠNorth": 2167,
      "Ġworks": 2168,
      "Ġmajor": 2169,
      "Ġdue": 2170,
      "stit": 2171,
      "Ġmakes": 2172,
      "Ġsocial": 2173,
      "no": 2174,
      "Ġanim": 2175,
      "ato": 2176,
      "ublic": 2177,
      "tt": 2178,
      "ential": 2179,
      "Ġgave": 2180,
      "Ġenjoy": 2181,
      "Ġarri": 2182,
      "Ġje": 2183,
      "haps": 2184,
      "orning": 2185,
      "Ġfurther": 2186,
      "US": 2187,
      "ĠEl": 2188,
      "Ġ197": 2189,
      "Ġentire": 2190,
      "ĠSec": 2191,
      "oul": 2192,
      "Ġitself": 2193,
      "Ġwoman": 2194,
      "oura": 2195,
      "Ġ50": 2196,
      "Ġonline": 2197,
      "ĠOct": 2198,
      "Ġsingle": 2199,
      "Ġactiv": 2200,
      "ilar": 2201,
      "Ġfeat": 2202,
      "ci": 2203,
      "lich": 2204,
      "Ġfig": 2205,
      "ada": 2206,
      "Ġperfect": 2207,
      "ĠAss": 2208,
      "ledge": 2209,
      "ises": 2210,
      "umb": 2211,
      "ĠLond": 2212,
      "Ġstudents": 2213,
      "yle": 2214,
      "Ġmult": 2215,
      "ands": 2216,
      "Ġacross": 2217,
      "Ġwalk": 2218,
      "AP": 2219,
      "ĠWar": 2220,
      "undred": 2221,
      "cell": 2222,
      "Ġpress": 2223,
      "Ġdisp": 2224,
      "ald": 2225,
      "Ġvide": 2226,
      "Ġaccess": 2227,
      "Ġ40": 2228,
      "Ġking": 2229,
      "oor": 2230,
      "Ġcaus": 2231,
      "ĠSy": 2232,
      "ĠApp": 2233,
      "Ġblack": 2234,
      "ole": 2235,
      "ĠApr": 2236,
      "Ġhope": 2237,
      "augh": 2238,
      "ĠFrom": 2239,
      "It": 2240,
      "ĠAust": 2241,
      "cer": 2242,
      "Ġpie": 2243,
      "Ġquick": 2244,
      "Ġsite": 2245,
      "bit": 2246,
      "Ġmaterial": 2247,
      "Ġcomes": 2248,
      "Ġtot": 2249,
      "ĠOur": 2250,
      "eter": 2251,
      "Ġapplic": 2252,
      "Ġposition": 2253,
      "Ġprogram": 2254,
      "ĠChe": 2255,
      "artment": 2256,
      "ĠSee": 2257,
      "Ġrelig": 2258,
      "ales": 2259,
      "ĠGl": 2260,
      "Ġthus": 2261,
      "Ġbed": 2262,
      "iding": 2263,
      "ĠRom": 2264,
      "Ġpersonal": 2265,
      "ama": 2266,
      "25": 2267,
      "Ġheard": 2268,
      "Ġnicht": 2269,
      "Ġdeal": 2270,
      "idge": 2271,
      "Ġappe": 2272,
      "Ġfront": 2273,
      "ails": 2274,
      "Ġclaim": 2275,
      "'m": 2276,
      "Ġseries": 2277,
      "Ġsold": 2278,
      "Ġwond": 2279,
      "eneral": 2280,
      "Ġcommunity": 2281,
      "Ġspeak": 2282,
      "ĠJe": 2283,
      "ĠCH": 2284,
      "Ġ186": 2285,
      "ĠHowever": 2286,
      "lex": 2287,
      "Ġanything": 2288,
      "Ġroad": 2289,
      "Ġmonths": 2290,
      "iers": 2291,
      "Ġaccording": 2292,
      "olution": 2293,
      "Wh": 2294,
      "amed": 2295,
      "LE": 2296,
      "Ġphot": 2297,
      "Ġhours": 2298,
      "dle": 2299,
      "Ġvarious": 2300,
      "Ġboy": 2301,
      "ĠCom": 2302,
      "duct": 2303,
      "ruction": 2304,
      "ites": 2305,
      "ĠCor": 2306,
      "Ġcause": 2307,
      "Ġdidn": 2308,
      "eed": 2309,
      "ĠOf": 2310,
      "medi": 2311,
      "ĠJuly": 2312,
      "aul": 2313,
      "cher": 2314,
      "Ġdoing": 2315,
      "Ġtit": 2316,
      "ĠVer": 2317,
      "amb": 2318,
      "ĠGeor": 2319,
      "Ġcompan": 2320,
      "ecially": 2321,
      "ĠLondon": 2322,
      "ĠWest": 2323,
      "Ġfund": 2324,
      "Ġtoday": 2325,
      "ris": 2326,
      "Ġbased": 2327,
      "ĠFrench": 2328,
      "sequ": 2329,
      "Ġground": 2330,
      "ĠSept": 2331,
      "Ġjob": 2332,
      "ĠTw": 2333,
      "ĠSome": 2334,
      "ĠSchool": 2335,
      "Ġstep": 2336,
      "Ġphys": 2337,
      "ĠCont": 2338,
      "Ġ100": 2339,
      "aly": 2340,
      "Ġetc": 2341,
      "ION": 2342,
      "Ġhundred": 2343,
      "iful": 2344,
      "22": 2345,
      "hern": 2346,
      "lement": 2347,
      "ĠCity": 2348,
      "ague": 2349,
      "enty": 2350,
      "Ġfuture": 2351,
      "ĠSoc": 2352,
      "attle": 2353,
      "Ġwebs": 2354,
      "Ġlay": 2355,
      "Ġcrit": 2356,
      "utions": 2357,
      "ural": 2358,
      "Ġauf": 2359,
      "ift": 2360,
      "Ġmorning": 2361,
      "ĠDes": 2362,
      "ford": 2363,
      "Ġoffer": 2364,
      "uit": 2365,
      "Ġsun": 2366,
      "ana": 2367,
      "Ġhy": 2368,
      "Ġcult": 2369,
      "Ġpret": 2370,
      "Ġexcept": 2371,
      "Ġmis": 2372,
      "hod": 2373,
      "Ġthird": 2374,
      "Ġkn": 2375,
      "ĠCap": 2376,
      "rap": 2377,
      "used": 2378,
      "ĠJune": 2379,
      "Ġneg": 2380,
      "!\"": 2381,
      "rict": 2382,
      "Ġspirit": 2383,
      "Ġfort": 2384,
      "ĠAugust": 2385,
      "pper": 2386,
      "Ġself": 2387,
      "Ġidea": 2388,
      "'ll": 2389,
      "ĠMarch": 2390,
      "Ġtherefore": 2391,
      "Ġopportun": 2392,
      "itor": 2393,
      "Ġeasy": 2394,
      "Ġsugg": 2395,
      "ĠAN": 2396,
      "Ġdecl": 2397,
      "'re": 2398,
      "Ġsus": 2399,
      "ounc": 2400,
      "Ġprofession": 2401,
      "za": 2402,
      "ĠHouse": 2403,
      "anger": 2404,
      "Ġexample": 2405,
      "ĠNational": 2406,
      "ĠMc": 2407,
      "Ġinclude": 2408,
      "ĠReg": 2409,
      "oke": 2410,
      "room": 2411,
      "Ġsuggest": 2412,
      "nes": 2413,
      "Ġdeterm": 2414,
      "erc": 2415,
      "Ġseems": 2416,
      "Ġround": 2417,
      "Ġinvol": 2418,
      "Ġcompet": 2419,
      "ĠPol": 2420,
      "aves": 2421,
      "fort": 2422,
      "Ġamount": 2423,
      "Ġsoft": 2424,
      "AC": 2425,
      "Ġprim": 2426,
      "ask": 2427,
      "Ġhot": 2428,
      "Ġenv": 2429,
      "Ġnor": 2430,
      "Ġstarted": 2431,
      "Ġdies": 2432,
      "Ġwife": 2433,
      "Ġnatural": 2434,
      "ights": 2435,
      "ĠHere": 2436,
      "IL": 2437,
      "AM": 2438,
      "gress": 2439,
      "40": 2440,
      "Ġtaking": 2441,
      "ken": 2442,
      "Ġfeet": 2443,
      "Ġstri": 2444,
      "Ġredu": 2445,
      "uation": 2446,
      "Ġpos": 2447,
      "Ġsong": 2448,
      "Ġparty": 2449,
      "ĠMin": 2450,
      "ively": 2451,
      "Ġ--": 2452,
      "ere": 2453,
      "Ġknew": 2454,
      "Ġlate": 2455,
      "Ġdevelopment": 2456,
      "Ġdeg": 2457,
      "ration": 2458,
      "ores": 2459,
      "Ġaction": 2460,
      "ED": 2461,
      "Ġsett": 2462,
      "We": 2463,
      "ĠSm": 2464,
      "ese": 2465,
      "200": 2466,
      "Ġtrou": 2467,
      "Ġnecessary": 2468,
      "Ġbelow": 2469,
      "OM": 2470,
      "Ġelse": 2471,
      "Ġimm": 2472,
      "Ġbad": 2473,
      "Ġleave": 2474,
      "ĠWorld": 2475,
      "uted": 2476,
      "ferences": 2477,
      ".'": 2478,
      "ĠMon": 2479,
      "lin": 2480,
      "Ġ||": 2481,
      "Ġoffice": 2482,
      "itte": 2483,
      "Ġgetting": 2484,
      "Ġprobably": 2485,
      "Ġbra": 2486,
      "ĠDie": 2487,
      "Ġcourt": 2488,
      "ency": 2489,
      "Ġdiscuss": 2490,
      "Ġ196": 2491,
      "Ġvalue": 2492,
      "irth": 2493,
      "ha": 2494,
      "clus": 2495,
      "Ġfilm": 2496,
      "Ġbreak": 2497,
      "yr": 2498,
      "Ġmillion": 2499,
      "ĠEr": 2500,
      "ĠDav": 2501,
      "Ġlost": 2502,
      "OL": 2503,
      "icy": 2504,
      "Ġlooked": 2505,
      "Ġdeep": 2506,
      "imate": 2507,
      "ĠOff": 2508,
      "Ġbuilding": 2509,
      "Ġrev": 2510,
      "chen": 2511,
      "isk": 2512,
      "UR": 2513,
      "Ġstra": 2514,
      "ww": 2515,
      "Ġtro": 2516,
      "Ġsich": 2517,
      "aving": 2518,
      "Ġcred": 2519,
      "Ġswe": 2520,
      "Ġlangu": 2521,
      "uary": 2522,
      "Ġep": 2523,
      "Ġdescrib": 2524,
      "Ġwel": 2525,
      "Ġsens": 2526,
      "oe": 2527,
      "bor": 2528,
      "Ġcoming": 2529,
      "ify": 2530,
      "Ġespecially": 2531,
      "Ġfail": 2532,
      "Ġbehind": 2533,
      "Ġrelations": 2534,
      "icient": 2535,
      "ĠApril": 2536,
      "ging": 2537,
      "rence": 2538,
      "reme": 2539,
      "Ġident": 2540,
      "ĠSir": 2541,
      "Ġpict": 2542,
      "Ġsense": 2543,
      "erson": 2544,
      "ĠHist": 2545,
      "ĠBritish": 2546,
      "Ġdoor": 2547,
      "Ġcover": 2548,
      "Ġexam": 2549,
      "Ġsle": 2550,
      "Ġstay": 2551,
      "ror": 2552,
      "oses": 2553,
      "Ġinflu": 2554,
      "Ġopt": 2555,
      "Ġvill": 2556,
      "Ġeconom": 2557,
      "Ġmethod": 2558,
      "ript": 2559,
      "ĠWas": 2560,
      "rect": 2561,
      "Ġfelt": 2562,
      "airs": 2563,
      "Ġquality": 2564,
      "ĠEm": 2565,
      "ternal": 2566,
      "ĠPart": 2567,
      "Ġtry": 2568,
      "Ġneeds": 2569,
      "ades": 2570,
      "Ġactually": 2571,
      "Ġou": 2572,
      "Ġcontrol": 2573,
      "epend": 2574,
      "Ġmyself": 2575,
      "Ġaccept": 2576,
      "ĠAf": 2577,
      "ĠMiss": 2578,
      "omes": 2579,
      "Ġstudy": 2580,
      "Ġreview": 2581,
      "Ġdark": 2582,
      "Ġoccas": 2583,
      "TER": 2584,
      "Ġsour": 2585,
      "Ġeverything": 2586,
      "itary": 2587,
      "Ġremain": 2588,
      "ĠArt": 2589,
      "aching": 2590,
      "Ġattack": 2591,
      "Ġliving": 2592,
      "ara": 2593,
      "Ġsound": 2594,
      "Ġnet": 2595,
      "ĠMrs": 2596,
      "Ġacqu": 2597,
      "Ġtax": 2598,
      "ables": 2599,
      "ma": 2600,
      "hib": 2601,
      "Ġhost": 2602,
      "ĠIN": 2603,
      "Ġbes": 2604,
      "ends": 2605,
      "Ġadded": 2606,
      "Ġmention": 2607,
      "Ġaddress": 2608,
      "ĠDon": 2609,
      "Ġsimilar": 2610,
      "'ve": 2611,
      "ĠSw": 2612,
      "Ġforce": 2613,
      "Ġ+": 2614,
      "Ġletter": 2615,
      "Ġbenef": 2616,
      "Ġmor": 2617,
      "Ġcommand": 2618,
      "Ġwritten": 2619,
      "Ġcheck": 2620,
      "Ġchurch": 2621,
      "ivil": 2622,
      "anks": 2623,
      "Ġattempt": 2624,
      "Ġassist": 2625,
      "Ġknowledge": 2626,
      "Ġthous": 2627,
      "itting": 2628,
      "ĠWhile": 2629,
      "Ġmount": 2630,
      "Ġresearch": 2631,
      "Ġworth": 2632,
      "ply": 2633,
      "ĠRec": 2634,
      "Ġago": 2635,
      "ender": 2636,
      "erve": 2637,
      "Ġproducts": 2638,
      "ification": 2639,
      "21": 2640,
      "ergy": 2641,
      "Ġwall": 2642,
      "where": 2643,
      "urity": 2644,
      "Ġ35": 2645,
      "oly": 2646,
      "Ġ...": 2647,
      "Ġfoc": 2648,
      "lig": 2649,
      "off": 2650,
      "iction": 2651,
      "ĠFeb": 2652,
      "Ġ/": 2653,
      "ĠIII": 2654,
      "Ġminutes": 2655,
      "ibility": 2656,
      "Ġpurch": 2657,
      "Ġoriginal": 2658,
      "ING": 2659,
      "Ġimmedi": 2660,
      "Ġ188": 2661,
      "ari": 2662,
      "Ġtyp": 2663,
      "ica": 2664,
      "ĠAct": 2665,
      "Ġtable": 2666,
      "Ġturned": 2667,
      "Ġ189": 2668,
      "Ġspace": 2669,
      "ĠAmerica": 2670,
      "inary": 2671,
      "cle": 2672,
      "Ġpoor": 2673,
      "Ġopin": 2674,
      "ĠGeneral": 2675,
      "Ġgent": 2676,
      "ĠFrance": 2677,
      "bre": 2678,
      "dom": 2679,
      "Ġcop": 2680,
      "Ġplayers": 2681,
      "ober": 2682,
      "asing": 2683,
      "Ġseemed": 2684,
      "Ġobserv": 2685,
      "vo": 2686,
      "Ġmess": 2687,
      "Ġbrother": 2688,
      "Ġwood": 2689,
      "Ġ36": 2690,
      "Ġhat": 2691,
      "ĠCounty": 2692,
      "ĠJust": 2693,
      "resh": 2694,
      "Ġpassed": 2695,
      "ĠCour": 2696,
      "str": 2697,
      "ĠBro": 2698,
      "iel": 2699,
      "acher": 2700,
      "ilities": 2701,
      "Ġ187": 2702,
      "Ġpoints": 2703,
      "isf": 2704,
      "head": 2705,
      "ators": 2706,
      "va": 2707,
      "Ġdam": 2708,
      "Ġwebsite": 2709,
      "ĠDep": 2710,
      "Ġrequire": 2711,
      "ĠYour": 2712,
      "Ġpage": 2713,
      "Ġblood": 2714,
      "Ġgames": 2715,
      "Ġfair": 2716,
      "Ġwatch": 2717,
      "Ġintrodu": 2718,
      "ĠIntern": 2719,
      "antly": 2720,
      "Ġaud": 2721,
      "nder": 2722,
      "ening": 2723,
      "Ġ44": 2724,
      "Ġrecogn": 2725,
      "Ġgold": 2726,
      "Ġsimple": 2727,
      "min": 2728,
      "Ġrespons": 2729,
      "Ġeight": 2730,
      "Ġled": 2731,
      "Ġproperty": 2732,
      "zy": 2733,
      "Ġshare": 2734,
      "rary": 2735,
      "Ġhear": 2736,
      "Ġdied": 2737,
      "Ġnews": 2738,
      "Ġbill": 2739,
      "Ġave": 2740,
      "Ġdead": 2741,
      "owers": 2742,
      "ensive": 2743,
      "ĠLet": 2744,
      "23": 2745,
      "Ġbeautiful": 2746,
      "Ġaus": 2747,
      "Ġnational": 2748,
      "gest": 2749,
      "Ġprevious": 2750,
      "ano": 2751,
      "ĠAnt": 2752,
      "ĠAcc": 2753,
      "ules": 2754,
      "OT": 2755,
      "unch": 2756,
      "Ġcontent": 2757,
      "raft": 2758,
      "ĠPresident": 2759,
      "Ġqual": 2760,
      "igen": 2761,
      "vert": 2762,
      "Ġfavor": 2763,
      "Ġforward": 2764,
      "ival": 2765,
      "Ġlonger": 2766,
      "lla": 2767,
      "itude": 2768,
      "ĠHigh": 2769,
      "osing": 2770,
      "Ġwait": 2771,
      "Ġparent": 2772,
      "Ġmember": 2773,
      "Ġtowards": 2774,
      "You": 2775,
      "Ġinn": 2776,
      "Ġcit": 2777,
      "ĠKe": 2778,
      "Ġfear": 2779,
      "Ġbur": 2780,
      "Ġperhaps": 2781,
      "Ġsort": 2782,
      "ibus": 2783,
      "Ġassoci": 2784,
      "ĠSan": 2785,
      "Ġprice": 2786,
      "la": 2787,
      "Ġ33": 2788,
      "Ġviol": 2789,
      "Ġih": 2790,
      "ET": 2791,
      "In": 2792,
      "load": 2793,
      "Ġexpect": 2794,
      "uge": 2795,
      "ĠChurch": 2796,
      "bum": 2797,
      "Ġmiss": 2798,
      "ĠServ": 2799,
      "Ġobtain": 2800,
      "ado": 2801,
      "ners": 2802,
      "Ġresults": 2803,
      "Ġparts": 2804,
      "Ġalone": 2805,
      "Ġcross": 2806,
      "emy": 2807,
      "uel": 2808,
      "Ġcases": 2809,
      "Ġmass": 2810,
      "Ġfine": 2811,
      "reng": 2812,
      "aughter": 2813,
      "Ġdut": 2814,
      "Ġ190": 2815,
      "Ġborn": 2816,
      "Ġens": 2817,
      "Ġcontact": 2818,
      "ĠSeptember": 2819,
      "hood": 2820,
      "Ġrequired": 2821,
      "ĠAg": 2822,
      "Ġpopular": 2823,
      "itch": 2824,
      "Ġpaper": 2825,
      "Ġsex": 2826,
      "Ġquar": 2827,
      "well": 2828,
      "face": 2829,
      "ico": 2830,
      "ouncil": 2831,
      "Ġber": 2832,
      "Ġ66": 2833,
      "Ġbuilt": 2834,
      "Ġwide": 2835,
      "ĠOctober": 2836,
      "Ġdoc": 2837,
      "Ġanc": 2838,
      "Ġpurpose": 2839,
      "Ġinj": 2840,
      "ĠWilliam": 2841,
      "ĠPhil": 2842,
      "arr": 2843,
      "Ġready": 2844,
      "cing": 2845,
      "Ġearth": 2846,
      "Ġavo": 2847,
      "Ġpen": 2848,
      "band": 2849,
      "istic": 2850,
      "Ġsie": 2851,
      "ems": 2852,
      "Ġsepar": 2853,
      "action": 2854,
      "24": 2855,
      "ĠIl": 2856,
      "ny": 2857,
      "Ġsac": 2858,
      "Ġindustry": 2859,
      "uk": 2860,
      "Ġsometimes": 2861,
      "Ġdoubt": 2862,
      "Ġprep": 2863,
      "idered": 2864,
      "\".": 2865,
      "Ġtruth": 2866,
      "ĠJanuary": 2867,
      "ios": 2868,
      "ischen": 2869,
      "Ġvict": 2870,
      "Ġcreate": 2871,
      "Ġvideo": 2872,
      "anced": 2873,
      "ufact": 2874,
      "!âĢĿ": 2875,
      "Ġkey": 2876,
      "ĠHen": 2877,
      "Ġfast": 2878,
      "Ġrecomm": 2879,
      "atives": 2880,
      "Ġstru": 2881,
      "Ġcell": 2882,
      "Ġarg": 2883,
      "ication": 2884,
      "mn": 2885,
      "Ġvoice": 2886,
      "Ġpolitical": 2887,
      "Ġwanted": 2888,
      "ĠMore": 2889,
      "ĠJames": 2890,
      "urb": 2891,
      "Ġdraw": 2892,
      "Ġspecific": 2893,
      "Ġir": 2894,
      "Ġintell": 2895,
      "âĶ": 2896,
      "allen": 2897,
      "ovember": 2898,
      "aught": 2899,
      "Ġproblem": 2900,
      "ĠIm": 2901,
      "like": 2902,
      "Ġdoesn": 2903,
      "cember": 2904,
      "OS": 2905,
      "uer": 2906,
      "ID": 2907,
      "Ġpack": 2908,
      "Ġbooks": 2909,
      "eks": 2910,
      "Ġrad": 2911,
      "Ġfinal": 2912,
      "Ġquestions": 2913,
      "ength": 2914,
      "Ġmiles": 2915,
      "ĠEar": 2916,
      "ste": 2917,
      "ironment": 2918,
      "Ġsqu": 2919,
      "Ġtrack": 2920,
      "Ġesc": 2921,
      "Ġchief": 2922,
      "chie": 2923,
      "Ġals": 2924,
      "Ġbuy": 2925,
      "ateg": 2926,
      "Ġsem": 2927,
      ");": 2928,
      "Ġdeb": 2929,
      "Ġcoup": 2930,
      "Ġcas": 2931,
      ".]": 2932,
      "ety": 2933,
      "ests": 2934,
      "Ġwonder": 2935,
      "Ġlie": 2936,
      "play": 2937,
      "Ġdro": 2938,
      "ĠMus": 2939,
      "ville": 2940,
      "range": 2941,
      "Ġattention": 2942,
      "ols": 2943,
      "iff": 2944,
      "gl": 2945,
      "Ġexec": 2946,
      "Ġ34": 2947,
      "Ġfem": 2948,
      "Ġtravel": 2949,
      "Ġimag": 2950,
      "Ġfit": 2951,
      "Ġbirth": 2952,
      "Ġcompanies": 2953,
      "Ġaw": 2954,
      "ĠQue": 2955,
      "Ġagre": 2956,
      "Ġperm": 2957,
      "Ġextra": 2958,
      "rag": 2959,
      "ĠPark": 2960,
      "Ġcondition": 2961,
      "ĠMary": 2962,
      "bl": 2963,
      "inct": 2964,
      "Ġdate": 2965,
      "ante": 2966,
      "ĠVal": 2967,
      "ĠChristian": 2968,
      "Ġloss": 2969,
      "Ġlikely": 2970,
      "Ġtill": 2971,
      "Ġprivate": 2972,
      "Ġclean": 2973,
      "Ġcentury": 2974,
      "come": 2975,
      "Ġgrad": 2976,
      "Ġnous": 2977,
      "sy": 2978,
      "Ġsea": 2979,
      "icles": 2980,
      "Ġeducation": 2981,
      "Ġmanner": 2982,
      "yond": 2983,
      "IV": 2984,
      "Ġappoint": 2985,
      "Ġpick": 2986,
      "ĠRich": 2987,
      "ox": 2988,
      "Ġhour": 2989,
      "era": 2990,
      "book": 2991,
      "Ġwriting": 2992,
      "Ġarm": 2993,
      "het": 2994,
      "Ġconcern": 2995,
      "Ġtype": 2996,
      "ige": 2997,
      "ocr": 2998,
      "aries": 2999,
      "ĠPat": 3000,
      "Ġcast": 3001,
      "iday": 3002,
      "Ġpercent": 3003,
      "ĠNovember": 3004,
      "ittee": 3005,
      "Ġmix": 3006,
      "Ġprovided": 3007,
      "Ġofficial": 3008,
      "Ġpublished": 3009,
      "wise": 3010,
      "ĠRuss": 3011,
      "Ġfight": 3012,
      "Ġadj": 3013,
      "Ġanswer": 3014,
      "lling": 3015,
      "Ġevents": 3016,
      "gar": 3017,
      "Ġconv": 3018,
      "ĠAustral": 3019,
      "Ġstreng": 3020,
      "ray": 3021,
      "ĠDecember": 3022,
      "Ġdeli": 3023,
      "Ġwish": 3024,
      "iting": 3025,
      "burg": 3026,
      "Ġconsidered": 3027,
      "EC": 3028,
      "Ġsignific": 3029,
      "Ġimprove": 3030,
      "Ġpet": 3031,
      "ĠBer": 3032,
      "Ġdig": 3033,
      "zen": 3034,
      "ĠSen": 3035,
      "hel": 3036,
      "Ġnearly": 3037,
      "omas": 3038,
      "ription": 3039,
      "ords": 3040,
      "Ġfix": 3041,
      "Ġdemand": 3042,
      "Ġprevent": 3043,
      "Ġprec": 3044,
      "Ġmodern": 3045,
      "verage": 3046,
      "Ġ37": 3047,
      "Ġconduct": 3048,
      "ĠIndian": 3049,
      "back": 3050,
      "ij": 3051,
      "Ġcarry": 3052,
      "Ġcontract": 3053,
      "Ġexact": 3054,
      "Ġhigher": 3055,
      "ĠPort": 3056,
      "Ġsatisf": 3057,
      "Ġfaith": 3058,
      "Ġfeatures": 3059,
      "Ġprem": 3060,
      "27": 3061,
      "Ġpretty": 3062,
      "ros": 3063,
      "ĠInt": 3064,
      "Ġdog": 3065,
      "ĠMark": 3066,
      "Ġarch": 3067,
      "Ġboard": 3068,
      "80": 3069,
      "Ġlog": 3070,
      "iles": 3071,
      "Ġplayed": 3072,
      "Ġorigin": 3073,
      "ĠTra": 3074,
      "ĠRed": 3075,
      "Ġregular": 3076,
      "Ġliter": 3077,
      "Ġlanguage": 3078,
      "ĠAc": 3079,
      "Ġlui": 3080,
      "omen": 3081,
      "Ġconstit": 3082,
      "Ġrange": 3083,
      "Ġtout": 3084,
      "Ġadmin": 3085,
      "Ġfollowed": 3086,
      "rote": 3087,
      "Ġoutside": 3088,
      "Ġnote": 3089,
      "apan": 3090,
      "Ġplease": 3091,
      "atter": 3092,
      "Ġusually": 3093,
      "Ġprint": 3094,
      "Ġthy": 3095,
      "Ġpeace": 3096,
      "26": 3097,
      "Ġincrease": 3098,
      "unk": 3099,
      "Ġsimply": 3100,
      "iti": 3101,
      "apt": 3102,
      "ĠMor": 3103,
      "ĠGreat": 3104,
      "ĠPaul": 3105,
      "ental": 3106,
      "Ġdom": 3107,
      "Ġenergy": 3108,
      "Ġsearch": 3109,
      "Ġhistor": 3110,
      "Ġplaces": 3111,
      "ĠPre": 3112,
      "Ġalthough": 3113,
      "Ġannoun": 3114,
      "Ġlinks": 3115,
      "Ġfrequ": 3116,
      "ĠMich": 3117,
      "ĠAfric": 3118,
      "Ġmere": 3119,
      ",'": 3120,
      "oted": 3121,
      "ĠReferences": 3122,
      "ĠLib": 3123,
      "oon": 3124,
      "Ġcontinued": 3125,
      "Ġhappy": 3126,
      "sec": 3127,
      "Ġauch": 3128,
      "ĠSer": 3129,
      "Ġtakes": 3130,
      "field": 3131,
      "Ġtotal": 3132,
      "aged": 3133,
      "Ġ60": 3134,
      "ĠCong": 3135,
      "29": 3136,
      "uis": 3137,
      "ĠFirst": 3138,
      "ences": 3139,
      "Ġsn": 3140,
      "Ġcareer": 3141,
      "pro": 3142,
      "ENT": 3143,
      "ĠParis": 3144,
      "xim": 3145,
      "Ġneigh": 3146,
      "Ġreceive": 3147,
      "Ġinstead": 3148,
      "ati": 3149,
      "Ġgirl": 3150,
      "Ġselect": 3151,
      "aur": 3152,
      "agn": 3153,
      "Ġsafe": 3154,
      "isl": 3155,
      "ungen": 3156,
      "ĠGeorge": 3157,
      "hold": 3158,
      "Ġbank": 3159,
      "28": 3160,
      "Ġgreater": 3161,
      "aj": 3162,
      "Ġ#": 3163,
      "Ġye": 3164,
      "Ġmaintain": 3165,
      "Ġcontrib": 3166,
      "rer": 3167,
      "Ġways": 3168,
      "Ġmach": 3169,
      "Ġsize": 3170,
      "Ġmeeting": 3171,
      "Ġavec": 3172,
      "Ġcorn": 3173,
      "Ġhus": 3174,
      "Ġparticip": 3175,
      "Ġkept": 3176,
      "Ġalt": 3177,
      "Ġ185": 3178,
      "ione": 3179,
      "Ġball": 3180,
      "Ġgone": 3181,
      "Ġstyle": 3182,
      "Ġrefer": 3183,
      "Ġbott": 3184,
      "cial": 3185,
      "Ġtext": 3186,
      "Ġalbum": 3187,
      "Ġtrust": 3188,
      "Ġsurpr": 3189,
      "Ġoccup": 3190,
      "Ġpor": 3191,
      "ois": 3192,
      "iled": 3193,
      "Ġshows": 3194,
      "rang": 3195,
      "ĠStud": 3196,
      "ias": 3197,
      "Ġissue": 3198,
      "ĠWell": 3199,
      "Ġtele": 3200,
      "itation": 3201,
      "Ġconditions": 3202,
      "ding": 3203,
      "ements": 3204,
      "roy": 3205,
      "atory": 3206,
      "Ġhair": 3207,
      "Ġtraining": 3208,
      "ĠLou": 3209,
      "Ġthroughout": 3210,
      "Ġnorth": 3211,
      "Ġtrying": 3212,
      "fl": 3213,
      "Ġengine": 3214,
      "Ġ31": 3215,
      "ares": 3216,
      "35": 3217,
      "Ġcard": 3218,
      "ournal": 3219,
      "Ġthou": 3220,
      "Ġtal": 3221,
      "ological": 3222,
      "ruary": 3223,
      "body": 3224,
      "estern": 3225,
      "Ġreading": 3226,
      "ples": 3227,
      "Ġrate": 3228,
      "ancial": 3229,
      "Ġmal": 3230,
      "astic": 3231,
      "45": 3232,
      "Ġnation": 3233,
      "ĠPal": 3234,
      "99": 3235,
      "Ġestablished": 3236,
      "Ġenter": 3237,
      "Ġlower": 3238,
      "Ġband": 3239,
      "Ġmanufact": 3240,
      "Ġreturned": 3241,
      "Ġbeg": 3242,
      "ously": 3243,
      "Ġcircum": 3244,
      "Ġcontinue": 3245,
      "orrow": 3246,
      "Ġyourself": 3247,
      "Ġ2012": 3248,
      "Ġterms": 3249,
      "Ġcele": 3250,
      "Ġfif": 3251,
      "ĠMad": 3252,
      "ĠCollege": 3253,
      "uments": 3254,
      "ĠCourt": 3255,
      "istration": 3256,
      "ĠSim": 3257,
      "Ġpractice": 3258,
      "Ġuns": 3259,
      "Ġpopulation": 3260,
      "Ġlength": 3261,
      "Ġgentle": 3262,
      "asons": 3263,
      "ĠLaw": 3264,
      "hips": 3265,
      "Ġ45": 3266,
      "Ġconsist": 3267,
      "Ġeine": 3268,
      "Ġlives": 3269,
      "\",": 3270,
      "Ġremov": 3271,
      "Ġindeed": 3272,
      "asc": 3273,
      "ander": 3274,
      "Ġdaughter": 3275,
      "Ġdesp": 3276,
      "vere": 3277,
      "rug": 3278,
      "Ġmort": 3279,
      "Ġcreated": 3280,
      "Ġneeded": 3281,
      "ounded": 3282,
      "Ġplant": 3283,
      "Ġ38": 3284,
      "Ġmedia": 3285,
      "Ġbeyond": 3286,
      "ida": 3287,
      "Ġcivil": 3288,
      "Ġfat": 3289,
      "ĠGerman": 3290,
      "Ġarticle": 3291,
      "ĠBu": 3292,
      "Ġremember": 3293,
      "Ġsaying": 3294,
      "Ġserious": 3295,
      "Ġcomfort": 3296,
      "Ġoccur": 3297,
      "ĠVol": 3298,
      "Ġses": 3299,
      "inite": 3300,
      "Ġbrand": 3301,
      "Ġsummer": 3302,
      "Ġweeks": 3303,
      "Ġopportunity": 3304,
      "Ġwrote": 3305,
      "Ġindic": 3306,
      "Ġissues": 3307,
      "Ġgives": 3308,
      "ĠJapan": 3309,
      "aient": 3310,
      "Ġconsum": 3311,
      "Ġproceed": 3312,
      "ĠThomas": 3313,
      "ĠCons": 3314,
      "Ġplaced": 3315,
      "Ġsen": 3316,
      "Ġfol": 3317,
      "iner": 3318,
      "Ġrights": 3319,
      "urt": 3320,
      "umn": 3321,
      "OU": 3322,
      "lier": 3323,
      "Ġhous": 3324,
      "icip": 3325,
      "lands": 3326,
      "Ġriver": 3327,
      "Ġrunning": 3328,
      "Ġdistrict": 3329,
      "wood": 3330,
      "CH": 3331,
      "time": 3332,
      "onn": 3333,
      "Ġcommer": 3334,
      "Ġchance": 3335,
      "bed": 3336,
      "Ġexperien": 3337,
      "Ġincluded": 3338,
      "Ġperformance": 3339,
      "king": 3340,
      "Ġstruct": 3341,
      "Ġrace": 3342,
      "Ġsomeone": 3343,
      "ĠFebruary": 3344,
      "St": 3345,
      "Ġnamed": 3346,
      "hem": 3347,
      "Ġ>": 3348,
      "Ġeye": 3349,
      "vey": 3350,
      "hington": 3351,
      "Ġgard": 3352,
      "ĠZe": 3353,
      "ita": 3354,
      "ĠDu": 3355,
      "Ġcat": 3356,
      "Ġcompl": 3357,
      "Ġgenerally": 3358,
      "Ġinstit": 3359,
      "urance": 3360,
      "Ġpray": 3361,
      "III": 3362,
      "Ġbroad": 3363,
      "Ġpal": 3364,
      "Ġlaws": 3365,
      "ĠJes": 3366,
      "Ġareas": 3367,
      "Ġ2013": 3368,
      "year": 3369,
      "Ġfeeling": 3370,
      "Ġstaff": 3371,
      "ĠDavid": 3372,
      "60": 3373,
      "Ġwild": 3374,
      "Ġstation": 3375,
      "Ġwrong": 3376,
      "ĠAND": 3377,
      "Ġ39": 3378,
      "Ġslow": 3379,
      "ĠOh": 3380,
      "Ġchanges": 3381,
      "Ġexcell": 3382,
      "ĠEast": 3383,
      "Ġeasily": 3384,
      "Ġcand": 3385,
      "Ġdress": 3386,
      "Ġbeginning": 3387,
      "ĠProf": 3388,
      "Ġprofessional": 3389,
      "Ġproduction": 3390,
      "aux": 3391,
      "lease": 3392,
      "Ġopinion": 3393,
      "ĠStreet": 3394,
      "ishing": 3395,
      "hab": 3396,
      "Ġhop": 3397,
      "ĠBlack": 3398,
      "Ġemail": 3399,
      "iant": 3400,
      "izing": 3401,
      "isions": 3402,
      "ension": 3403,
      "Ġcoun": 3404,
      "Ġanal": 3405,
      "Ġfocus": 3406,
      "pond": 3407,
      "ography": 3408,
      "Ġsouth": 3409,
      "Ġnom": 3410,
      "ĠDan": 3411,
      "Ġadvant": 3412,
      "aste": 3413,
      "ĠSal": 3414,
      "Ġimpress": 3415,
      "Ġoccasion": 3416,
      "Ġclub": 3417,
      "Ġjour": 3418,
      "ero": 3419,
      "Ġdecided": 3420,
      "acht": 3421,
      "Ġconvers": 3422,
      "Ġsud": 3423,
      "Ġaux": 3424,
      "Ġenvironment": 3425,
      "Ġcolor": 3426,
      "Ġbase": 3427,
      "Ġtrib": 3428,
      "Ġvirt": 3429,
      "ĠEvery": 3430,
      "Ġstar": 3431,
      "Ġgiving": 3432,
      "riage": 3433,
      "Ġpaid": 3434,
      "33": 3435,
      "Ġship": 3436,
      "ancy": 3437,
      "Ġstates": 3438,
      "Ġtwenty": 3439,
      "uter": 3440,
      "iring": 3441,
      "Ġsleep": 3442,
      "ula": 3443,
      "ĠSam": 3444,
      "Ġstop": 3445,
      "Ġcarried": 3446,
      "Ġmoved": 3447,
      "Ġappeared": 3448,
      "Ġmanagement": 3449,
      "Ġworked": 3450,
      "Ġdanger": 3451,
      "rab": 3452,
      "imm": 3453,
      "Ġsecret": 3454,
      "aign": 3455,
      "Ġtradition": 3456,
      "ĠIndia": 3457,
      "Ġbox": 3458,
      "Ġtouch": 3459,
      "Ġlear": 3460,
      "ĠVir": 3461,
      "abor": 3462,
      "Ġpra": 3463,
      "rief": 3464,
      "Ġcold": 3465,
      "Ġpolicy": 3466,
      "overed": 3467,
      "Ġcharge": 3468,
      "ston": 3469,
      "Ġexerc": 3470,
      "ĠFin": 3471,
      "ĠWashington": 3472,
      "Ġpred": 3473,
      "Ġang": 3474,
      "Ġ195": 3475,
      "Ġven": 3476,
      "semb": 3477,
      "Ġearn": 3478,
      "lied": 3479,
      "Ġoil": 3480,
      "itable": 3481,
      "ky": 3482,
      "Ġtrade": 3483,
      "Ġprogress": 3484,
      "Ġchap": 3485,
      "Ġrecent": 3486,
      "ught": 3487,
      "!!": 3488,
      "key": 3489,
      "rey": 3490,
      "ĠDem": 3491,
      "arily": 3492,
      "ĠMart": 3493,
      "Ġachie": 3494,
      "Ġfresh": 3495,
      "Ġlines": 3496,
      "AD": 3497,
      "Ġphil": 3498,
      "aches": 3499,
      "aker": 3500,
      "IG": 3501,
      "ini": 3502,
      "Ġimmediately": 3503,
      "ĠLes": 3504,
      "Ġgoes": 3505,
      "Ġweight": 3506,
      "illing": 3507,
      "Ġcertainly": 3508,
      "Ġreleased": 3509,
      "ctions": 3510,
      "ĠWhy": 3511,
      "pre": 3512,
      "Ġsend": 3513,
      "Ġaf": 3514,
      "Ġmilitary": 3515,
      "Ġestablish": 3516,
      "Ġmaster": 3517,
      "atever": 3518,
      "eds": 3519,
      "ĠGree": 3520,
      "aining": 3521,
      "Ġoffers": 3522,
      "Ġmur": 3523,
      "olute": 3524,
      "Ġproduced": 3525,
      "Ġgovern": 3526,
      "ĠGovernment": 3527,
      "ĠJack": 3528,
      "ĠRev": 3529,
      "ĠAdd": 3530,
      "Ġ2011": 3531,
      "Ġdise": 3532,
      "Ġtitle": 3533,
      "ĠIV": 3534,
      "Ġadop": 3535,
      "Ġversion": 3536,
      "cast": 3537,
      "ĠPri": 3538,
      "Ġseven": 3539,
      "Ġlatter": 3540,
      "ĠAssoci": 3541,
      "Ġhusband": 3542,
      "Ġpersons": 3543,
      "ager": 3544,
      "Ġquickly": 3545,
      "Ġlaug": 3546,
      "ĠST": 3547,
      "ibly": 3548,
      "Ġindepend": 3549,
      "Ġcapital": 3550,
      "Ġcette": 3551,
      "light": 3552,
      "Ġrole": 3553,
      "Ġevidence": 3554,
      "Ġmarried": 3555,
      "Ġcapt": 3556,
      "zz": 3557,
      "Ġgreen": 3558,
      "ĠNor": 3559,
      "Ġbelong": 3560,
      "Ġ2010": 3561,
      "Ġcru": 3562,
      "Ġprotect": 3563,
      "Ġcelebr": 3564,
      "Ġcountries": 3565,
      "enc": 3566,
      "hest": 3567,
      "Ġii": 3568,
      "Ġsubm": 3569,
      "Ġwrite": 3570,
      "Ġtechnology": 3571,
      "RO": 3572,
      "Ġreve": 3573,
      "ĠTrans": 3574,
      "Ġrisk": 3575,
      "vention": 3576,
      "itter": 3577,
      "37": 3578,
      "oo": 3579,
      "ĠPost": 3580,
      "ederal": 3581,
      "ĠDay": 3582,
      "Ġherself": 3583,
      "Ġstood": 3584,
      "ĠSund": 3585,
      "org": 3586,
      "with": 3587,
      "Ġreached": 3588,
      "ĠAut": 3589,
      "Ġtar": 3590,
      "Ġtour": 3591,
      "olic": 3592,
      "omb": 3593,
      "Ġsoul": 3594,
      "Ġ46": 3595,
      "Ġleading": 3596,
      "Ġbal": 3597,
      "Ġfirm": 3598,
      "Ġsave": 3599,
      "Ġrock": 3600,
      ".;": 3601,
      "Ġmist": 3602,
      "Ġtreatment": 3603,
      "tered": 3604,
      "__": 3605,
      "//": 3606,
      "ĠAnn": 3607,
      "Ġdegree": 3608,
      "ĠBel": 3609,
      "ĠInc": 3610,
      "ustr": 3611,
      "Ġing": 3612,
      "Ġpan": 3613,
      "ĠUp": 3614,
      "sch": 3615,
      "Ġcollect": 3616,
      "Ġopened": 3617,
      "Ġquant": 3618,
      "ael": 3619,
      "Ġinfluence": 3620,
      "Ġinsp": 3621,
      "ura": 3622,
      "36": 3623,
      "rel": 3624,
      "Ġcook": 3625,
      "Ġexpected": 3626,
      "Ġextreme": 3627,
      "ĠEven": 3628,
      "Ġnach": 3629,
      "essor": 3630,
      "Ġsituation": 3631,
      "Ġemb": 3632,
      "ĠMil": 3633,
      "Ġchallen": 3634,
      "tr": 3635,
      "imin": 3636,
      "Ġisn": 3637,
      "Ġsudden": 3638,
      "Ġthousand": 3639,
      "Ġforeign": 3640,
      "lying": 3641,
      "Ġvous": 3642,
      "ĠOther": 3643,
      "Ġprison": 3644,
      "ester": 3645,
      "Ġlocated": 3646,
      "Ġresour": 3647,
      "Ġgrant": 3648,
      "ears": 3649,
      "Ġsin": 3650,
      "Ġeveryone": 3651,
      "IR": 3652,
      "Ġproblems": 3653,
      "ĠPet": 3654,
      "Ġallowed": 3655,
      "ĠJew": 3656,
      "Ġunf": 3657,
      "aled": 3658,
      "Ġevening": 3659,
      "Ġmodel": 3660,
      "ĠCharles": 3661,
      "ĠCalif": 3662,
      "Ġpiece": 3663,
      "Ġconsequ": 3664,
      "ech": 3665,
      "Ġpoet": 3666,
      "Ġserved": 3667,
      "ĠEs": 3668,
      "nown": 3669,
      "Ġincludes": 3670,
      "aine": 3671,
      "ĠHenry": 3672,
      "ruit": 3673,
      "Ġideas": 3674,
      "Ġsociety": 3675,
      "house": 3676,
      "Ġshown": 3677,
      "Ġgrowth": 3678,
      "Ġcomme": 3679,
      "Ġinstall": 3680,
      "Ġwarm": 3681,
      "Ġid": 3682,
      "ĠCompany": 3683,
      "Ġded": 3684,
      "Ġleaders": 3685,
      "ago": 3686,
      "Ġinside": 3687,
      "ta": 3688,
      "Ġattract": 3689,
      "ĠAir": 3690,
      "Ġrap": 3691,
      "acc": 3692,
      "Ġinteresting": 3693,
      "mon": 3694,
      "ĠDuring": 3695,
      "Ġrepe": 3696,
      "ki": 3697,
      "Ġplaying": 3698,
      "Ġfarm": 3699,
      "Ġli": 3700,
      "Ġpath": 3701,
      "Ġfunction": 3702,
      "Ġhar": 3703,
      "Ġones": 3704,
      "ua": 3705,
      "48": 3706,
      "ĠBook": 3707,
      "://": 3708,
      "oring": 3709,
      "stances": 3710,
      "oming": 3711,
      "Ġtemper": 3712,
      "Ġnorm": 3713,
      "39": 3714,
      "Ġsecurity": 3715,
      "Ġdesigned": 3716,
      "Ġblog": 3717,
      "75": 3718,
      "verse": 3719,
      "icro": 3720,
      "vision": 3721,
      "ĠFe": 3722,
      "Ġunc": 3723,
      "ulated": 3724,
      "that": 3725,
      "EM": 3726,
      "obile": 3727,
      "Ġinvestig": 3728,
      "Ġcredit": 3729,
      "ĠMag": 3730,
      "Ġreb": 3731,
      "Ġhit": 3732,
      "Ġ2006": 3733,
      "Ġtried": 3734,
      "38": 3735,
      "Ġwie": 3736,
      "What": 3737,
      "Ġappears": 3738,
      "Ġlos": 3739,
      "Ġprovides": 3740,
      "ĠRoman": 3741,
      "70": 3742,
      "Ġarms": 3743,
      "essed": 3744,
      "Ġhorse": 3745,
      "acing": 3746,
      "ĠMal": 3747,
      "Ġfootball": 3748,
      "Ġcorrect": 3749,
      "ĠDel": 3750,
      "Ġapplication": 3751,
      "Ġcouple": 3752,
      "ka": 3753,
      "ĠCenter": 3754,
      "Ġstore": 3755,
      "Ġgun": 3756,
      "Ġ2008": 3757,
      "Ġwat": 3758,
      "Ġdecision": 3759,
      "Ġmais": 3760,
      "ram": 3761,
      "Ġwit": 3762,
      "Ġparents": 3763,
      "ĠMost": 3764,
      "He": 3765,
      "Ġsweet": 3766,
      "44": 3767,
      "Ġbattle": 3768,
      "Ġstrength": 3769,
      "obal": 3770,
      "bour": 3771,
      "Ġcustomers": 3772,
      "Ġremark": 3773,
      "Ġreported": 3774,
      "Ġbien": 3775,
      "Ġschools": 3776,
      "iced": 3777,
      "vi": 3778,
      "Ġarmy": 3779,
      "Ġcry": 3780,
      "iling": 3781,
      "Ġfinancial": 3782,
      "Ġrequest": 3783,
      "ĠMany": 3784,
      "ĠChina": 3785,
      "ĠAre": 3786,
      "Ġdetails": 3787,
      "cht": 3788,
      "ornia": 3789,
      "Ġslight": 3790,
      "Ġweb": 3791,
      "gn": 3792,
      "Ġmultip": 3793,
      "Ġgar": 3794,
      "Ġ48": 3795,
      "ĠEt": 3796,
      "Ġlink": 3797,
      "ĠMac": 3798,
      "Ġlearning": 3799,
      "ĠCouncil": 3800,
      "Ġpun": 3801,
      "TH": 3802,
      "ĠHall": 3803,
      "ĠHistory": 3804,
      "Ġthinking": 3805,
      "Ġprior": 3806,
      "Ġdurch": 3807,
      "Ġforms": 3808,
      "Ġreach": 3809,
      "ĠRoy": 3810,
      "Ġign": 3811,
      "):": 3812,
      "Ġlif": 3813,
      "Ġhosp": 3814,
      "ora": 3815,
      "Ġ2009": 3816,
      "lled": 3817,
      "lection": 3818,
      "Ġsystems": 3819,
      "ĠDire": 3820,
      "ĠRobert": 3821,
      "Ġencoura": 3822,
      "Ġbon": 3823,
      "rupt": 3824,
      "Ã¡": 3825,
      "This": 3826,
      "ĠInternational": 3827,
      "Ġmentioned": 3828,
      "Ġsection": 3829,
      "ĠDec": 3830,
      "ĠAlex": 3831,
      "Ġadditional": 3832,
      "Ġstock": 3833,
      "Ġbi": 3834,
      "iger": 3835,
      "Ġscience": 3836,
      "Ġdit": 3837,
      "ĠMass": 3838,
      "90": 3839,
      "Ġmeaning": 3840,
      "Ġmeas": 3841,
      "Ġtend": 3842,
      "hens": 3843,
      "ĠJer": 3844,
      "Ġmiddle": 3845,
      "Ġdistance": 3846,
      "Ġnur": 3847,
      "ĠCr": 3848,
      "Ġpull": 3849,
      "Ġattend": 3850,
      "Ch": 3851,
      "Ġpros": 3852,
      "ĠBill": 3853,
      "Ġcy": 3854,
      "Ġdisapp": 3855,
      "ship": 3856,
      "ĠMont": 3857,
      "ĠRiver": 3858,
      "erous": 3859,
      "Ġinternational": 3860,
      "Ġstage": 3861,
      "Ġcove": 3862,
      "Ġmedical": 3863,
      "ads": 3864,
      "Ġsont": 3865,
      "ĠBra": 3866,
      "dy": 3867,
      "Ġforth": 3868,
      "Ġgroups": 3869,
      "Ġfurn": 3870,
      "ĠInst": 3871,
      "Ġrecently": 3872,
      "ĠArch": 3873,
      "ees": 3874,
      "Ġpolice": 3875,
      "Ġnames": 3876,
      "Ġconsc": 3877,
      "Ġmatch": 3878,
      "34": 3879,
      "do": 3880,
      "Ġvillage": 3881,
      "Ġplat": 3882,
      "Ġdirection": 3883,
      "inner": 3884,
      "Ġvor": 3885,
      "ĠCam": 3886,
      "Ġrend": 3887,
      "Ġformed": 3888,
      "Ġdistrib": 3889,
      "Ġsche": 3890,
      "Ġsou": 3891,
      "Ġrich": 3892,
      "ĠDepartment": 3893,
      "ria": 3894,
      "ĠLouis": 3895,
      "Ġaverage": 3896,
      "Ġpresident": 3897,
      "Ġspot": 3898,
      "Ġpurs": 3899,
      "ĠCalifornia": 3900,
      "Ġlegal": 3901,
      "Ġdescribed": 3902,
      "ĠCongress": 3903,
      "Ġcam": 3904,
      "Ġmir": 3905,
      "Ġteacher": 3906,
      "Ġconnect": 3907,
      "ĠLat": 3908,
      "raw": 3909,
      "ĠWhite": 3910,
      "ception": 3911,
      "Ġchoose": 3912,
      "Ġod": 3913,
      "Ġ2007": 3914,
      "Ġappre": 3915,
      "Ġna": 3916,
      "utive": 3917,
      "leg": 3918,
      "ĠUs": 3919,
      "Ġsaf": 3920,
      "Ġregion": 3921,
      "icks": 3922,
      "Ġcampaign": 3923,
      "Ġfully": 3924,
      "Ġ2014": 3925,
      "ĠMat": 3926,
      "oms": 3927,
      "ampions": 3928,
      "ipp": 3929,
      "ysis": 3930,
      "rant": 3931,
      "Ġinvolved": 3932,
      "itz": 3933,
      "Ġunique": 3934,
      "Ġhol": 3935,
      "ani": 3936,
      "Ġspent": 3937,
      "Ġvia": 3938,
      "eder": 3939,
      "Ġvot": 3940,
      "Ġchanged": 3941,
      "ĠBec": 3942,
      "what": 3943,
      "Ġces": 3944,
      "ĠOb": 3945,
      "Ġskin": 3946,
      "Ġdaily": 3947,
      "Ġgod": 3948,
      "Ġdrive": 3949,
      "Ġsurface": 3950,
      "Ġfinally": 3951,
      "aft": 3952,
      "ĠCHAP": 3953,
      "Ġoffered": 3954,
      "ilies": 3955,
      "Ġleur": 3956,
      "ĠMem": 3957,
      "lim": 3958,
      "ĠIr": 3959,
      "Ġcool": 3960,
      "Ġstandard": 3961,
      "Ġlooks": 3962,
      "ropri": 3963,
      "Ġphilos": 3964,
      "chan": 3965,
      "Ġcomment": 3966,
      "Ġmeasure": 3967,
      "Ġoblig": 3968,
      "Ġfloor": 3969,
      "Ġspecies": 3970,
      "ĠFranc": 3971,
      "igned": 3972,
      "Ġsource": 3973,
      "orum": 3974,
      "Ġsell": 3975,
      "ground": 3976,
      "Ġheat": 3977,
      "Ġdifference": 3978,
      "ĠRepublic": 3979,
      "Ġeat": 3980,
      "Ġmagn": 3981,
      "apers": 3982,
      "Ġdoll": 3983,
      "Ġfigure": 3984,
      "Ġvan": 3985,
      "aby": 3986,
      "see": 3987,
      "Ġapproach": 3988,
      "Ġtoward": 3989,
      "Ġpu": 3990,
      "Ġwer": 3991,
      "Ġvariety": 3992,
      "Ġsto": 3993,
      "ĠJud": 3994,
      "Ġnice": 3995,
      "enth": 3996,
      "Ġsurr": 3997,
      "Ġcontr": 3998,
      "--------": 3999,
      "bon": 4000,
      "ym": 4001,
      "ĠMid": 4002,
      "Ġthee": 4003,
      "ĠBen": 4004,
      "Ġheavy": 4005,
      "Ġfran": 4006,
      "ques": 4007,
      "idents": 4008,
      "Ġincreased": 4009,
      "Ġstudent": 4010,
      "ĠAp": 4011,
      "Ġspeed": 4012,
      "Ġbreat": 4013,
      "Ġdear": 4014,
      "Ġparticularly": 4015,
      "Ġfle": 4016,
      "irty": 4017,
      "Ġsufficient": 4018,
      "Ġdirectly": 4019,
      "yd": 4020,
      "ĠDiv": 4021,
      "Ġlic": 4022,
      "Ġability": 4023,
      "ya": 4024,
      "Ġduty": 4025,
      "ishop": 4026,
      "Ġplayer": 4027,
      "sych": 4028,
      "ashion": 4029,
      "Ġchoice": 4030,
      "mo": 4031,
      "Ġbound": 4032,
      "outhern": 4033,
      "Ġarrang": 4034,
      "van": 4035,
      "Ġnotice": 4036,
      "atre": 4037,
      "but": 4038,
      "ĠTur": 4039,
      "Ġlas": 4040,
      "Ġblue": 4041,
      "Ġimpact": 4042,
      "oes": 4043,
      "ĠProv": 4044,
      "aded": 4045,
      "ulations": 4046,
      "Ġthreat": 4047,
      "Ġstraight": 4048,
      "Ġglass": 4049,
      "anch": 4050,
      "iques": 4051,
      "oute": 4052,
      "49": 4053,
      "ulf": 4054,
      "Ġabsolute": 4055,
      "Ġ80": 4056,
      "mas": 4057,
      "Ġrelated": 4058,
      "Ġdrink": 4059,
      "Ġstreet": 4060,
      "ĠSub": 4061,
      "Ġupd": 4062,
      "32": 4063,
      "Ġshot": 4064,
      "ading": 4065,
      "ĠExternal": 4066,
      "Ġofficers": 4067,
      "ĠSunday": 4068,
      "47": 4069,
      "Ġburn": 4070,
      "Ġcitiz": 4071,
      "ey": 4072,
      "Ġcompletely": 4073,
      "ingu": 4074,
      "Ġgoal": 4075,
      "Ġnetwork": 4076,
      "iar": 4077,
      "ĠTO": 4078,
      "Ġancient": 4079,
      "ĠEuropean": 4080,
      "ĠAccording": 4081,
      "Ġlived": 4082,
      "ando": 4083,
      "Ġstre": 4084,
      "ena": 4085,
      "46": 4086,
      "Ġcup": 4087,
      "Ġdeveloped": 4088,
      "Ġdesire": 4089,
      "ĠXX": 4090,
      "vant": 4091,
      "Ġdry": 4092,
      "Ġdoct": 4093,
      "och": 4094,
      "Ġstrugg": 4095,
      "stant": 4096,
      "Ġpp": 4097,
      "usion": 4098,
      "ĠSince": 4099,
      "ona": 4100,
      "Ġeffort": 4101,
      "born": 4102,
      "ST": 4103,
      "ĠGood": 4104,
      "ĠPlease": 4105,
      "Ġlearned": 4106,
      "gel": 4107,
      "Ġemer": 4108,
      "And": 4109,
      "Ġpositive": 4110,
      "ĠTheir": 4111,
      "Ġtransl": 4112,
      "bar": 4113,
      "31": 4114,
      "Ġhighly": 4115,
      "Ġphysical": 4116,
      "Ġ2016": 4117,
      "isp": 4118,
      "Ġveh": 4119,
      "venue": 4120,
      "Ġexcellent": 4121,
      "ih": 4122,
      "Ġclot": 4123,
      "Ġplans": 4124,
      "uts": 4125,
      "ola": 4126,
      "Ġlack": 4127,
      "ĠTwo": 4128,
      "Ġtu": 4129,
      "asp": 4130,
      "otion": 4131,
      "Ġdisplay": 4132,
      "ĠItal": 4133,
      "Ġpicture": 4134,
      "Ġ<": 4135,
      "respond": 4136,
      "Ġquel": 4137,
      "Ġ70": 4138,
      "Ġsuccessful": 4139,
      "ĠGreen": 4140,
      "Ġrelease": 4141,
      "olf": 4142,
      "Ġpotential": 4143,
      "ĠPeople": 4144,
      "Ġcrow": 4145,
      "ĠHealth": 4146,
      "Ġanyone": 4147,
      "Ġhappened": 4148,
      "Ġhtt": 4149,
      "Ġsan": 4150,
      "Ġwhatever": 4151,
      "Ġsein": 4152,
      "Ġauthority": 4153,
      "azing": 4154,
      "Ġcollection": 4155,
      "ĠOp": 4156,
      "yal": 4157,
      "night": 4158,
      "ocks": 4159,
      "Ġaim": 4160,
      "Ġbird": 4161,
      "ĠSpr": 4162,
      "adem": 4163,
      "Ġ2015": 4164,
      "ache": 4165,
      "ĠMer": 4166,
      "Ġult": 4167,
      "ipe": 4168,
      "vis": 4169,
      "Ġorganization": 4170,
      "ĠJesus": 4171,
      "Ġserve": 4172,
      "ĠDE": 4173,
      "ĠWhere": 4174,
      "useum": 4175,
      "Ġsusp": 4176,
      "Ġharm": 4177,
      "Ġpure": 4178,
      "rael": 4179,
      "Ġ2017": 4180,
      "orthern": 4181,
      "ĠWil": 4182,
      "Ġquarter": 4183,
      "ĠSmith": 4184,
      "Ġves": 4185,
      "Ġnone": 4186,
      "Ġraised": 4187,
      "uous": 4188,
      "Ġsafety": 4189,
      "Ġcovered": 4190,
      "Ġaber": 4191,
      "teen": 4192,
      "Ġsole": 4193,
      "Ġarrived": 4194,
      "gu": 4195,
      "inger": 4196,
      "Ġproduce": 4197,
      "inese": 4198,
      "Ġmovement": 4199,
      "ĠRel": 4200,
      "Ġnumbers": 4201,
      "ĠAlso": 4202,
      "Ġcum": 4203,
      "earch": 4204,
      "No": 4205,
      "ellow": 4206,
      "order": 4207,
      "erved": 4208,
      "Ġsuc": 4209,
      "Ġquiet": 4210,
      "rif": 4211,
      "Ġsales": 4212,
      "ĠCommun": 4213,
      "ĠBest": 4214,
      "Ġsight": 4215,
      "Ġexhib": 4216,
      "Ġspl": 4217,
      "Ġnovel": 4218,
      "ici": 4219,
      "fr": 4220,
      "ĠJose": 4221,
      "Ġphone": 4222,
      "ĠGold": 4223,
      "Ġpark": 4224,
      "Ġought": 4225,
      "gment": 4226,
      "Ġreligious": 4227,
      "ĠSl": 4228,
      "ĠLeg": 4229,
      "Ġeffects": 4230,
      "ĠPeter": 4231,
      "ĠCanada": 4232,
      "Ġactive": 4233,
      "ĠVirgin": 4234,
      "oper": 4235,
      "Ġrail": 4236,
      "nen": 4237,
      "Ġentered": 4238,
      "Ġspread": 4239,
      "Ġren": 4240,
      "ĠMet": 4241,
      "icated": 4242,
      "ĠSur": 4243,
      "ĠThus": 4244,
      "ĠTV": 4245,
      "ĠLeague": 4246,
      "rend": 4247,
      "Ġspring": 4248,
      "berg": 4249,
      "rian": 4250,
      "sey": 4251,
      "Ġaffect": 4252,
      "iny": 4253,
      "ĠâĢ¢": 4254,
      "Ġappearance": 4255,
      "right": 4256,
      "aire": 4257,
      "Ġconstruction": 4258,
      "Ġhom": 4259,
      "inter": 4260,
      "Ġrule": 4261,
      "Ġactivities": 4262,
      "Ġadvantage": 4263,
      "Ġru": 4264,
      "Ġpresence": 4265,
      "Ġmouth": 4266,
      "Ġkilled": 4267,
      "Ġscreen": 4268,
      "Ġfait": 4269,
      "Ġbow": 4270,
      "Ġdetail": 4271,
      "Ġlegisl": 4272,
      "based": 4273,
      "Ġmission": 4274,
      "IA": 4275,
      "more": 4276,
      "Ġenemy": 4277,
      "ĠLand": 4278,
      "IM": 4279,
      "Ġmut": 4280,
      "Ġintegr": 4281,
      "Ġscient": 4282,
      "Ġyouth": 4283,
      "Ġcurrently": 4284,
      "Ġcollege": 4285,
      "oir": 4286,
      "ĠNet": 4287,
      "95": 4288,
      "Ġdouble": 4289,
      "alle": 4290,
      "Ġannounced": 4291,
      "Ġsoftware": 4292,
      "rt": 4293,
      "Ġbright": 4294,
      "Ġlad": 4295,
      "ĠSatur": 4296,
      "Ġgro": 4297,
      "Ġinqu": 4298,
      "Ġhighest": 4299,
      "Ġearlier": 4300,
      "Ġdocument": 4301,
      "Ġdiss": 4302,
      "Ġautom": 4303,
      "lichen": 4304,
      "duc": 4305,
      "ĠCle": 4306,
      "ĠSociety": 4307,
      "ĠBay": 4308,
      "Ġimage": 4309,
      "Ġcompar": 4310,
      "Ġhabit": 4311,
      "han": 4312,
      "Ġdemon": 4313,
      "Ġrecommend": 4314,
      "Ġ47": 4315,
      "onse": 4316,
      "change": 4317,
      "Ġimposs": 4318,
      "Ġlimited": 4319,
      "Ġlady": 4320,
      "Ġmeant": 4321,
      "Ġcou": 4322,
      "Ġdepart": 4323,
      "RA": 4324,
      "ĠBet": 4325,
      "aling": 4326,
      "iche": 4327,
      "formation": 4328,
      "ĠTom": 4329,
      "Ġwasn": 4330,
      "Ġremains": 4331,
      "ĠAssociation": 4332,
      "Ġcenter": 4333,
      "ĠCath": 4334,
      "ĠTex": 4335,
      "ĠRob": 4336,
      "ĠUK": 4337,
      "agement": 4338,
      "ĠWho": 4339,
      "Ġindividuals": 4340,
      "Ġhuge": 4341,
      "Ġ32": 4342,
      "Ġoptions": 4343,
      "Ġum": 4344,
      "Ġplatform": 4345,
      "Ġbud": 4346,
      "Ġletters": 4347,
      "ĠLife": 4348,
      "rd": 4349,
      "ĠHel": 4350,
      "Ġpatients": 4351,
      "Ġrent": 4352,
      "Ġgrowing": 4353,
      "Ġinstruct": 4354,
      "ĠBus": 4355,
      "istry": 4356,
      "Ġexactly": 4357,
      "Ġlik": 4358,
      "ĠIll": 4359,
      "itect": 4360,
      "ault": 4361,
      "known": 4362,
      "ishes": 4363,
      "Ġleaving": 4364,
      "ĠInter": 4365,
      "ivity": 4366,
      "ĠRem": 4367,
      "Ġforg": 4368,
      "Ġremained": 4369,
      "ĠUnion": 4370,
      "Ġjoy": 4371,
      "Ġfra": 4372,
      "ĠGen": 4373,
      "Ġpresented": 4374,
      "Ġintellig": 4375,
      "Ġscene": 4376,
      "ĠAlthough": 4377,
      "ĠJo": 4378,
      "Ġreligion": 4379,
      "Ġkids": 4380,
      "Ġequal": 4381,
      "ĠBur": 4382,
      "Ġmme": 4383,
      "ĠFrank": 4384,
      "Ġ2018": 4385,
      "Ġfamilies": 4386,
      "iller": 4387,
      "ĠOut": 4388,
      "Ġ55": 4389,
      "Ġcomplex": 4390,
      "ĠDer": 4391,
      "ĠÃ": 4392,
      "Ġgirls": 4393,
      "ĠForm": 4394,
      "Ġreflect": 4395,
      "itar": 4396,
      "Ġlaid": 4397,
      "overy": 4398,
      "illa": 4399,
      "lick": 4400,
      "Ġmine": 4401,
      "rol": 4402,
      "Ġagree": 4403,
      "ĠGrand": 4404,
      "aging": 4405,
      "ĠOver": 4406,
      "acity": 4407,
      "Ġrapid": 4408,
      "ĠMod": 4409,
      "rial": 4410,
      "Ġstories": 4411,
      "board": 4412,
      "Ġparties": 4413,
      "hal": 4414,
      "ĠHam": 4415,
      "Ġbeauty": 4416,
      "Ġich": 4417,
      "Ġsurv": 4418,
      "ĠWind": 4419,
      "Ġom": 4420,
      "Ġdrug": 4421,
      "Ġensure": 4422,
      "Ġloved": 4423,
      "Ġmale": 4424,
      "ogle": 4425,
      "road": 4426,
      "Ġwest": 4427,
      "ancing": 4428,
      "oston": 4429,
      "ĠMo": 4430,
      "ĠChinese": 4431,
      "ĠCamp": 4432,
      "stitute": 4433,
      "Ġfellow": 4434,
      "ĠMex": 4435,
      "ĠMond": 4436,
      "edy": 4437,
      "tre": 4438,
      "Ġvent": 4439,
      "Ġstatement": 4440,
      "88": 4441,
      "Ġinterview": 4442,
      "Ġneither": 4443,
      "Ġsupply": 4444,
      "Ġfinished": 4445,
      "olly": 4446,
      "Ġrid": 4447,
      "Ġentirely": 4448,
      "ische": 4449,
      "Ġseeing": 4450,
      "ĠFriday": 4451,
      "Ġ?": 4452,
      "keit": 4453,
      "Ġknows": 4454,
      "ĠMount": 4455,
      "Ġsir": 4456,
      "Ġlabor": 4457,
      "Ġ180": 4458,
      "Ġcert": 4459,
      "Ġapparent": 4460,
      "Ġcab": 4461,
      "Ġsignificant": 4462,
      "Ġresist": 4463,
      "Ġlarger": 4464,
      "ĠSuper": 4465,
      "Ġsad": 4466,
      "Ġstone": 4467,
      "Ġaware": 4468,
      "ĠIsrael": 4469,
      "Ġbear": 4470,
      "Ġcircumstances": 4471,
      "ĠCommission": 4472,
      "Ġnumerous": 4473,
      "Ġrare": 4474,
      "Ġpurchase": 4475,
      "Ġdream": 4476,
      "ĠSaturday": 4477,
      "Ġeffective": 4478,
      "Ġsucceed": 4479,
      "ĠTy": 4480,
      "Ġplain": 4481,
      "Ġtree": 4482,
      "uing": 4483,
      "Ġgall": 4484,
      "cks": 4485,
      "Ġmoving": 4486,
      "kt": 4487,
      "Ġcaused": 4488,
      "Ġtrees": 4489,
      "esch": 4490,
      "Ġforces": 4491,
      "Ġleaves": 4492,
      "Ġscar": 4493,
      "Ġprepared": 4494,
      "iously": 4495,
      "iance": 4496,
      "wered": 4497,
      "Ġrelationship": 4498,
      "ef": 4499,
      "Ġprograms": 4500,
      "Ġdisease": 4501,
      "ĠEp": 4502,
      "Ġbei": 4503,
      "Ġsupposed": 4504,
      "Ġdistinct": 4505,
      "aren": 4506,
      "Ġgets": 4507,
      "Ġentre": 4508,
      "Ġ)": 4509,
      "Ġaltern": 4510,
      "Ġemp": 4511,
      "Ġgreatest": 4512,
      "isse": 4513,
      "Ġtarget": 4514,
      "ĠRichard": 4515,
      "Ġnav": 4516,
      "rows": 4517,
      "Ġefforts": 4518,
      "Ġcommercial": 4519,
      "Ġ90": 4520,
      "Ġsolution": 4521,
      "Ġinterested": 4522,
      "ĠFre": 4523,
      "Ġdownload": 4524,
      "Ġtant": 4525,
      "ĠSol": 4526,
      "Ġhab": 4527,
      "osen": 4528,
      "Ġ49": 4529,
      "ĠEv": 4530,
      "antic": 4531,
      "ĠMichael": 4532,
      "ĠOld": 4533,
      "Ġopening": 4534,
      "Ġfeed": 4535,
      "uls": 4536,
      "ĠFree": 4537,
      "ente": 4538,
      "AY": 4539,
      "Ġcrowd": 4540,
      "Ġimportance": 4541,
      "ĠGet": 4542,
      "Ġbecomes": 4543,
      "isher": 4544,
      "Ġprefer": 4545,
      "ĠGermany": 4546,
      "IP": 4547,
      "Ġhappen": 4548,
      "Ġlatest": 4549,
      "Ġguard": 4550,
      "ĠCO": 4551,
      "Ġhouses": 4552,
      "Ġcorrespond": 4553,
      "Ġblock": 4554,
      "ube": 4555,
      "Ġvessel": 4556,
      "Ġshoot": 4557,
      "oured": 4558,
      "ĠIsland": 4559,
      "Ġnar": 4560,
      "Ġusers": 4561,
      "set": 4562,
      "Ġ!": 4563,
      "Ġitems": 4564,
      "Ġconce": 4565,
      "Ġappropri": 4566,
      "Ġran": 4567,
      "Ġshowed": 4568,
      "Ġpassion": 4569,
      "But": 4570,
      "Ġrank": 4571,
      "Ġdar": 4572,
      "Ġfeature": 4573,
      "Ġ2005": 4574,
      "liament": 4575,
      "Ġsister": 4576,
      "Ġactivity": 4577,
      "ras": 4578,
      "Ġbag": 4579,
      "lor": 4580,
      "anish": 4581,
      "ĠMen": 4582,
      "Ġwir": 4583,
      "Ġjustice": 4584,
      "ĠGroup": 4585,
      "ĠSum": 4586,
      "Ġconsult": 4587,
      "Ġcoast": 4588,
      "ĠYes": 4589,
      "ker": 4590,
      "Ġresources": 4591,
      "Ġreasons": 4592,
      "Ġpowerful": 4593,
      "Ġprepar": 4594,
      "ĠBoston": 4595,
      "Ġmarriage": 4596,
      "Ġfilled": 4597,
      "uten": 4598,
      "Ġwinter": 4599,
      "CT": 4600,
      "wor": 4601,
      "ĠUnder": 4602,
      "Ġstrange": 4603,
      "ĠScott": 4604,
      "edom": 4605,
      "uated": 4606,
      "Ġdestroy": 4607,
      "If": 4608,
      "Ġmaterials": 4609,
      "ĠPublic": 4610,
      "iber": 4611,
      "ĠAny": 4612,
      "ĠAustralia": 4613,
      "Ġrob": 4614,
      "lie": 4615,
      ".âĢĻ": 4616,
      "Ġjourney": 4617,
      "vest": 4618,
      "Ġwindow": 4619,
      "ĠSaint": 4620,
      "Ġthick": 4621,
      "Ġamb": 4622,
      "Ġimpossible": 4623,
      "Ġrom": 4624,
      "Ġclosed": 4625,
      "ompl": 4626,
      "claim": 4627,
      "ĠAng": 4628,
      "Ġeconomic": 4629,
      "Ġfer": 4630,
      "Ġhonor": 4631,
      "orial": 4632,
      "Ġwants": 4633,
      "Ġoption": 4634,
      "mm": 4635,
      "uses": 4636,
      "Ġculture": 4637,
      "Ġrules": 4638,
      "ĠTod": 4639,
      "istrict": 4640,
      "Ġaward": 4641,
      "Ġcorpor": 4642,
      "Ġtransfer": 4643,
      "ĠWed": 4644,
      "ĠFil": 4645,
      "GE": 4646,
      "Ġur": 4647,
      "Ġinstr": 4648,
      "Ġtypes": 4649,
      "Ġunderstanding": 4650,
      "Ġdrop": 4651,
      "Ġsed": 4652,
      "Ġentertain": 4653,
      "Ġdont": 4654,
      "alls": 4655,
      "Ġdating": 4656,
      "42": 4657,
      "âĶĢ": 4658,
      "ĠPo": 4659,
      "izes": 4660,
      "Ġjoin": 4661,
      "Ġlocation": 4662,
      "Ġlevels": 4663,
      "Ġtransport": 4664,
      "atus": 4665,
      "Ġmemory": 4666,
      "Ġquod": 4667,
      "Ġpieces": 4668,
      "Ġjoined": 4669,
      "65": 4670,
      "Ġcontem": 4671,
      "Ġappointed": 4672,
      "Ġmessage": 4673,
      "aud": 4674,
      "Ġbod": 4675,
      "Ġfavorite": 4676,
      "Ġunless": 4677,
      "Ġoder": 4678,
      "Ġchair": 4679,
      "Ġprojects": 4680,
      "Ġcandid": 4681,
      "Ġcharacters": 4682,
      "jo": 4683,
      "ortion": 4684,
      "Ġpressure": 4685,
      "Ġconven": 4686,
      "ĠCarol": 4687,
      "Ġreplied": 4688,
      "Ġstarting": 4689,
      "Ġaccomp": 4690,
      "Ġprotection": 4691,
      "Ġcel": 4692,
      "ĠSil": 4693,
      "Ġbenefit": 4694,
      "ushed": 4695,
      "Ġkit": 4696,
      "Ġsteps": 4697,
      "Ġinit": 4698,
      "Ġcosts": 4699,
      "ev": 4700,
      "atively": 4701,
      "Ġpleasure": 4702,
      "inent": 4703,
      "oria": 4704,
      "ĠDa": 4705,
      "Ġ2000": 4706,
      "ipment": 4707,
      "ingly": 4708,
      "Ġconnection": 4709,
      "Ġfaire": 4710,
      "ffic": 4711,
      "BC": 4712,
      "ĠAnother": 4713,
      "Ġcompleted": 4714,
      "ĠClub": 4715,
      "ĠDis": 4716,
      "Ġcalc": 4717,
      "Ġanswered": 4718,
      "iments": 4719,
      "ĠOnce": 4720,
      "Ġpages": 4721,
      "Ġinstance": 4722,
      "Ġdefinite": 4723,
      "uate": 4724,
      "Ġotherwise": 4725,
      "ĠFlor": 4726,
      "Ġavoid": 4727,
      "ĠScot": 4728,
      "Ġrespond": 4729,
      "Ġcolon": 4730,
      "Ġrose": 4731,
      "Ġcustomer": 4732,
      "Ġsale": 4733,
      "Ġvoc": 4734,
      "Ġincreasing": 4735,
      "Ġtrain": 4736,
      "nde": 4737,
      "Ġbottom": 4738,
      "Ġbehav": 4739,
      "Ġthoughts": 4740,
      "ĠAM": 4741,
      "ĠSk": 4742,
      "Ġbeat": 4743,
      "41": 4744,
      "Ġportion": 4745,
      "ĠIts": 4746,
      "Ġstated": 4747,
      "Ġbenefits": 4748,
      "anta": 4749,
      "Ġstanding": 4750,
      "lies": 4751,
      "Ġsans": 4752,
      "Ġisland": 4753,
      "Ġglad": 4754,
      "umber": 4755,
      "etic": 4756,
      "oles": 4757,
      "ĠEach": 4758,
      "Ġafford": 4759,
      "anz": 4760,
      "ĠBank": 4761,
      "ĠDen": 4762,
      "Ġofficer": 4763,
      "Ġtalking": 4764,
      "istics": 4765,
      "Ġaccompl": 4766,
      "stitution": 4767,
      "ĠNews": 4768,
      "Ġrise": 4769,
      "Ġallows": 4770,
      "Ġbroken": 4771,
      "ĠCur": 4772,
      "ĠPlay": 4773,
      "Ġactual": 4774,
      "ulate": 4775,
      "ĠCast": 4776,
      "rig": 4777,
      "ĠService": 4778,
      "Ġskills": 4779,
      "Ġuseful": 4780,
      "esty": 4781,
      "ĠEduc": 4782,
      "ĠSpec": 4783,
      "enses": 4784,
      "Ġwa": 4785,
      "Ġunivers": 4786,
      "ĠWood": 4787,
      "ĠAtt": 4788,
      "Ġweather": 4789,
      "ications": 4790,
      "Ġeast": 4791,
      "Ġadvice": 4792,
      "Ġclick": 4793,
      "iation": 4794,
      "Ġfollows": 4795,
      "ende": 4796,
      "Ġdetermined": 4797,
      "hi": 4798,
      "uy": 4799,
      "ĠBoard": 4800,
      "Ġadvance": 4801,
      "Ġfavour": 4802,
      "Ġfest": 4803,
      "asant": 4804,
      "Ġfashion": 4805,
      "Ġvel": 4806,
      "ĠHome": 4807,
      "Ġdeux": 4808,
      "Ġclasses": 4809,
      "Ġtruly": 4810,
      "Ġni": 4811,
      "ĠSecret": 4812,
      "ca": 4813,
      "Ġconcept": 4814,
      "Ġju": 4815,
      "Ġlibert": 4816,
      "Ġcomputer": 4817,
      "iliar": 4818,
      "Ġtim": 4819,
      "43": 4820,
      "Ġdiscovered": 4821,
      "Ġspoke": 4822,
      "ression": 4823,
      ".--": 4824,
      "osa": 4825,
      "Ġgas": 4826,
      "ĠCaptain": 4827,
      "porary": 4828,
      "Ġfal": 4829,
      "ATION": 4830,
      "Ġaspect": 4831,
      "ĠFore": 4832,
      "char": 4833,
      "ĠJoseph": 4834,
      "gency": 4835,
      "ĠCommittee": 4836,
      "Ġlargest": 4837,
      "po": 4838,
      "fol": 4839,
      "Ġbasis": 4840,
      "Ġdirector": 4841,
      "Ġexistence": 4842,
      "Ġsand": 4843,
      "ĠHill": 4844,
      "ĠBrown": 4845,
      "uries": 4846,
      "ĠIre": 4847,
      "CE": 4848,
      "Ġdeliver": 4849,
      "rim": 4850,
      "Ġstuff": 4851,
      "ĠTer": 4852,
      "Ġanimals": 4853,
      "ito": 4854,
      "Ġmovie": 4855,
      "under": 4856,
      "Ġ75": 4857,
      "Ġintended": 4858,
      "ĠLady": 4859,
      "Ġcloud": 4860,
      "Ġexpression": 4861,
      "ĠYet": 4862,
      "ĠLike": 4863,
      "iden": 4864,
      "Ġproviding": 4865,
      "Ġpatient": 4866,
      "Ġvir": 4867,
      "Ġsust": 4868,
      "ĠRome": 4869,
      "ĠTexas": 4870,
      "Ġobtained": 4871,
      "Ġanx": 4872,
      "Ġmotion": 4873,
      "Ġessential": 4874,
      "ĠDistrict": 4875,
      "Ġflow": 4876,
      "isters": 4877,
      "Ġelle": 4878,
      "Ġwine": 4879,
      "worth": 4880,
      "Ġminim": 4881,
      "orough": 4882,
      "Ġpec": 4883,
      "Ġfamous": 4884,
      "Ġclos": 4885,
      "ĠMonday": 4886,
      "Ġpictures": 4887,
      "Ġmoral": 4888,
      "ĠLong": 4889,
      "Ġapply": 4890,
      "Ġboys": 4891,
      "Ġchem": 4892,
      "Ġimper": 4893,
      "Ġanalysis": 4894,
      "Ġdelight": 4895,
      "mar": 4896,
      "Ġbrief": 4897,
      "ĠRE": 4898,
      "ician": 4899,
      "Ġmachine": 4900,
      "Ġreports": 4901,
      "ĠSupp": 4902,
      "Ġweak": 4903,
      "ĠFort": 4904,
      "hand": 4905,
      "ĠRoad": 4906,
      "icit": 4907,
      "Ġorders": 4908,
      "ĠÂ£": 4909,
      "Ġwonderful": 4910,
      "Ġanimal": 4911,
      "arp": 4912,
      "Ġcommission": 4913,
      "ĠLu": 4914,
      "Ġmajority": 4915,
      "standing": 4916,
      "Ġnative": 4917,
      "Ġsecure": 4918,
      "Ġusual": 4919,
      "Ġforget": 4920,
      "Ġassum": 4921,
      "OW": 4922,
      "aped": 4923,
      "Ġwriter": 4924,
      "Ġwird": 4925,
      "rum": 4926,
      "Ġfish": 4927,
      "force": 4928,
      "aven": 4929,
      "Ġuses": 4930,
      "Ġteams": 4931,
      "Ġelection": 4932,
      "Ġiron": 4933,
      "Ġvolume": 4934,
      "Ġhur": 4935,
      "ĠDi": 4936,
      "Ġwerden": 4937,
      "mes": 4938,
      "ĠEst": 4939,
      "ĠHon": 4940,
      "Ġasc": 4941,
      "Ġsnow": 4942,
      "ĠBre": 4943,
      "ĠAnge": 4944,
      "mark": 4945,
      "85": 4946,
      "Ġmechan": 4947,
      "ĠTre": 4948,
      "igne": 4949,
      "UL": 4950,
      "ye": 4951,
      "Ġhang": 4952,
      "Ġspeech": 4953,
      "Ġspend": 4954,
      "Ġstream": 4955,
      "Ġachieve": 4956,
      "ete": 4957,
      "Ġwitness": 4958,
      "Ġconnected": 4959,
      "Ġresponse": 4960,
      "Ġimpl": 4961,
      "Ġforest": 4962,
      "Ġthank": 4963,
      "Ġdomin": 4964,
      "Ġsel": 4965,
      "UN": 4966,
      "ĠMS": 4967,
      "ĠAfrica": 4968,
      "ĠCHAPTER": 4969,
      "Ġtrouble": 4970,
      "Ġannual": 4971,
      "CC": 4972,
      "ĠLove": 4973,
      "ĠSing": 4974,
      "Ġsites": 4975,
      "olved": 4976,
      "Ġviews": 4977,
      "ĠQueen": 4978,
      "Ġproposed": 4979,
      "ĠWhe": 4980,
      "ota": 4981,
      "Ġmerely": 4982,
      "Ġmarketing": 4983,
      "Ġwed": 4984,
      "ĠWal": 4985,
      "unn": 4986,
      "ĠJul": 4987,
      "elled": 4988,
      "Ġtrip": 4989,
      "ĠCe": 4990,
      "Ġ2004": 4991,
      "Ġsav": 4992,
      "Ġinsurance": 4993,
      "Ġavait": 4994,
      "Ġmad": 4995,
      "Ġcounty": 4996,
      "Ġmel": 4997,
      "Ġfile": 4998,
      "Ġstructure": 4999,
      "Ġnoch": 5000,
      "Ġremoved": 5001,
      "âĶĢâĶĢ": 5002,
      "ĠNav": 5003,
      "Ġintroduced": 5004,
      "ĠMel": 5005,
      "Ġhero": 5006,
      "Ġsup": 5007,
      "ĠFace": 5008,
      "ĠNov": 5009,
      "roll": 5010,
      "pet": 5011,
      "iable": 5012,
      "77": 5013,
      "UT": 5014,
      "Ġcompared": 5015,
      "Ġaccur": 5016,
      "Ġcontains": 5017,
      "bles": 5018,
      "place": 5019,
      "osite": 5020,
      "rier": 5021,
      "ĠRoyal": 5022,
      "Ġuna": 5023,
      "Ġpossess": 5024,
      "Ġmun": 5025,
      "Ġdoctor": 5026,
      "Ġphilosoph": 5027,
      "ĠLake": 5028,
      "Ġ65": 5029,
      "look": 5030,
      "Ġpartners": 5031,
      "Ġdefe": 5032,
      "Ġadult": 5033,
      "put": 5034,
      "Ġtom": 5035,
      "Ġclients": 5036,
      "Ġsides": 5037,
      "ĠStr": 5038,
      "ĠWork": 5039,
      "Ġnotes": 5040,
      "Ġwaiting": 5041,
      "rain": 5042,
      "Ġprices": 5043,
      "ĠList": 5044,
      "Ġstudies": 5045,
      "Ġorganiz": 5046,
      "Ġapplied": 5047,
      "Ġwear": 5048,
      "ĠSecond": 5049,
      "ĠTechn": 5050,
      "sten": 5051,
      "Ġseparate": 5052,
      "Ġarticles": 5053,
      "Ġglobal": 5054,
      "An": 5055,
      "rough": 5056,
      "Ġ2019": 5057,
      "Ġindependent": 5058,
      "Ġuser": 5059,
      "ella": 5060,
      "Ġdelic": 5061,
      "isation": 5062,
      "ĠChic": 5063,
      "ĠCat": 5064,
      "clusion": 5065,
      "Ġcentral": 5066,
      "Ġwealth": 5067,
      "wing": 5068,
      "Oh": 5069,
      "Ġthrow": 5070,
      "ĠLoc": 5071,
      "ooth": 5072,
      "ĠGovern": 5073,
      "There": 5074,
      "Ġcitizens": 5075,
      "Ġnost": 5076,
      "OD": 5077,
      "Ġspect": 5078,
      "UM": 5079,
      "ga": 5080,
      "ĠPR": 5081,
      "Ġcorner": 5082,
      "ĠRet": 5083,
      "Ġben": 5084,
      "ĠHum": 5085,
      "ffee": 5086,
      "Ġevil": 5087,
      "Ġmultiple": 5088,
      "Ġtut": 5089,
      "ĠSystem": 5090,
      "Ġdepend": 5091,
      "ĠKn": 5092,
      "Ġcontain": 5093,
      "yer": 5094,
      "Ġfab": 5095,
      "ties": 5096,
      "ĠOffice": 5097,
      "Ġassociated": 5098,
      "Ġguide": 5099,
      "Ġtheory": 5100,
      "Ġ99": 5101,
      "nce": 5102,
      "Ġobserved": 5103,
      "Ġâ": 5104,
      "gypt": 5105,
      "Ġpassage": 5106,
      "Ġsick": 5107,
      "Ġaid": 5108,
      "Ġtraditional": 5109,
      "ĠProt": 5110,
      "Ġwid": 5111,
      "Ġca": 5112,
      "Ġappreci": 5113,
      "Ġsolid": 5114,
      "hy": 5115,
      "Ġexisting": 5116,
      "Ġinhab": 5117,
      "Ġtools": 5118,
      "annel": 5119,
      "Ġminute": 5120,
      "Ġdistingu": 5121,
      "Ġoperations": 5122,
      "Ġice": 5123,
      "iration": 5124,
      "amin": 5125,
      "ĠCup": 5126,
      "Ġclearly": 5127,
      "Ġbelieved": 5128,
      "win": 5129,
      "ĠTor": 5130,
      "ÃŃ": 5131,
      "Ġequipment": 5132,
      "Ġmes": 5133,
      "ĠTown": 5134,
      "Ġdigital": 5135,
      "ented": 5136,
      "vin": 5137,
      "Ġhelped": 5138,
      "ĠIreland": 5139,
      "ĠChild": 5140,
      "Ġfixed": 5141,
      "ĠPress": 5142,
      "Ġsilver": 5143,
      "Ġseat": 5144,
      "riff": 5145,
      "ĠFam": 5146,
      "stance": 5147,
      "estic": 5148,
      "aked": 5149,
      "Ġbell": 5150,
      "ĠSar": 5151,
      "ĠTem": 5152,
      "Ġmatters": 5153,
      "66": 5154,
      "Ġafterwards": 5155,
      "Ġdinner": 5156,
      "ĠVirginia": 5157,
      "which": 5158,
      "Ġnine": 5159,
      "Ġtroops": 5160,
      "Ġelements": 5161,
      "Ġowners": 5162,
      "rid": 5163,
      "ĠAR": 5164,
      "Ġsports": 5165,
      "Ġdevice": 5166,
      "Ġcouldn": 5167,
      "ĠIS": 5168,
      "EO": 5169,
      "Ġboat": 5170,
      "ĠWeb": 5171,
      "Ġestate": 5172,
      "Ġobvious": 5173,
      "aming": 5174,
      "ĠGreek": 5175,
      "Ġleader": 5176,
      "Ġepis": 5177,
      "Ġalle": 5178,
      "Ġcode": 5179,
      "ERS": 5180,
      "Ġsomewhat": 5181,
      "inen": 5182,
      "Ġfrequently": 5183,
      "Ġpsych": 5184,
      "Ġresponsible": 5185,
      "ĠSuch": 5186,
      "ming": 5187,
      "ima": 5188,
      "orses": 5189,
      "Ġfro": 5190,
      "Ġvote": 5191,
      "bury": 5192,
      "col": 5193,
      "Ġgn": 5194,
      "Ġfu": 5195,
      "noon": 5196,
      "Ġexercise": 5197,
      "ipped": 5198,
      "Ġrestaur": 5199,
      "AB": 5200,
      "down": 5201,
      "Ġadvanced": 5202,
      "ĠItalian": 5203,
      "Ġreference": 5204,
      "Ġmethods": 5205,
      "sk": 5206,
      "Ġpropos": 5207,
      "Ġourselves": 5208,
      "ĠSpanish": 5209,
      "Ġtait": 5210,
      "ĠSpe": 5211,
      "Ġment": 5212,
      "Ġgarden": 5213,
      "Ġfemale": 5214,
      "Ġextremely": 5215,
      "ĠGra": 5216,
      "uct": 5217,
      "ĠUN": 5218,
      "Ġperformed": 5219,
      "Ġframe": 5220,
      "itate": 5221,
      "Ġvac": 5222,
      "ĠBefore": 5223,
      "Ġterrit": 5224,
      "Ġtrial": 5225,
      "Ġcentre": 5226,
      "Ġamazing": 5227,
      "Ġforced": 5228,
      "Ġcoach": 5229,
      "Ġprincipal": 5230,
      "Ġnormal": 5231,
      "Ġfourth": 5232,
      "Ġheaven": 5233,
      "Ġrain": 5234,
      "ĠGoogle": 5235,
      "fast": 5236,
      "Ġ2020": 5237,
      "ĠAbout": 5238,
      "Ġtous": 5239,
      "Ġtaste": 5240,
      "Ġfinding": 5241,
      "Ġadvert": 5242,
      "Ġsuddenly": 5243,
      "Ġordered": 5244,
      "ĠRock": 5245,
      "ĠClass": 5246,
      "Ġbecoming": 5247,
      "ĠChap": 5248,
      "Ġbrain": 5249,
      "usc": 5250,
      "imb": 5251,
      "Ġwalls": 5252,
      "Ġdiscover": 5253,
      "ĠPrince": 5254,
      "ĠEgypt": 5255,
      "Ġsuppose": 5256,
      "Ġassemb": 5257,
      "Ġconversation": 5258,
      "ĠFer": 5259,
      "Ġinterests": 5260,
      "ĠYear": 5261,
      "Ġauss": 5262,
      "ĠChristmas": 5263,
      "78": 5264,
      "asse": 5265,
      "Ġton": 5266,
      "Ġtick": 5267,
      "Ġdella": 5268,
      "Ġrat": 5269,
      "ĠPenn": 5270,
      "Ġho": 5271,
      "mond": 5272,
      "liche": 5273,
      "tes": 5274,
      "IF": 5275,
      "ronic": 5276,
      "Ġcalls": 5277,
      "rible": 5278,
      "Ġemployed": 5279,
      "part": 5280,
      "ĠVict": 5281,
      "Ġolder": 5282,
      "Ġbaby": 5283,
      "ario": 5284,
      "Ġcopy": 5285,
      "Ġpowers": 5286,
      "Ġcities": 5287,
      "how": 5288,
      "ĠInf": 5289,
      "Ġruns": 5290,
      "ala": 5291,
      "ĠXV": 5292,
      "ifying": 5293,
      "iture": 5294,
      "ti": 5295,
      "Ġfacts": 5296,
      "ĠSun": 5297,
      "ĠHot": 5298,
      "Ġcauses": 5299,
      "That": 5300,
      "Ġshape": 5301,
      "Ġschol": 5302,
      "idel": 5303,
      "ĠLo": 5304,
      "inder": 5305,
      "Ġlose": 5306,
      "ĠBecause": 5307,
      "Ġgoals": 5308,
      "alled": 5309,
      "Ġmanufacture": 5310,
      "ses": 5311,
      "enden": 5312,
      "Ġflat": 5313,
      "ĠConn": 5314,
      "ĠFoot": 5315,
      "TS": 5316,
      "Ġfill": 5317,
      "vail": 5318,
      "Ġshop": 5319,
      "Ġartist": 5320,
      "98": 5321,
      "ĠRead": 5322,
      "ja": 5323,
      "asy": 5324,
      "Ġsind": 5325,
      "Ġvie": 5326,
      "Ġinterp": 5327,
      "Ġprinciples": 5328,
      "ĠTime": 5329,
      "ĠBusiness": 5330,
      "Ġsongs": 5331,
      "Ġfruit": 5332,
      "Ġpi": 5333,
      "Ġsetting": 5334,
      "Ġcro": 5335,
      "Ġestim": 5336,
      "Ġemployees": 5337,
      "Ġpattern": 5338,
      "name": 5339,
      "ĠCentral": 5340,
      "55": 5341,
      "icine": 5342,
      "azine": 5343,
      "kl": 5344,
      "je": 5345,
      "was": 5346,
      "omme": 5347,
      "Ġmountain": 5348,
      "Ġcart": 5349,
      "endo": 5350,
      "Ġadvent": 5351,
      "Ġalleg": 5352,
      "Ġpassing": 5353,
      "ds": 5354,
      "Ġvast": 5355,
      "ĠAP": 5356,
      "Ġgain": 5357,
      "AND": 5358,
      "Ġcried": 5359,
      "Ġfamiliar": 5360,
      "Ġspeaking": 5361,
      "Ġkeeping": 5362,
      "akers": 5363,
      "Ġexpert": 5364,
      "odes": 5365,
      "ĠHol": 5366,
      "Ġzur": 5367,
      "Ġmobile": 5368,
      "Ġimages": 5369,
      "ĠChicago": 5370,
      "ĠWestern": 5371,
      "ĠEliz": 5372,
      "Ġspok": 5373,
      "Ġcaught": 5374,
      "ether": 5375,
      "Yes": 5376,
      "Ġarchitect": 5377,
      "Ġdim": 5378,
      "Ġ56": 5379,
      "ĠColon": 5380,
      "ĠVI": 5381,
      "Ġhelps": 5382,
      "Ġhast": 5383,
      "Ġeiner": 5384,
      "ounding": 5385,
      "Ġreality": 5386,
      "onde": 5387,
      "ĠCare": 5388,
      "Ġfilms": 5389,
      "Ġanaly": 5390,
      "ĠBig": 5391,
      "Ġprs": 5392,
      "Ġroll": 5393,
      "Ġdat": 5394,
      "Ġimplement": 5395,
      "Ġfo": 5396,
      "Ġended": 5397,
      "anned": 5398,
      "Ġsigned": 5399,
      "Ġprimary": 5400,
      "Ġtask": 5401,
      "Ġnoble": 5402,
      "Ġdrawn": 5403,
      "itors": 5404,
      "Ġproud": 5405,
      "wide": 5406,
      "ĠâĢ¦": 5407,
      "Ġprove": 5408,
      "Ġdiscip": 5409,
      "utch": 5410,
      "Ġelectric": 5411,
      "Ġhealthy": 5412,
      "unte": 5413,
      "Ġban": 5414,
      "Ġwilling": 5415,
      "Ġevident": 5416,
      "ĠArmy": 5417,
      "ĠWater": 5418,
      "Ġahead": 5419,
      "Ġfederal": 5420,
      "Ġcra": 5421,
      "ogue": 5422,
      "Ġextent": 5423,
      "ĠJac": 5424,
      "Ġhall": 5425,
      "amen": 5426,
      "Ġ2003": 5427,
      "iences": 5428,
      "Ġoperation": 5429,
      "ordin": 5430,
      "Ġneighbor": 5431,
      "ĠLast": 5432,
      "stood": 5433,
      "Ġhath": 5434,
      "76": 5435,
      "ĠMusic": 5436,
      "ĠDemocr": 5437,
      "ursday": 5438,
      "âĶĤ": 5439,
      "Ġclaims": 5440,
      "heit": 5441,
      "Ġtelevision": 5442,
      "ipping": 5443,
      "Ġpair": 5444,
      "abeth": 5445,
      "ĠSon": 5446,
      "96": 5447,
      "Ġrates": 5448,
      "ĠExp": 5449,
      "ĠSi": 5450,
      "Ġplants": 5451,
      "fs": 5452,
      "lymp": 5453,
      "da": 5454,
      "rees": 5455,
      "enced": 5456,
      "ocked": 5457,
      "acle": 5458,
      "Ġpreviously": 5459,
      "ĠBoth": 5460,
      "Ġjournal": 5461,
      "Ġarrest": 5462,
      "Ġfailed": 5463,
      "Ġsoldiers": 5464,
      "Ġseek": 5465,
      "Ġconclud": 5466,
      "rine": 5467,
      "ĠStep": 5468,
      "Ġhotel": 5469,
      "IST": 5470,
      "Ġgew": 5471,
      "Ġconsiderable": 5472,
      "ucky": 5473,
      "uesday": 5474,
      "Ġopportunities": 5475,
      "uable": 5476,
      "ĠMartin": 5477,
      "Ġstress": 5478,
      "adian": 5479,
      "Ġiii": 5480,
      "ĠVen": 5481,
      "elling": 5482,
      "Ġrecords": 5483,
      "Ġbull": 5484,
      "Ġhonest": 5485,
      "Ġsitting": 5486,
      "Ġillustr": 5487,
      "Ġpossession": 5488,
      "Ġsquare": 5489,
      "ĠStar": 5490,
      "Ġcommittee": 5491,
      "Ġagreed": 5492,
      "elve": 5493,
      "Ġadministration": 5494,
      "Ġholding": 5495,
      "Ġhospital": 5496,
      "lar": 5497,
      "mit": 5498,
      "Ġdivision": 5499,
      "Ġshowing": 5500,
      "Ġregarding": 5501,
      "Ġproced": 5502,
      "Ġdollars": 5503,
      "Ġapart": 5504,
      "Ġplanning": 5505,
      "enes": 5506,
      "ĠHand": 5507,
      "hered": 5508,
      "',": 5509,
      "ĠRussian": 5510,
      "ĠAL": 5511,
      "ĠRad": 5512,
      "Ġhung": 5513,
      "ĠDet": 5514,
      "ĠOffic": 5515,
      "owed": 5516,
      "abb": 5517,
      "ĠReview": 5518,
      "Ġshut": 5519,
      "lam": 5520,
      "cles": 5521,
      "Ġmaxim": 5522,
      "ĠDar": 5523,
      "Ġdirected": 5524,
      "Ġdivers": 5525,
      "cel": 5526,
      "Ġjudge": 5527,
      "Ġnos": 5528,
      "Ġcounter": 5529,
      "Ġstopped": 5530,
      "west": 5531,
      "ĠEdward": 5532,
      "Ġsmaller": 5533,
      "ĠItaly": 5534,
      "Ġgift": 5535,
      "isted": 5536,
      "Ġegg": 5537,
      "Ġinnov": 5538,
      "www": 5539,
      "ĠIrish": 5540,
      "Ġgrew": 5541,
      "Ġprinciple": 5542,
      "Ġbuildings": 5543,
      "Ġpurposes": 5544,
      "Ġdepartment": 5545,
      "rait": 5546,
      "kes": 5547,
      "ĠDef": 5548,
      "Ġstorm": 5549,
      "Ġcritic": 5550,
      "Ġcreating": 5551,
      "Ġtor": 5552,
      "Ġowner": 5553,
      "Ġthirty": 5554,
      "iano": 5555,
      "aks": 5556,
      "Ġfreedom": 5557,
      "war": 5558,
      "ĠFlorida": 5559,
      "Ġcatch": 5560,
      "orter": 5561,
      "Ġfounded": 5562,
      "Ġgrace": 5563,
      "ĠDisc": 5564,
      "ĠEnt": 5565,
      "Ġlimit": 5566,
      "ĠGar": 5567,
      "Ġhttp": 5568,
      "esp": 5569,
      "kins": 5570,
      "ivered": 5571,
      "bid": 5572,
      "Ġafternoon": 5573,
      "ĠGal": 5574,
      "ez": 5575,
      "ĠJapanese": 5576,
      "ĠOlymp": 5577,
      "Ġdemonstr": 5578,
      "Ġworkers": 5579,
      "ĠCON": 5580,
      "ims": 5581,
      "Ġble": 5582,
      "Ġengaged": 5583,
      "while": 5584,
      "oration": 5585,
      "ĠImp": 5586,
      "Ġnarrow": 5587,
      "cean": 5588,
      "acks": 5589,
      "ouve": 5590,
      "oman": 5591,
      "Ġconfidence": 5592,
      "oli": 5593,
      "ĠCatholic": 5594,
      "Ġera": 5595,
      "cont": 5596,
      "nesday": 5597,
      "Ġcommunication": 5598,
      "Ġsubsequ": 5599,
      "gram": 5600,
      "Ġunto": 5601,
      "As": 5602,
      "Ġpayment": 5603,
      "tion": 5604,
      "oma": 5605,
      "eme": 5606,
      "Ġcapacity": 5607,
      "ĠMur": 5608,
      "ĠInstitute": 5609,
      "Ġgoods": 5610,
      "OP": 5611,
      "Ġ64": 5612,
      "Ġdamage": 5613,
      "orage": 5614,
      "Ġelement": 5615,
      "ĠHor": 5616,
      "Ġincor": 5617,
      "Ġhun": 5618,
      "ervation": 5619,
      "Ġhardly": 5620,
      "ĠAtl": 5621,
      "ĠHy": 5622,
      "amber": 5623,
      "Ġhomes": 5624,
      "emb": 5625,
      "eless": 5626,
      "ĠFacebook": 5627,
      "ĠTim": 5628,
      "100": 5629,
      "Ġbread": 5630,
      "ni": 5631,
      "ulture": 5632,
      "Ġexpand": 5633,
      "Ġedition": 5634,
      "97": 5635,
      "Ġactions": 5636,
      "Ġring": 5637,
      "encies": 5638,
      "Ġaccident": 5639,
      "Ġmeasures": 5640,
      "Ġmarch": 5641,
      "Ġrequires": 5642,
      "anda": 5643,
      "ĠEducation": 5644,
      "you": 5645,
      "Ġpit": 5646,
      "iency": 5647,
      "unction": 5648,
      "Ġspr": 5649,
      "500": 5650,
      "osh": 5651,
      "Ġrul": 5652,
      "Ġkitchen": 5653,
      "Ġaudience": 5654,
      "Ġstret": 5655,
      "Ġwouldn": 5656,
      "ĠTop": 5657,
      "Ġ58": 5658,
      "ĠIns": 5659,
      "ĠConf": 5660,
      "Ġmental": 5661,
      "Ġrequirements": 5662,
      "ĠGall": 5663,
      "Ġoffering": 5664,
      "Ġmanif": 5665,
      "iders": 5666,
      "Ph": 5667,
      "Ġcompetition": 5668,
      "Ġcateg": 5669,
      "Ġthousands": 5670,
      "ĠCy": 5671,
      "ĠResearch": 5672,
      "Ġproc": 5673,
      "ishment": 5674,
      "Ġreduce": 5675,
      "Ġdre": 5676,
      "Ġentr": 5677,
      "iana": 5678,
      "Ġbusinesses": 5679,
      "ĠEin": 5680,
      "Ġminor": 5681,
      "Ġconstruct": 5682,
      "Ġexperienced": 5683,
      "Ġunit": 5684,
      "âĢľ": 5685,
      "ĠThursday": 5686,
      "Ġbudget": 5687,
      "Ġexclus": 5688,
      "eper": 5689,
      "ĠJournal": 5690,
      "ĠFather": 5691,
      "My": 5692,
      "ILL": 5693,
      "ĠFR": 5694,
      "osure": 5695,
      "Ġfalse": 5696,
      "Ġideal": 5697,
      "Ġ@": 5698,
      "ARD": 5699,
      "Ġdiscussion": 5700,
      "Ġupper": 5701,
      "Ġmas": 5702,
      "Ġteaching": 5703,
      "Ġbond": 5704,
      "Ġproved": 5705,
      "Ġcolour": 5706,
      "ĠIndians": 5707,
      "Ġscore": 5708,
      "Ġlaugh": 5709,
      "ĠTuesday": 5710,
      "ba": 5711,
      "ĠDevelop": 5712,
      "Ġhorses": 5713,
      "ĠLuc": 5714,
      "iat": 5715,
      "ĠCard": 5716,
      "ĠChampions": 5717,
      "Ġdass": 5718,
      "Ġenh": 5719,
      "Ġconstitution": 5720,
      "etz": 5721,
      "ava": 5722,
      "Ġbillion": 5723,
      "Ġlies": 5724,
      "Ġcritical": 5725,
      "Ġont": 5726,
      "ĠJah": 5727,
      "Ġiv": 5728,
      "ns": 5729,
      "Ġfond": 5730,
      "Ġmaybe": 5731,
      "âĢĿ.": 5732,
      "ĠMaster": 5733,
      "Ġrecorded": 5734,
      "Ġdescription": 5735,
      "ĠParty": 5736,
      "ums": 5737,
      "lete": 5738,
      "ĠDown": 5739,
      "Ġsho": 5740,
      "udd": 5741,
      "ĠPerson": 5742,
      "Ġ42": 5743,
      "ĠFound": 5744,
      "oned": 5745,
      "Ġbought": 5746,
      "Ġfinish": 5747,
      "Ġbath": 5748,
      "Ġflowers": 5749,
      "Ġ2002": 5750,
      "ĠThose": 5751,
      "Ġgrat": 5752,
      "Ġreferred": 5753,
      "endant": 5754,
      "Ġoverall": 5755,
      "Ġdeclared": 5756,
      "Ġincome": 5757,
      "umes": 5758,
      "ĠArab": 5759,
      "Ġtaught": 5760,
      "ĠId": 5761,
      "Ġeth": 5762,
      "ĠLook": 5763,
      "Ġcu": 5764,
      "Ġ2001": 5765,
      "Ġperman": 5766,
      "Ġopposite": 5767,
      "Ġhier": 5768,
      "ĠâĢĻ": 5769,
      "Ġnations": 5770,
      "ali": 5771,
      "Ġthanks": 5772,
      "Ġfant": 5773,
      "Ġproof": 5774,
      "Ġcash": 5775,
      "Ġpow": 5776,
      "Ġapplications": 5777,
      "Ġanti": 5778,
      "ede": 5779,
      "Ġexpressed": 5780,
      "oom": 5781,
      "isch": 5782,
      "Ã¦": 5783,
      "ket": 5784,
      "Ġadjust": 5785,
      "Ġcommitted": 5786,
      "icians": 5787,
      "gent": 5788,
      "Ġcompre": 5789,
      "Ġpreced": 5790,
      "Ġobjects": 5791,
      "ategy": 5792,
      "Ġgentleman": 5793,
      "cknow": 5794,
      "Ġexceed": 5795,
      "ĠSocial": 5796,
      "Ġsevere": 5797,
      "Ġintellect": 5798,
      "Ġperfectly": 5799,
      "ĠElect": 5800,
      "Ġtells": 5801,
      "Ġsubjects": 5802,
      "Ġbodies": 5803,
      "utation": 5804,
      "Ġvision": 5805,
      "EW": 5806,
      "inity": 5807,
      "ĠEll": 5808,
      "Ġlit": 5809,
      "Ġbatter": 5810,
      "ĠMuseum": 5811,
      "ĠRussia": 5812,
      "term": 5813,
      "Ġrout": 5814,
      "ĠSpain": 5815,
      "Ġende": 5816,
      "Ġstrateg": 5817,
      "Ġcrime": 5818,
      "ĠServices": 5819,
      "Ġlands": 5820,
      "Ġrub": 5821,
      "Ġinvestment": 5822,
      "asts": 5823,
      "ĠPlan": 5824,
      "Ġhearing": 5825,
      "Ġsugar": 5826,
      "stone": 5827,
      "uting": 5828,
      "Ġmanager": 5829,
      "aret": 5830,
      "Ġpou": 5831,
      "Ġsmart": 5832,
      "pected": 5833,
      "cription": 5834,
      "Ġpossibly": 5835,
      "ĠHave": 5836,
      "Ġnoted": 5837,
      "una": 5838,
      "eness": 5839,
      "arant": 5840,
      "ĠWednesday": 5841,
      "Ġpartner": 5842,
      "igr": 5843,
      "arks": 5844,
      "Ġspiritual": 5845,
      "Ġabsolutely": 5846,
      "Ġrepresented": 5847,
      "ĠMaj": 5848,
      "ĠScience": 5849,
      "ĠÎ": 5850,
      "Ġpa": 5851,
      "Well": 5852,
      "ĠSecretary": 5853,
      "Ġselected": 5854,
      "Ġeconomy": 5855,
      "Ġjoint": 5856,
      "Ġattrib": 5857,
      "Ġiniti": 5858,
      "Ġdur": 5859,
      "ĠBritain": 5860,
      "Ġedge": 5861,
      "Ġassistance": 5862,
      "ĠLatin": 5863,
      "Ġsources": 5864,
      "Ġneck": 5865,
      "Ġrepeated": 5866,
      "adel": 5867,
      "bridge": 5868,
      "Ġfans": 5869,
      "Ġgre": 5870,
      "wers": 5871,
      "Ġstick": 5872,
      "adow": 5873,
      "ĠVis": 5874,
      "Ġsequ": 5875,
      "ho": 5876,
      "eck": 5877,
      "ĠAfrican": 5878,
      "Ġ178": 5879,
      "azz": 5880,
      "ĠSand": 5881,
      "ĠJim": 5882,
      "ourage": 5883,
      "ĠMinister": 5884,
      "Ġdetermine": 5885,
      "ĠLie": 5886,
      "wa": 5887,
      "inces": 5888,
      "Ġtool": 5889,
      "Ġfigures": 5890,
      "uliar": 5891,
      "ĠTri": 5892,
      "ushing": 5893,
      "Ġkne": 5894,
      "ĠAus": 5895,
      "ĠDuke": 5896,
      "uan": 5897,
      "ogether": 5898,
      "Ġris": 5899,
      "Ġagreement": 5900,
      "==": 5901,
      "ĠOx": 5902,
      "ĠEmp": 5903,
      "kin": 5904,
      "Ġheight": 5905,
      "Ġdepos": 5906,
      "Ġmi": 5907,
      "quis": 5908,
      "Ġliqu": 5909,
      "Ġcoffee": 5910,
      "Ġdefinitely": 5911,
      "Ġvehicle": 5912,
      "Ġroute": 5913,
      ",--": 5914,
      ",âĢĻ": 5915,
      "Ġcells": 5916,
      "Ġsuperior": 5917,
      "Ġcos": 5918,
      "Ġacknow": 5919,
      "ĠBes": 5920,
      "Ġjudgment": 5921,
      "Ġsalt": 5922,
      "ĠOnly": 5923,
      "Ġunderstood": 5924,
      "ido": 5925,
      "Ġaccepted": 5926,
      "ĠGeorg": 5927,
      "otes": 5928,
      "ĠGard": 5929,
      "Ġ---": 5930,
      "ĠColumb": 5931,
      "OC": 5932,
      "Ġappropriate": 5933,
      "Ġsuit": 5934,
      "icate": 5935,
      "Ġconsideration": 5936,
      "Ġfan": 5937,
      "Ġpractical": 5938,
      "Ġslowly": 5939,
      "Ġvictory": 5940,
      "Ġroof": 5941,
      "Ġdifficulty": 5942,
      "Ġgi": 5943,
      "Ġze": 5944,
      "erning": 5945,
      "Ġphotos": 5946,
      "then": 5947,
      "Ġworse": 5948,
      "Ġweap": 5949,
      "Ġchosen": 5950,
      "Ġlord": 5951,
      "ĠBas": 5952,
      "Ġsolutions": 5953,
      "Ġmerch": 5954,
      "ĠDirector": 5955,
      "Ġeasier": 5956,
      "law": 5957,
      "arer": 5958,
      "ĠFur": 5959,
      "Ġpron": 5960,
      "agen": 5961,
      "Ġexplained": 5962,
      "net": 5963,
      "eting": 5964,
      "raid": 5965,
      "ĠElizabeth": 5966,
      "Ġstands": 5967,
      "Ġwriters": 5968,
      "Ġjump": 5969,
      "hire": 5970,
      "Ġkill": 5971,
      "ademy": 5972,
      "Ġchallenge": 5973,
      "Ġships": 5974,
      "Ġexcited": 5975,
      "Ġconcerned": 5976,
      "ĠON": 5977,
      "erk": 5978,
      "zie": 5979,
      "Ġast": 5980,
      "isco": 5981,
      "Ġdiff": 5982,
      "umin": 5983,
      "rift": 5984,
      "ĠBoy": 5985,
      "Ġmode": 5986,
      "Ġcompon": 5987,
      "Ġwelche": 5988,
      "Ġyellow": 5989,
      "hus": 5990,
      "inte": 5991,
      "Ġcomfortable": 5992,
      "iser": 5993,
      "Ġinvent": 5994,
      "Ġomn": 5995,
      "Ġputting": 5996,
      "Ġmarked": 5997,
      "Ġsuggested": 5998,
      "Ġnewsp": 5999,
      "Ġpeculiar": 6000,
      "ulous": 6001,
      "ĠSav": 6002,
      "Ġadopted": 6003,
      "pm": 6004,
      "Ġreduced": 6005,
      "Ã¼": 6006,
      "ĠMcC": 6007,
      "Ġordinary": 6008,
      "Ġrestrict": 6009,
      "rog": 6010,
      "ĠSa": 6011,
      "century": 6012,
      "Ġaband": 6013,
      "esterday": 6014,
      "Ġwalked": 6015,
      "Ġreform": 6016,
      "Ġconflic": 6017,
      "How": 6018,
      "Ġrough": 6019,
      "ĠEnter": 6020,
      "Ġtwice": 6021,
      "Ġissued": 6022,
      "ĠStand": 6023,
      "Ġwelcome": 6024,
      "ĠWall": 6025,
      "Ġstruck": 6026,
      "Ġscarce": 6027,
      "Ġextended": 6028,
      "Ġsevent": 6029,
      "Ġ150": 6030,
      "Ġconference": 6031,
      "Ġ57": 6032,
      "Ġpeu": 6033,
      "uv": 6034,
      "Ġdebt": 6035,
      "Ġrooms": 6036,
      "can": 6037,
      "IB": 6038,
      "Ġdriving": 6039,
      "Ġtrave": 6040,
      "Ġutil": 6041,
      "iams": 6042,
      "ĠFar": 6043,
      "ĠPan": 6044,
      "Ġveget": 6045,
      "ĠCanadian": 6046,
      "ĠAward": 6047,
      "outs": 6048,
      "á½": 6049,
      "ortunately": 6050,
      "Ġstars": 6051,
      "auc": 6052,
      "ĠAustralian": 6053,
      "Ġsor": 6054,
      "Ġinhabit": 6055,
      "Ġxx": 6056,
      "Ġcolumn": 6057,
      "Ġdevices": 6058,
      "Ġsupported": 6059,
      "Ġdelivered": 6060,
      "Ġgreatly": 6061,
      "ĠFire": 6062,
      "Ġstatus": 6063,
      "Ġwise": 6064,
      "ĠPhot": 6065,
      "Ġvit": 6066,
      "ĠSomet": 6067,
      "rive": 6068,
      "iens": 6069,
      "Ġscr": 6070,
      "Ġleurs": 6071,
      "Ġrelation": 6072,
      "Ġcrown": 6073,
      "Ġoriginally": 6074,
      "ĠProfessor": 6075,
      "Ġheads": 6076,
      "Ġeventually": 6077,
      "ĠPers": 6078,
      "Ġslightly": 6079,
      "Ġorganizations": 6080,
      "atural": 6081,
      "imo": 6082,
      "Ġ41": 6083,
      "Ġbrown": 6084,
      "equ": 6085,
      "Ġtreated": 6086,
      "Ġdism": 6087,
      "chers": 6088,
      "Ġcontinues": 6089,
      "Ġgle": 6090,
      "ĠCarolina": 6091,
      "ĠBack": 6092,
      "istered": 6093,
      "Ġ500": 6094,
      "agon": 6095,
      "ESS": 6096,
      "Ġcancer": 6097,
      "Ġmetal": 6098,
      "ĠMexico": 6099,
      "Ġcomments": 6100,
      "Ġsmile": 6101,
      "actions": 6102,
      "Ġbalance": 6103,
      "Ġdial": 6104,
      "Ġattended": 6105,
      "Ġthorough": 6106,
      "oit": 6107,
      "Ġends": 6108,
      "Ġconcent": 6109,
      "AV": 6110,
      "Ġemot": 6111,
      "Ġwaste": 6112,
      "92": 6113,
      "Ġsession": 6114,
      "Ġexplain": 6115,
      "Ġfeelings": 6116,
      "Ġinches": 6117,
      "ĠGovernor": 6118,
      "Ġwatching": 6119,
      "Ġtraffic": 6120,
      "Ġescape": 6121,
      "Ġcalling": 6122,
      "Ġweekend": 6123,
      "Ġremaining": 6124,
      "Ġfee": 6125,
      "olo": 6126,
      "iform": 6127,
      "Ġalc": 6128,
      "phone": 6129,
      "ressed": 6130,
      "text": 6131,
      "ĠJohnson": 6132,
      "Ġlots": 6133,
      "bst": 6134,
      "ĠWomen": 6135,
      "Ġminister": 6136,
      "Ġcrim": 6137,
      "Ġofficials": 6138,
      "PS": 6139,
      "Ġconscious": 6140,
      "Ġmanaged": 6141,
      "ĠGi": 6142,
      "ĠFour": 6143,
      "Ġclin": 6144,
      "ĠBob": 6145,
      "Ġaffairs": 6146,
      "Ġinjury": 6147,
      "ĠPower": 6148,
      "wo": 6149,
      "Ġhaven": 6150,
      "Ġbroke": 6151,
      "Ġcollabor": 6152,
      "Ġcommit": 6153,
      "Ġradio": 6154,
      "ira": 6155,
      "Ġcommunities": 6156,
      "egen": 6157,
      "Ġraise": 6158,
      "Ġmostly": 6159,
      "Ġfriendly": 6160,
      "Ġguess": 6161,
      "Ġ43": 6162,
      "Ġproperly": 6163,
      "Ġduties": 6164,
      "93": 6165,
      "ĠMake": 6166,
      "Ġroyal": 6167,
      "Ġride": 6168,
      "Ġsky": 6169,
      "ĠInternet": 6170,
      "ĠHaw": 6171,
      "Ġpil": 6172,
      "Ġgeneration": 6173,
      "iest": 6174,
      "Ġnut": 6175,
      "ĠSqu": 6176,
      "astern": 6177,
      "ĠLos": 6178,
      "Ġchose": 6179,
      "ĠNOT": 6180,
      "Ġkinds": 6181,
      "ĠTest": 6182,
      "Ġtemperature": 6183,
      "ĠFred": 6184,
      "rich": 6185,
      "Ġyield": 6186,
      "ĠPM": 6187,
      "Ġturning": 6188,
      "Ġremove": 6189,
      "Ġeinen": 6190,
      "Ġvaluable": 6191,
      "pective": 6192,
      "Ġgather": 6193,
      "arts": 6194,
      "ulty": 6195,
      "ws": 6196,
      "ĠNon": 6197,
      "ĠTimes": 6198,
      "Ġgrave": 6199,
      "igan": 6200,
      "Ġsenior": 6201,
      "ĠChief": 6202,
      "ĠParliament": 6203,
      "Ġartists": 6204,
      "Ġsmooth": 6205,
      "Ġvoy": 6206,
      "Ġsubsc": 6207,
      "ĠâĶĤ": 6208,
      "ilst": 6209,
      "IE": 6210,
      "Ġhelping": 6211,
      "Ġteach": 6212,
      "AG": 6213,
      "Ġsymb": 6214,
      "ĠLittle": 6215,
      "ĠDivision": 6216,
      "Ġconcerning": 6217,
      "entially": 6218,
      "Ġeld": 6219,
      "ĠLy": 6220,
      "oi": 6221,
      "coming": 6222,
      "Ġwalking": 6223,
      "Ġexperiment": 6224,
      "Ġpapers": 6225,
      "Ġacts": 6226,
      "Ġbasic": 6227,
      "Ġsurprise": 6228,
      "Ġsucc": 6229,
      "bi": 6230,
      "ĠLight": 6231,
      "Ġencore": 6232,
      "ĠBi": 6233,
      "Ġlisten": 6234,
      "Ġcapable": 6235,
      "Ġplays": 6236,
      "Ġexped": 6237,
      "ador": 6238,
      "Ġvic": 6239,
      "Ġelected": 6240,
      "Ġtur": 6241,
      "Ġpaint": 6242,
      "94": 6243,
      "Ġflight": 6244,
      "Is": 6245,
      "Ġstreets": 6246,
      "Ġsettled": 6247,
      "Ġitem": 6248,
      "orne": 6249,
      "ĠToday": 6250,
      "Ġbreath": 6251,
      "illy": 6252,
      "ĠFOR": 6253,
      "Ġmunicip": 6254,
      "Ġplenty": 6255,
      "Ġinstitutions": 6256,
      "ĠYoung": 6257,
      "ĠTake": 6258,
      "Ġtwelve": 6259,
      "Ġdign": 6260,
      "ungs": 6261,
      "water": 6262,
      "Ġjur": 6263,
      "ĠIT": 6264,
      "uce": 6265,
      "ĠMax": 6266,
      "Ġlect": 6267,
      "hend": 6268,
      "ĠCop": 6269,
      "Ġexchange": 6270,
      "ĠHim": 6271,
      "angers": 6272,
      "ĠDev": 6273,
      "Ġib": 6274,
      "Ġpoll": 6275,
      "ĠPop": 6276,
      "Ġforgot": 6277,
      "met": 6278,
      "Ġdelivery": 6279,
      "Ġtowns": 6280,
      "Ġliterature": 6281,
      "Ġassess": 6282,
      "Ġincred": 6283,
      "Ġ300": 6284,
      "itled": 6285,
      "Ġconstant": 6286,
      "Ġgranted": 6287,
      "Ġhyp": 6288,
      "Ġessay": 6289,
      "hl": 6290,
      "Ġscale": 6291,
      "Ġhaben": 6292,
      "ocol": 6293,
      "itan": 6294,
      "acon": 6295,
      "achus": 6296,
      "EST": 6297,
      "91": 6298,
      "ĠJeff": 6299,
      "Ġwithd": 6300,
      "ourse": 6301,
      "Ġfields": 6302,
      "ommod": 6303,
      "56": 6304,
      "gers": 6305,
      "ĠMajor": 6306,
      "Ġcards": 6307,
      "Ġpleased": 6308,
      "Ġspir": 6309,
      "Ġscientific": 6310,
      "Ġvs": 6311,
      "ĠCorn": 6312,
      "ĠBlue": 6313,
      "erted": 6314,
      "ĠVan": 6315,
      "Ġdangerous": 6316,
      "ban": 6317,
      "Ġcarefully": 6318,
      "ĠThree": 6319,
      "orney": 6320,
      "itur": 6321,
      "Ġsymp": 6322,
      "esc": 6323,
      "Ġargument": 6324,
      "Ġped": 6325,
      "Ġselection": 6326,
      "Ġincl": 6327,
      "een": 6328,
      "Ġaren": 6329,
      "Ġrecon": 6330,
      "greg": 6331,
      "ĠLee": 6332,
      "Ġflo": 6333,
      "ultural": 6334,
      "going": 6335,
      "ĠWilliams": 6336,
      "Ġfunds": 6337,
      "owing": 6338,
      "point": 6339,
      "Ġeditor": 6340,
      "Ġhistorical": 6341,
      "ĠJones": 6342,
      "Ġequally": 6343,
      "Ġaussi": 6344,
      "quer": 6345,
      "Ġrelief": 6346,
      "Ġflag": 6347,
      "Ġshared": 6348,
      "rical": 6349,
      "Ġbringing": 6350,
      "atically": 6351,
      "Ġcaptain": 6352,
      "Ġcraft": 6353,
      "peror": 6354,
      "Ġperce": 6355,
      "ested": 6356,
      "ded": 6357,
      "Ġ()": 6358,
      "ĠAmericans": 6359,
      "ifications": 6360,
      "Ġmodels": 6361,
      "ĠFig": 6362,
      "Ġ..": 6363,
      "Ġfifty": 6364,
      "BS": 6365,
      "Ġhappens": 6366,
      "aints": 6367,
      "Ġfool": 6368,
      "Ġwww": 6369,
      "ĠDesign": 6370,
      "Ġfly": 6371,
      "Ġwo": 6372,
      "ĠUse": 6373,
      "works": 6374,
      "ĠAS": 6375,
      "Ġpromise": 6376,
      "Ġperf": 6377,
      "Ġgrass": 6378,
      "ĠSenate": 6379,
      "Ġnun": 6380,
      "abe": 6381,
      "Ġsym": 6382,
      "Ġchapter": 6383,
      "ĠAgain": 6384,
      "ĠMess": 6385,
      "sell": 6386,
      "hors": 6387,
      "fin": 6388,
      "Ġhonour": 6389,
      "'.": 6390,
      "oster": 6391,
      "ĠEnd": 6392,
      "Ġafraid": 6393,
      "osis": 6394,
      "obe": 6395,
      "Ġmedium": 6396,
      "ĠThough": 6397,
      "Ġmotor": 6398,
      "ĠLear": 6399,
      "ĠPac": 6400,
      "ĠPass": 6401,
      "86": 6402,
      "atis": 6403,
      "Ġknowing": 6404,
      "osc": 6405,
      "Ġpod": 6406,
      "Ġbegins": 6407,
      "ĠValley": 6408,
      "ĠCa": 6409,
      "Ġsubs": 6410,
      "Ġsam": 6411,
      "Ġexcess": 6412,
      "atures": 6413,
      "ĠAT": 6414,
      "ĠEarth": 6415,
      "Ġviolence": 6416,
      "ĠSouthern": 6417,
      "Ġphoto": 6418,
      "Ġmicro": 6419,
      "ylvan": 6420,
      "last": 6421,
      "inet": 6422,
      "Ġpeut": 6423,
      "ĠSP": 6424,
      "Ġacadem": 6425,
      "Ġsoil": 6426,
      "Ġoccurred": 6427,
      "Ġdivided": 6428,
      "Ġvig": 6429,
      "mble": 6430,
      "Ġelev": 6431,
      "rick": 6432,
      "Ġhoc": 6433,
      "ĠFollow": 6434,
      "ĠHug": 6435,
      "ĠRail": 6436,
      "fit": 6437,
      "ĠJoe": 6438,
      "Ġsteel": 6439,
      "rapy": 6440,
      "Ġjobs": 6441,
      "ĠAD": 6442,
      "NA": 6443,
      "ĠOhio": 6444,
      "Ġprinted": 6445,
      "ĠVers": 6446,
      "nel": 6447,
      "Ġsimpl": 6448,
      "Ġremind": 6449,
      "ican": 6450,
      "Ġasking": 6451,
      "Ġlibrary": 6452,
      "Ġdespite": 6453,
      "box": 6454,
      "etts": 6455,
      "unes": 6456,
      "Ġmainten": 6457,
      "aires": 6458,
      "icing": 6459,
      "Ġinterpret": 6460,
      "Ġagent": 6461,
      "Ġinternet": 6462,
      "long": 6463,
      "Ġdecide": 6464,
      "Ġsought": 6465,
      "Ġutter": 6466,
      "Ġexperiences": 6467,
      "Ġstrategy": 6468,
      "Ġdiam": 6469,
      "Ġunter": 6470,
      "icked": 6471,
      "ĠGir": 6472,
      "Ġclient": 6473,
      "unning": 6474,
      "ensions": 6475,
      "irk": 6476,
      "Ġunion": 6477,
      "Ġimmediate": 6478,
      "ĠCas": 6479,
      "Ġkid": 6480,
      "Ġprompt": 6481,
      "oral": 6482,
      "Ġproportion": 6483,
      "irmed": 6484,
      "Ġpounds": 6485,
      "ĠThanks": 6486,
      "Ġsous": 6487,
      "ĠKar": 6488,
      "Ġbare": 6489,
      "ĠNap": 6490,
      "ĠSel": 6491,
      "Ġbanks": 6492,
      "ART": 6493,
      "ĠMill": 6494,
      "Ġsounds": 6495,
      "Ġsilence": 6496,
      "ĠHa": 6497,
      "ograp": 6498,
      "Ġcombined": 6499,
      "ĠJun": 6500,
      "Ġflu": 6501,
      "Ġonto": 6502,
      "ocket": 6503,
      "ĠWin": 6504,
      "Ġmanage": 6505,
      "Ġwinning": 6506,
      "ĠAmong": 6507,
      "Ġdance": 6508,
      "vol": 6509,
      "ĠSign": 6510,
      "ĠDid": 6511,
      "Ġauthorities": 6512,
      "Ġoh": 6513,
      "Ġrang": 6514,
      "Ġloan": 6515,
      "Ġinstrument": 6516,
      "example": 6517,
      "Ġcerem": 6518,
      "ELL": 6519,
      "ĠClick": 6520,
      "Ġtone": 6521,
      "prise": 6522,
      "Ġmilk": 6523,
      "Ġplate": 6524,
      "Ġgrown": 6525,
      "Ġcombination": 6526,
      "ĠBern": 6527,
      "ĠHoly": 6528,
      "Ġunknown": 6529,
      "Ġmand": 6530,
      "Ġok": 6531,
      "Ġapparently": 6532,
      "Ġwedding": 6533,
      "Ġadmitted": 6534,
      "Ġhill": 6535,
      "arian": 6536,
      "Ġdocuments": 6537,
      "ccles": 6538,
      "ĠLibrary": 6539,
      "Ġoptim": 6540,
      "ieder": 6541,
      "Ġdyn": 6542,
      "**": 6543,
      "ned": 6544,
      "Ar": 6545,
      "Ġignor": 6546,
      "hetic": 6547,
      "05": 6548,
      "Ġthin": 6549,
      "Ġleads": 6550,
      "Ġsigns": 6551,
      "Ġguy": 6552,
      "ĠThrough": 6553,
      "Ġmap": 6554,
      "Ġcars": 6555,
      "Ġtall": 6556,
      "claimed": 6557,
      "Ġrot": 6558,
      "Ġbrings": 6559,
      "Ġdelay": 6560,
      "Ġaccounts": 6561,
      "Ġsuffer": 6562,
      "Ġunable": 6563,
      "rage": 6564,
      "ĠSat": 6565,
      "Ġdesired": 6566,
      "erves": 6567,
      "ĠFind": 6568,
      "inem": 6569,
      "lines": 6570,
      "Ġenjoyed": 6571,
      "Ġbless": 6572,
      "Ġcharges": 6573,
      "Ġfactors": 6574,
      "Ġalter": 6575,
      "ĠCD": 6576,
      "Ġprince": 6577,
      "ĠOper": 6578,
      "IX": 6579,
      "rate": 6580,
      "Ġsuffered": 6581,
      "Ġtab": 6582,
      "Ġadding": 6583,
      "otic": 6584,
      "nam": 6585,
      "Ġox": 6586,
      "Ġtechnical": 6587,
      "Ġtea": 6588,
      "sen": 6589,
      "Ġlux": 6590,
      "Ġrig": 6591,
      "Ġerror": 6592,
      "Ġconver": 6593,
      "Ġbridge": 6594,
      "Ġresponsibility": 6595,
      "itud": 6596,
      "Ġskill": 6597,
      "ĠFest": 6598,
      "hers": 6599,
      "Ġfighting": 6600,
      "ologies": 6601,
      "dule": 6602,
      "ĠPub": 6603,
      "Ġsport": 6604,
      "ĠJean": 6605,
      "Ġleague": 6606,
      "aval": 6607,
      "Ã³": 6608,
      "Ġbusy": 6609,
      "ĠBuild": 6610,
      "ĠMot": 6611,
      "Ġvalues": 6612,
      "otton": 6613,
      "Ġaffected": 6614,
      "Ġyards": 6615,
      "Ġclothes": 6616,
      "icken": 6617,
      "ĠEngine": 6618,
      "ĠSE": 6619,
      "64": 6620,
      "ĠOrgan": 6621,
      "ĠMicro": 6622,
      "ĠAh": 6623,
      "Ġendeav": 6624,
      "ĠOs": 6625,
      "Ġstandards": 6626,
      "Ġils": 6627,
      "ĠSpirit": 6628,
      "Ġbirds": 6629,
      "Ġcouncil": 6630,
      "Ġreject": 6631,
      "Ġteachers": 6632,
      "Ġsyn": 6633,
      "Ġreviews": 6634,
      "Ġhousehold": 6635,
      "Al": 6636,
      "ĠSpecial": 6637,
      "Ġ68": 6638,
      "Ġinitial": 6639,
      "Ġblind": 6640,
      "Ġprivile": 6641,
      "Ġdiet": 6642,
      "Ġkingdom": 6643,
      "Ġemph": 6644,
      "host": 6645,
      "onic": 6646,
      "istan": 6647,
      "Ġremarkable": 6648,
      "uz": 6649,
      "ĠStat": 6650,
      "____": 6651,
      "Ġobst": 6652,
      "Ġterror": 6653,
      "athy": 6654,
      "Ġcamera": 6655,
      "Ġdrawing": 6656,
      "ĠApple": 6657,
      "Ġdedicated": 6658,
      "Ġsubstant": 6659,
      "ĠScotland": 6660,
      "bb": 6661,
      "ĠCheck": 6662,
      "Ġmountains": 6663,
      "Ġconstantly": 6664,
      "CA": 6665,
      "Ġindu": 6666,
      "cho": 6667,
      "Ġtail": 6668,
      "Ġfailure": 6669,
      "Ġdepth": 6670,
      "Ġempt": 6671,
      "Ġ85": 6672,
      "ĠVII": 6673,
      "Ġdip": 6674,
      "eping": 6675,
      "ĠNic": 6676,
      "ĠCre": 6677,
      "Ġoccupied": 6678,
      "ĠMah": 6679,
      "Ġundert": 6680,
      "Ġdefin": 6681,
      "ila": 6682,
      "ĠLab": 6683,
      "Ġsharp": 6684,
      "ylvania": 6685,
      "Ġtrend": 6686,
      "ĠExt": 6687,
      "ĠCall": 6688,
      "Ġapproxim": 6689,
      "Ġesse": 6690,
      "ĠUr": 6691,
      "Ġdecor": 6692,
      "Ġreaders": 6693,
      "Ġbreast": 6694,
      "Ġreader": 6695,
      "Ġnoticed": 6696,
      "ĠAcademy": 6697,
      "ĠFair": 6698,
      "ucle": 6699,
      "Ġbiggest": 6700,
      "Ġyes": 6701,
      "Ġresolution": 6702,
      "pes": 6703,
      "Ġregarded": 6704,
      "Ġsurvey": 6705,
      "Ġ1999": 6706,
      "Ġbrill": 6707,
      "Ġagric": 6708,
      "ĠLiving": 6709,
      "Ġdomestic": 6710,
      "Ġsons": 6711,
      "Ġaccompan": 6712,
      "Ġeval": 6713,
      "Ġrecognized": 6714,
      "ĠGre": 6715,
      "ĠHosp": 6716,
      "Ġtransm": 6717,
      "Ġinformed": 6718,
      "ĠMiddle": 6719,
      "Ġsty": 6720,
      "Ġtender": 6721,
      "Ġguys": 6722,
      "Ġliv": 6723,
      "Ġhid": 6724,
      "ĠBell": 6725,
      "ĠUSA": 6726,
      "Ġvul": 6727,
      "Ġnaturally": 6728,
      "ĠOrder": 6729,
      "Ġcontained": 6730,
      "ĠHead": 6731,
      "Ġnegative": 6732,
      "ĠJon": 6733,
      "ĠBon": 6734,
      "Ġinstant": 6735,
      "Ġvolunte": 6736,
      "Ġcarrying": 6737,
      "ifts": 6738,
      "ĠAuthor": 6739,
      "ĠNever": 6740,
      "Ġaccord": 6741,
      "Ġbackground": 6742,
      "Ġclimate": 6743,
      "Ġ52": 6744,
      "Ġphr": 6745,
      "ĠAndrew": 6746,
      "Ġfacilities": 6747,
      "Ġwindows": 6748,
      "Ġclosely": 6749,
      "Ġcharged": 6750,
      "Ġfold": 6751,
      "ĠOpen": 6752,
      "Ġretail": 6753,
      "67": 6754,
      "Ġefficient": 6755,
      "Ġintention": 6756,
      "Ġprofit": 6757,
      "chaft": 6758,
      "Ġsexual": 6759,
      "ĠFederal": 6760,
      "Ġmillions": 6761,
      "rors": 6762,
      "ture": 6763,
      "Ġacid": 6764,
      "Ġserving": 6765,
      "ilipp": 6766,
      "reek": 6767,
      "Ġgraph": 6768,
      "Ġinternal": 6769,
      "68": 6770,
      "iciency": 6771,
      "Ġlips": 6772,
      "bu": 6773,
      "Ġinhabitants": 6774,
      "ĠOR": 6775,
      "Ġcreative": 6776,
      "ori": 6777,
      "Ġwaters": 6778,
      "ĠAff": 6779,
      "Ġhappiness": 6780,
      "Ġdece": 6781,
      "achusetts": 6782,
      "Ġconducted": 6783,
      "Ġhandle": 6784,
      "Ġvain": 6785,
      "icted": 6786,
      "Ġhyd": 6787,
      "ĠReal": 6788,
      "Ġlaun": 6789,
      "orge": 6790,
      "oti": 6791,
      "Ġagency": 6792,
      "Ġdecre": 6793,
      "iii": 6794,
      "Ġpara": 6795,
      "OV": 6796,
      "ĠKent": 6797,
      "hn": 6798,
      "Ġresidents": 6799,
      "Ġvert": 6800,
      "Ġexplan": 6801,
      "Ġ51": 6802,
      "Ġwis": 6803,
      "imately": 6804,
      "Ġnu": 6805,
      "Ġwenn": 6806,
      "Ġ1990": 6807,
      "58": 6808,
      "Ġattached": 6809,
      "Ġhal": 6810,
      "Ġds": 6811,
      "Ġeinem": 6812,
      "Ã¶": 6813,
      "igkeit": 6814,
      "Ġproperties": 6815,
      "Ġtelling": 6816,
      ".).": 6817,
      "mosp": 6818,
      "Ġbatt": 6819,
      "essions": 6820,
      "Ġguarant": 6821,
      "Ġdram": 6822,
      "gery": 6823,
      "quar": 6824,
      "imp": 6825,
      "Ġprote": 6826,
      "Ġunits": 6827,
      "ĠProgram": 6828,
      "Ġdrew": 6829,
      "kel": 6830,
      "illes": 6831,
      "Ġphen": 6832,
      "Ġdropped": 6833,
      "Ġrefused": 6834,
      "ĠCross": 6835,
      "idem": 6836,
      "Ġentry": 6837,
      "acement": 6838,
      "Ġ67": 6839,
      "zo": 6840,
      "Ġbranch": 6841,
      "ĠWindows": 6842,
      "wick": 6843,
      "Ġstorage": 6844,
      "Ġzum": 6845,
      "Ġshore": 6846,
      "Ġnie": 6847,
      "Ġflav": 6848,
      "ĠJackson": 6849,
      "Ġlisted": 6850,
      "eur": 6851,
      "OK": 6852,
      "ĠJewish": 6853,
      "care": 6854,
      "just": 6855,
      "las": 6856,
      "Ġepisode": 6857,
      "Ġchanging": 6858,
      "Ġconsent": 6859,
      "ĠReport": 6860,
      "ĠPage": 6861,
      "ĠAsia": 6862,
      "issions": 6863,
      "Ġimagine": 6864,
      "Ġdisappoint": 6865,
      "rad": 6866,
      "Ġpolic": 6867,
      "Ġmurder": 6868,
      "adelph": 6869,
      "ĠTro": 6870,
      "Ġexecutive": 6871,
      "Ġja": 6872,
      "ĠManagement": 6873,
      "Ġextensive": 6874,
      "Ġintelligence": 6875,
      "Ġaccommod": 6876,
      "Ġff": 6877,
      "athan": 6878,
      "Ġguests": 6879,
      ".),": 6880,
      "ĠLar": 6881,
      "Ġstruggle": 6882,
      "Ġvisited": 6883,
      "Ġcourage": 6884,
      "Ġsacrif": 6885,
      "ĠConstitution": 6886,
      "ĠLA": 6887,
      "Ġliberty": 6888,
      "Ġdeveloping": 6889,
      "appy": 6890,
      "Ġentitled": 6891,
      "Ġsteam": 6892,
      "Ġtrail": 6893,
      "Ġmoon": 6894,
      "Ġcontrary": 6895,
      "Ġcultiv": 6896,
      "Ġwur": 6897,
      "Ġyesterday": 6898,
      "Ġmyst": 6899,
      "ington": 6900,
      "ĠMassachusetts": 6901,
      "erts": 6902,
      "Ġtears": 6903,
      "Ġrecip": 6904,
      "Ġmeat": 6905,
      "Ġwire": 6906,
      "Ġmail": 6907,
      "Ġdict": 6908,
      "Ġshel": 6909,
      "ĠPenns": 6910,
      "Ġextract": 6911,
      "Ġcheap": 6912,
      "Ġsets": 6913,
      "Ġforty": 6914,
      "Ġange": 6915,
      "Ġath": 6916,
      "oved": 6917,
      "Ġlaunch": 6918,
      "Ġmu": 6919,
      "ono": 6920,
      "For": 6921,
      "amente": 6922,
      "Ġowned": 6923,
      "using": 6924,
      "Ġscript": 6925,
      "ĠWild": 6926,
      "ĠMain": 6927,
      "Ġturns": 6928,
      "ribed": 6929,
      "Ġrising": 6930,
      "erg": 6931,
      "ustration": 6932,
      "Ġrelax": 6933,
      "ĠWH": 6934,
      "XX": 6935,
      "Ġincident": 6936,
      "Ġfulf": 6937,
      "Ġdwell": 6938,
      "ĠSC": 6939,
      "ĠPot": 6940,
      "ĠFurther": 6941,
      "Ġkm": 6942,
      "Ġapproved": 6943,
      "ohl": 6944,
      "ribe": 6945,
      "Ġappeal": 6946,
      "Ġinstitution": 6947,
      "Ġeating": 6948,
      "Ġuniversity": 6949,
      "Ġtransform": 6950,
      "Ġdriver": 6951,
      "ĠStill": 6952,
      "Ġconfident": 6953,
      "rane": 6954,
      "Ġbutter": 6955,
      "Ġexamples": 6956,
      "ĠBow": 6957,
      "Ġcreation": 6958,
      "ĠKingdom": 6959,
      "ĠHaving": 6960,
      "Ġtum": 6961,
      "bro": 6962,
      "Ġric": 6963,
      "Ġrac": 6964,
      "rat": 6965,
      "Ġmile": 6966,
      "Ġretire": 6967,
      "ĠVill": 6968,
      "ĠBishop": 6969,
      "rison": 6970,
      "Ġcher": 6971,
      "uen": 6972,
      "Ġbat": 6973,
      "ĠCro": 6974,
      "ĠLE": 6975,
      "inations": 6976,
      "ĠHard": 6977,
      "Ġaside": 6978,
      "azon": 6979,
      "olt": 6980,
      "ĠKore": 6981,
      "Ġenthus": 6982,
      "Ġoperating": 6983,
      "Ġtight": 6984,
      "They": 6985,
      "Ġresident": 6986,
      "Ġstro": 6987,
      "gs": 6988,
      "ĠFamily": 6989,
      "Ġmusical": 6990,
      "ĠSea": 6991,
      "aria": 6992,
      "ĠInformation": 6993,
      "Ġincorpor": 6994,
      "Ġquo": 6995,
      "Ġmoder": 6996,
      "ĠWhich": 6997,
      "Ġembr": 6998,
      "ighter": 6999,
      "Ġstores": 7000,
      "Ġopposition": 7001,
      "Ġdegrees": 7002,
      "Ġbelief": 7003,
      "Sh": 7004,
      "Ġadministr": 7005,
      "Ġseeking": 7006,
      "ĠDas": 7007,
      "Ġbold": 7008,
      "Ġreceiving": 7009,
      "ĠSus": 7010,
      "ĠProject": 7011,
      "Ġbis": 7012,
      "Ġstrict": 7013,
      "ller": 7014,
      "01": 7015,
      "zer": 7016,
      "Ġnorthern": 7017,
      "Ġrenew": 7018,
      "omy": 7019,
      "ĠPay": 7020,
      "ko": 7021,
      "usal": 7022,
      "Ġreply": 7023,
      "adelphia": 7024,
      "Ġbirths": 7025,
      "Ġsympt": 7026,
      "Ġdil": 7027,
      "burgh": 7028,
      "ogen": 7029,
      "Ġcomposed": 7030,
      "57": 7031,
      "Ġterrible": 7032,
      "ALL": 7033,
      "Ġadvoc": 7034,
      "Ġmissing": 7035,
      "Ġsuffering": 7036,
      "Ġdogs": 7037,
      "Ġcontrast": 7038,
      "rated": 7039,
      "utenant": 7040,
      "after": 7041,
      "gage": 7042,
      "ansion": 7043,
      "Ġworst": 7044,
      "ĠCorpor": 7045,
      "ĠSH": 7046,
      "Ġdistribution": 7047,
      "eding": 7048,
      "urches": 7049,
      "All": 7050,
      "Ġarts": 7051,
      "MS": 7052,
      "ommen": 7053,
      "Ġladies": 7054,
      "Ġteeth": 7055,
      "Ġgeb": 7056,
      "ĠThank": 7057,
      "Ġindustrial": 7058,
      "Ġyounger": 7059,
      "Ġcontaining": 7060,
      "Ġta": 7061,
      "Ġspoken": 7062,
      "Ġfoundation": 7063,
      "olis": 7064,
      "Ġnarr": 7065,
      "Ġemployment": 7066,
      "When": 7067,
      "chester": 7068,
      "UE": 7069,
      "Ġnecessity": 7070,
      "ĠBible": 7071,
      "ĠNorthern": 7072,
      "rences": 7073,
      "iveness": 7074,
      "Ġenem": 7075,
      "Ġmixed": 7076,
      "Ġages": 7077,
      "ĠPC": 7078,
      "Ġpointed": 7079,
      "Ġdoors": 7080,
      "uns": 7081,
      "Ġtemps": 7082,
      "mann": 7083,
      "Ġconfirm": 7084,
      "add": 7085,
      "Ġdefense": 7086,
      "Ã¢": 7087,
      "Ġ1998": 7088,
      "Ġgained": 7089,
      "ĠDevelopment": 7090,
      "ĠSeries": 7091,
      "Ġconsists": 7092,
      "08": 7093,
      "Ġfault": 7094,
      "ĠBa": 7095,
      "Ġconsequence": 7096,
      "oro": 7097,
      "ĠPen": 7098,
      "ĠNext": 7099,
      "Ġec": 7100,
      "lyn": 7101,
      "pass": 7102,
      "Ġ00": 7103,
      "ĠObama": 7104,
      "Ġtong": 7105,
      "ĠNorm": 7106,
      "ĠÂ©": 7107,
      "Ġbasket": 7108,
      "Ġreward": 7109,
      "ĠOl": 7110,
      "Ġverb": 7111,
      "Ġ54": 7112,
      "FL": 7113,
      "wr": 7114,
      "Ġallowing": 7115,
      "ĠAlexander": 7116,
      "yan": 7117,
      "roid": 7118,
      "Ġsouthern": 7119,
      "Ġconcerns": 7120,
      "Ġfeels": 7121,
      "Ġholds": 7122,
      "Ġfallen": 7123,
      "ĠZeit": 7124,
      "igation": 7125,
      "acter": 7126,
      "Ġrevolution": 7127,
      "OG": 7128,
      "Ġleadership": 7129,
      "Ġapr": 7130,
      "ĠPennsylvania": 7131,
      "Ġfier": 7132,
      "Ġrepair": 7133,
      "ĠBal": 7134,
      "ĠColor": 7135,
      "Ġdestroyed": 7136,
      "ieux": 7137,
      "Ġminds": 7138,
      "Ġstarts": 7139,
      "Ġpleasant": 7140,
      "Ġ53": 7141,
      "Ġconclusion": 7142,
      "Ġcalm": 7143,
      "Ġrevealed": 7144,
      "BA": 7145,
      "Ġ95": 7146,
      "eff": 7147,
      "gt": 7148,
      "othe": 7149,
      "ĠWhether": 7150,
      "Ġrear": 7151,
      "theless": 7152,
      "este": 7153,
      "Ġatmosp": 7154,
      "Ġinfl": 7155,
      "lers": 7156,
      "Ġrecommended": 7157,
      "Ġworthy": 7158,
      "Ġpurchased": 7159,
      "Ġguitar": 7160,
      "Ġlegs": 7161,
      "ĠPerhaps": 7162,
      "Don": 7163,
      "door": 7164,
      "Ġcollected": 7165,
      "Ġdivine": 7166,
      "Ġfairly": 7167,
      "irs": 7168,
      "Ġimproved": 7169,
      "Ġalternative": 7170,
      "orted": 7171,
      "Ġexception": 7172,
      "Ġquantity": 7173,
      "Ġrelative": 7174,
      "Ġfunctions": 7175,
      "ĠMarg": 7176,
      "ĠArts": 7177,
      "ĠKen": 7178,
      "Ġ78": 7179,
      "ĠHistor": 7180,
      "Ġposted": 7181,
      "Ġpropri": 7182,
      "ĠDig": 7183,
      "Ġ>>": 7184,
      "Ġmoments": 7185,
      "Ġdriven": 7186,
      "Ġspending": 7187,
      "ĠCL": 7188,
      "Ġkiss": 7189,
      "Ġdieser": 7190,
      "igration": 7191,
      "Ġpractices": 7192,
      "itional": 7193,
      "vy": 7194,
      "Ġ120": 7195,
      "ĠWay": 7196,
      "Ġdoub": 7197,
      "Ġtrop": 7198,
      "aland": 7199,
      "Ġstim": 7200,
      "bec": 7201,
      "ello": 7202,
      "ĠBull": 7203,
      "Ġsurprised": 7204,
      "inson": 7205,
      "lements": 7206,
      "Ġthrown": 7207,
      "antry": 7208,
      "ĠPhiladelphia": 7209,
      "orious": 7210,
      "ilton": 7211,
      "Ġbul": 7212,
      "abled": 7213,
      "Ġsustain": 7214,
      "ĠDomin": 7215,
      "aze": 7216,
      "ANT": 7217,
      "Ġrevenue": 7218,
      "iffe": 7219,
      "Ġfortune": 7220,
      "Ġcurious": 7221,
      "ĠRog": 7222,
      "Ġfing": 7223,
      "inch": 7224,
      "74": 7225,
      "Ġcounsel": 7226,
      "ĠView": 7227,
      "ĠVIII": 7228,
      "To": 7229,
      "Ġfiles": 7230,
      "Ġax": 7231,
      "Ġnob": 7232,
      "72": 7233,
      "urd": 7234,
      "iah": 7235,
      "Ġmac": 7236,
      "abilities": 7237,
      "asion": 7238,
      "Ġstrike": 7239,
      "Ġvary": 7240,
      "oting": 7241,
      "Ġbran": 7242,
      "ansas": 7243,
      "ective": 7244,
      "mi": 7245,
      "Ġdust": 7246,
      "writ": 7247,
      "Ġselling": 7248,
      "Ġsector": 7249,
      "Ġwestern": 7250,
      "gged": 7251,
      "Ġsucceeded": 7252,
      "urban": 7253,
      "Ġdistinguished": 7254,
      "Ġsaved": 7255,
      "ahl": 7256,
      "ĠMais": 7257,
      "ĠCustom": 7258,
      "Ġdraft": 7259,
      "rection": 7260,
      "Ġprovince": 7261,
      "ĠFrancisco": 7262,
      "Ġchallenges": 7263,
      "Ġhurt": 7264,
      "Ex": 7265,
      "Ġtips": 7266,
      "Ġdiese": 7267,
      "stra": 7268,
      "Ġlargely": 7269,
      "acious": 7270,
      "erman": 7271,
      "Ġprocesses": 7272,
      "Ġfaces": 7273,
      "ĠOrig": 7274,
      "ĠFoundation": 7275,
      "Ġsail": 7276,
      "ĠTwitter": 7277,
      "Ġapproximately": 7278,
      "auf": 7279,
      "Ġinvestigation": 7280,
      "Ġcloth": 7281,
      "Ġjam": 7282,
      "onder": 7283,
      "ĠProduct": 7284,
      "Ġflex": 7285,
      "Ġingred": 7286,
      "thur": 7287,
      "ĠSup": 7288,
      "Ġ.,": 7289,
      "Ġcolors": 7290,
      "Ġtheme": 7291,
      "ĠCommunity": 7292,
      "Why": 7293,
      "ĠDub": 7294,
      "62": 7295,
      "Ġbehavior": 7296,
      "Ġdefend": 7297,
      "ĠTurn": 7298,
      "Ġpool": 7299,
      "ĠTherefore": 7300,
      "ista": 7301,
      "bra": 7302,
      "esse": 7303,
      "Ã¨": 7304,
      "Ġbreakfast": 7305,
      "Ġglory": 7306,
      "Ġtesting": 7307,
      ".âĢĶ": 7308,
      "Ġchain": 7309,
      "upp": 7310,
      "umph": 7311,
      "lets": 7312,
      "Ġacquired": 7313,
      "zil": 7314,
      "Ġrapidly": 7315,
      "Ġcoal": 7316,
      "Ġuniform": 7317,
      "Î½": 7318,
      "Ġarrival": 7319,
      "âĢĿ,": 7320,
      "Ġcriminal": 7321,
      "Ġabsence": 7322,
      "ĠShow": 7323,
      "Ġbesides": 7324,
      "soft": 7325,
      "Ġmarkets": 7326,
      "elles": 7327,
      "ĠTeam": 7328,
      "Ġtoutes": 7329,
      "oln": 7330,
      "Ġbeneath": 7331,
      "she": 7332,
      "Ġlying": 7333,
      "insi": 7334,
      "ĠTay": 7335,
      "Ġgate": 7336,
      "Ġdeaths": 7337,
      "imus": 7338,
      "quest": 7339,
      "iro": 7340,
      "Ġchemical": 7341,
      "ĠPortug": 7342,
      "ĠColonel": 7343,
      "Ġprayer": 7344,
      "Ġtables": 7345,
      "63": 7346,
      "umer": 7347,
      "Ġbeach": 7348,
      "Ġpride": 7349,
      "Ġflour": 7350,
      "Ġhopes": 7351,
      "Ġalarm": 7352,
      "Ġdecisions": 7353,
      "Ġvari": 7354,
      "Ġopinions": 7355,
      "Ġinterior": 7356,
      "Ġresear": 7357,
      "Ġsumm": 7358,
      "ĠMedical": 7359,
      "agne": 7360,
      "ĠMas": 7361,
      "Ġsanct": 7362,
      "clock": 7363,
      "ĠJustice": 7364,
      "Ġsilent": 7365,
      "ĠFood": 7366,
      "inction": 7367,
      "Ġworship": 7368,
      "Ġfuel": 7369,
      "Ġscarcely": 7370,
      "Ġholy": 7371,
      "free": 7372,
      "ATE": 7373,
      "Ġpolitics": 7374,
      "Ġhearts": 7375,
      "wart": 7376,
      "Ġcore": 7377,
      "note": 7378,
      "Ġphilosophy": 7379,
      "Ġcrew": 7380,
      "ĠMike": 7381,
      "Ġsic": 7382,
      "ĠSpring": 7383,
      "Ġprepare": 7384,
      "Ġalive": 7385,
      "ĠCOM": 7386,
      "ĠTour": 7387,
      "Ġnin": 7388,
      "INE": 7389,
      "Ġpersu": 7390,
      "Ġprospect": 7391,
      "yright": 7392,
      "ĠJews": 7393,
      "Ġstations": 7394,
      "haust": 7395,
      "jus": 7396,
      "orous": 7397,
      "active": 7398,
      "ĠHo": 7399,
      "Ġstir": 7400,
      "life": 7401,
      "Ġdisturb": 7402,
      "Re": 7403,
      "ĠWeek": 7404,
      "Ġerect": 7405,
      "Ġterritory": 7406,
      "Ġloud": 7407,
      "ieties": 7408,
      "Ġhundreds": 7409,
      "Ġvisitors": 7410,
      "Ġinspired": 7411,
      "Ġlovely": 7412,
      "ĠDun": 7413,
      "ĠDutch": 7414,
      "Ġamongst": 7415,
      "ĠExper": 7416,
      "ĠHuman": 7417,
      "bell": 7418,
      "ela": 7419,
      "On": 7420,
      "ĠRose": 7421,
      "Ġreign": 7422,
      "ĠAngeles": 7423,
      "Ġinspect": 7424,
      "isis": 7425,
      "Ġunus": 7426,
      "don": 7427,
      "Ġlabour": 7428,
      "Ġwhilst": 7429,
      "ĠBrook": 7430,
      "Ġabund": 7431,
      "Ġpermanent": 7432,
      "Ġconsidering": 7433,
      "Ġcompos": 7434,
      "ĠHad": 7435,
      "61": 7436,
      "Ġremote": 7437,
      "ibi": 7438,
      "Ġsuitable": 7439,
      "Ġcream": 7440,
      "ĠUt": 7441,
      "Ġsignal": 7442,
      "Ġeager": 7443,
      "ĠStan": 7444,
      "Ġwheel": 7445,
      "ĠOnline": 7446,
      "Ġ2021": 7447,
      "Ġmonitor": 7448,
      "ĠChildren": 7449,
      "aph": 7450,
      "chang": 7451,
      "Ġrein": 7452,
      "Ġcomplic": 7453,
      "Ġnel": 7454,
      "Ġfrag": 7455,
      "ĠNote": 7456,
      "Ġsentence": 7457,
      "Ġpoly": 7458,
      "ordinary": 7459,
      "mal": 7460,
      "ulating": 7461,
      "Ġvessels": 7462,
      "Ġpill": 7463,
      "ĠRod": 7464,
      "Ġbid": 7465,
      "Ġconj": 7466,
      "79": 7467,
      "DE": 7468,
      "iverse": 7469,
      "Ġdread": 7470,
      "Ġbutton": 7471,
      "amental": 7472,
      "earing": 7473,
      "ĠInte": 7474,
      "Ġexternal": 7475,
      "ĠDor": 7476,
      "Ġcens": 7477,
      "ĠSports": 7478,
      "Ġposts": 7479,
      "Ġcommonly": 7480,
      "ĠWalk": 7481,
      "ĠAdmin": 7482,
      "Ġpaying": 7483,
      "ĠEconom": 7484,
      "Ġgovernor": 7485,
      "ĠAri": 7486,
      "ĠVide": 7487,
      "agues": 7488,
      "Ġdoctrine": 7489,
      "ĠCond": 7490,
      "Ġfinds": 7491,
      "ĠTR": 7492,
      "ching": 7493,
      "Ġimpression": 7494,
      "Ġgal": 7495,
      "Ġentrance": 7496,
      "uations": 7497,
      "ĠPolice": 7498,
      "Ġabsor": 7499,
      "Ġcha": 7500,
      "Ġzwe": 7501,
      "Ġenemies": 7502,
      "uled": 7503,
      "Ġdish": 7504,
      "utt": 7505,
      "ĠNature": 7506,
      "Ġoffices": 7507,
      "Ġreven": 7508,
      "incess": 7509,
      "Ġresol": 7510,
      "ĠEN": 7511,
      "ĠProp": 7512,
      "ĠSie": 7513,
      ",-": 7514,
      "Ġsatisfaction": 7515,
      "ĠGer": 7516,
      "igt": 7517,
      "Ġaffection": 7518,
      "Ġassociation": 7519,
      "nte": 7520,
      "Ġinnoc": 7521,
      "ilit": 7522,
      "Ġvideos": 7523,
      "ĠDaniel": 7524,
      "bel": 7525,
      "Ġinstructions": 7526,
      "apes": 7527,
      "stell": 7528,
      "Ġcourses": 7529,
      "Ġreplaced": 7530,
      "Ġvalid": 7531,
      "nic": 7532,
      "pir": 7533,
      "ĠInstead": 7534,
      "Ġfalling": 7535,
      "Ġprecise": 7536,
      "Ġmanifest": 7537,
      "Ġlake": 7538,
      "ĠLow": 7539,
      "ints": 7540,
      "Ġ1980": 7541,
      "Ġadmit": 7542,
      "Ġconvent": 7543,
      "Ġclassic": 7544,
      "ĠIndust": 7545,
      "Ġ88": 7546,
      "zi": 7547,
      "ĠPier": 7548,
      "ĠDesp": 7549,
      "roit": 7550,
      "Ġacting": 7551,
      "ĠJacob": 7552,
      "Ġ59": 7553,
      "Ġpositions": 7554,
      "Ġclaimed": 7555,
      "Ġrapp": 7556,
      "Ġworry": 7557,
      "Ġauthors": 7558,
      "Ġsched": 7559,
      "Ġtemple": 7560,
      "Î±": 7561,
      "PA": 7562,
      "Ġkann": 7563,
      "Ġcomprehens": 7564,
      "Ġpriest": 7565,
      "zel": 7566,
      "ĠGes": 7567,
      "antes": 7568,
      "Ġwatched": 7569,
      "Ġmaintenance": 7570,
      "ĠChris": 7571,
      "oga": 7572,
      "enger": 7573,
      "ĠPoint": 7574,
      "Ġchannel": 7575,
      "ĠCommon": 7576,
      "OH": 7577,
      "ials": 7578,
      "ĠVo": 7579,
      "uty": 7580,
      "Ġbuying": 7581,
      "oking": 7582,
      "ĠFull": 7583,
      "Ġhence": 7584,
      "73": 7585,
      "ĠAnton": 7586,
      "Ġphenomen": 7587,
      "ĠPhilipp": 7588,
      "Ġsom": 7589,
      "Ġchampions": 7590,
      "Ġneighborhood": 7591,
      "Ġschedule": 7592,
      "from": 7593,
      "mir": 7594,
      "Ġtestim": 7595,
      "fa": 7596,
      "Ġgat": 7597,
      "real": 7598,
      "pton": 7599,
      "ĠOxford": 7600,
      "Ġconserv": 7601,
      "TON": 7602,
      "ĠAud": 7603,
      "Ġexpensive": 7604,
      "ĠMir": 7605,
      "Ġunw": 7606,
      "Ġpromote": 7607,
      "car": 7608,
      "anna": 7609,
      "ĠDam": 7610,
      "Ġexplore": 7611,
      "ĠLew": 7612,
      "Ġnecessarily": 7613,
      "ĠRh": 7614,
      "lly": 7615,
      "elly": 7616,
      "Ġstudio": 7617,
      "Ġphotograph": 7618,
      "ĠNight": 7619,
      "oire": 7620,
      "iva": 7621,
      "yard": 7622,
      "Ġemphas": 7623,
      "Ġq": 7624,
      "ĠPacific": 7625,
      "Ġenable": 7626,
      "ĠLog": 7627,
      "Ġconfirmed": 7628,
      "Ġlandsc": 7629,
      "Ġfacility": 7630,
      "Un": 7631,
      "ĠBrand": 7632,
      "erior": 7633,
      "Ġquam": 7634,
      "ĠNY": 7635,
      "ructure": 7636,
      "ĠDom": 7637,
      "Ġhills": 7638,
      "ĠSwed": 7639,
      "ĠGame": 7640,
      "Ġannounce": 7641,
      "ĠMun": 7642,
      "Ġabst": 7643,
      "ilty": 7644,
      "Ġvice": 7645,
      "rose": 7646,
      "New": 7647,
      "SE": 7648,
      "Ġwisdom": 7649,
      "ĠConference": 7650,
      "Ġcareful": 7651,
      "Ġhate": 7652,
      "kind": 7653,
      "Ġvom": 7654,
      "emed": 7655,
      "ĠGeorgia": 7656,
      "OUR": 7657,
      "Ġrum": 7658,
      "shire": 7659,
      "Ġvisible": 7660,
      "aning": 7661,
      "Ġsake": 7662,
      "Ġguest": 7663,
      "Ġcord": 7664,
      "ĠEarly": 7665,
      "Ġmedicine": 7666,
      "Ġmeal": 7667,
      "Ġblow": 7668,
      "Ġtalked": 7669,
      "Ġsoll": 7670,
      "Ġholiday": 7671,
      "Ġresistance": 7672,
      "Ġreasonable": 7673,
      "Ġshr": 7674,
      "Ġtermin": 7675,
      "bes": 7676,
      "igs": 7677,
      "Ġgest": 7678,
      "Ġdistant": 7679,
      "Ġell": 7680,
      "Americ": 7681,
      "orders": 7682,
      "Ġinner": 7683,
      "Ġformat": 7684,
      "uto": 7685,
      "eries": 7686,
      "Ġorganized": 7687,
      "Ġhabe": 7688,
      "hlt": 7689,
      "inois": 7690,
      "achel": 7691,
      "Ġcompens": 7692,
      "enny": 7693,
      "Ġaccompanied": 7694,
      "ĠCarl": 7695,
      "ĠField": 7696,
      "Ġwished": 7697,
      "Ġwet": 7698,
      "Ġlod": 7699,
      "ĠBeach": 7700,
      "Ġpicked": 7701,
      "Ġconvenient": 7702,
      "ensity": 7703,
      "Ġslave": 7704,
      "dem": 7705,
      "ĠTal": 7706,
      "mouth": 7707,
      "ĠSamuel": 7708,
      "Ġdiagn": 7709,
      "Ġhes": 7710,
      "ĠRay": 7711,
      "Ġsatisfied": 7712,
      "71": 7713,
      "ĠBed": 7714,
      "Ġguns": 7715,
      "ĠCharl": 7716,
      "Ġvisual": 7717,
      "ĠMit": 7718,
      "ĠCome": 7719,
      "Ġscholars": 7720,
      "Ġflood": 7721,
      "ĠAdv": 7722,
      "ulum": 7723,
      "gle": 7724,
      "Ġsettlement": 7725,
      "Ġrestaurant": 7726,
      "sect": 7727,
      "Ġdesigns": 7728,
      "Ġseconds": 7729,
      "ĠBE": 7730,
      "ĠFa": 7731,
      "Ġlaunched": 7732,
      "ĠAdam": 7733,
      "cia": 7734,
      "alog": 7735,
      "Ġic": 7736,
      "ĠJersey": 7737,
      "Ġlights": 7738,
      "Ġcomparison": 7739,
      "Ġopposed": 7740,
      "Ġpays": 7741,
      "Ġ<<": 7742,
      "Ġneighbour": 7743,
      "Ġdell": 7744,
      "Ġgay": 7745,
      "Ġimprovement": 7746,
      "Ġaqu": 7747,
      "ĠLim": 7748,
      "Ġreputation": 7749,
      "omer": 7750,
      "Ġsurrounding": 7751,
      "Ġcontest": 7752,
      "Ġpatri": 7753,
      "ĠRos": 7754,
      "She": 7755,
      "ĠFriend": 7756,
      "Ġnurs": 7757,
      "Äģ": 7758,
      "Ġassign": 7759,
      "rooms": 7760,
      "ĠEarl": 7761,
      "Ġ1997": 7762,
      "arest": 7763,
      "Ġtrs": 7764,
      "Ġidentify": 7765,
      "oked": 7766,
      "ĠRecords": 7767,
      "Ġfocused": 7768,
      "Ġnoise": 7769,
      "Ġrelationships": 7770,
      "cs": 7771,
      "ĠPhys": 7772,
      "rn": 7773,
      "ĠMedia": 7774,
      "Ġ72": 7775,
      "Ġ400": 7776,
      "alo": 7777,
      "iem": 7778,
      "Ġmainly": 7779,
      "Ġdischar": 7780,
      "hent": 7781,
      "Ġpromised": 7782,
      "Ad": 7783,
      "Ġlock": 7784,
      "Ġgolden": 7785,
      "ommes": 7786,
      "Ġunlike": 7787,
      "Ġmont": 7788,
      "Ġwounded": 7789,
      "ĠCivil": 7790,
      "ĠHun": 7791,
      "aka": 7792,
      "Ġmaximum": 7793,
      "uh": 7794,
      "amps": 7795,
      "mail": 7796,
      "Ġconflict": 7797,
      "orable": 7798,
      "incoln": 7799,
      "].": 7800,
      "ĠTenn": 7801,
      "Ġcourts": 7802,
      "Ġrealize": 7803,
      "ĠAssemb": 7804,
      "ĠPolit": 7805,
      "Ġfrequent": 7806,
      "59": 7807,
      "ource": 7808,
      "Ġdetailed": 7809,
      "Ġ63": 7810,
      "alous": 7811,
      "Ġmagazine": 7812,
      "Ġfeatured": 7813,
      "ĠOrd": 7814,
      "ĠBib": 7815,
      "Ġcutting": 7816,
      "ĠExec": 7817,
      "Ġuncle": 7818,
      "ags": 7819,
      "Ġog": 7820,
      "Ġ1996": 7821,
      "isen": 7822,
      "stein": 7823,
      "],": 7824,
      "Ġpulled": 7825,
      "Ġappointment": 7826,
      "Ġexciting": 7827,
      "FF": 7828,
      "Ġbranches": 7829,
      "Ġsplend": 7830,
      "ĠTele": 7831,
      "Ġfate": 7832,
      "Ġsword": 7833,
      "Ġanticip": 7834,
      "Ġbearing": 7835,
      "ĠCab": 7836,
      "hist": 7837,
      "CL": 7838,
      "Ġanywhere": 7839,
      "Ġperpet": 7840,
      "ĠHoll": 7841,
      "ĠSanta": 7842,
      "Ġfactor": 7843,
      "69": 7844,
      "Ġidentified": 7845,
      "Ġshell": 7846,
      "acles": 7847,
      "Ġrs": 7848,
      "ader": 7849,
      "Ġflower": 7850,
      "Ġtotally": 7851,
      "Ġsacred": 7852,
      "Ġeducational": 7853,
      "ĠAuf": 7854,
      "Ġacademic": 7855,
      "Ġtourn": 7856,
      "Ġscheme": 7857,
      "Ġcow": 7858,
      "Ġft": 7859,
      "Ġreturning": 7860,
      "ohol": 7861,
      "Ġprohib": 7862,
      "amic": 7863,
      "ĠCost": 7864,
      "Ġtalent": 7865,
      "Ġplanned": 7866,
      "atum": 7867,
      "ĠTrump": 7868,
      "ĠBru": 7869,
      "ĠFund": 7870,
      "Ġattacks": 7871,
      "otal": 7872,
      "Ġvalley": 7873,
      "BER": 7874,
      "sm": 7875,
      "Ġlimits": 7876,
      "ĠMeth": 7877,
      "Ġstrongly": 7878,
      "ĠSometimes": 7879,
      "Ġminimum": 7880,
      "Ġaltogether": 7881,
      "Ġfunding": 7882,
      "Ġnomin": 7883,
      "hum": 7884,
      "Ã¤": 7885,
      "Ġexperts": 7886,
      "Ġretired": 7887,
      "Ġihm": 7888,
      "ĠSac": 7889,
      "Â®": 7890,
      "TE": 7891,
      "ĠArm": 7892,
      "Ġaddressed": 7893,
      "Ġshopping": 7894,
      "Ġspons": 7895,
      "vard": 7896,
      "Ġempty": 7897,
      "Ġsymptoms": 7898,
      "Ġcircle": 7899,
      "ĠRest": 7900,
      "Ġprogramm": 7901,
      "ĠHospital": 7902,
      "hrt": 7903,
      "Ġpush": 7904,
      "rete": 7905,
      "Ġreturns": 7906,
      "Ġ61": 7907,
      "52": 7908,
      "ĠEastern": 7909,
      "ĠED": 7910,
      "Ġ62": 7911,
      "ichen": 7912,
      "Ġpossibility": 7913,
      "Ġjew": 7914,
      "irable": 7915,
      "ĠPa": 7916,
      "ĠMichigan": 7917,
      "aron": 7918,
      "ĠZealand": 7919,
      "ĠWorks": 7920,
      "Ġcasino": 7921,
      "Ġtypically": 7922,
      "Ġhell": 7923,
      "ĠVor": 7924,
      "Ġpolicies": 7925,
      "Ġcompr": 7926,
      "ĠWr": 7927,
      "Ġintent": 7928,
      "oty": 7929,
      "Ġcontre": 7930,
      "ibilities": 7931,
      "Ġwarrant": 7932,
      "issance": 7933,
      "Ġmaintained": 7934,
      "Ġwal": 7935,
      "Ġmeetings": 7936,
      "Ġdemocr": 7937,
      "chi": 7938,
      "lesh": 7939,
      "04": 7940,
      "Ġwarn": 7941,
      "Be": 7942,
      "word": 7943,
      "Ġintroduction": 7944,
      "ĠTit": 7945,
      "Ġcoverage": 7946,
      "Ġveter": 7947,
      "ĠMP": 7948,
      "ĠPope": 7949,
      "di": 7950,
      "Ġthro": 7951,
      "ĠHarry": 7952,
      "Ġinvited": 7953,
      "Ġfabric": 7954,
      "ruits": 7955,
      "TA": 7956,
      "07": 7957,
      "Ġrelevant": 7958,
      "ĠRepublican": 7959,
      "Ġacknowled": 7960,
      "ĠJoh": 7961,
      "Ġjus": 7962,
      "itis": 7963,
      "Ġsubstance": 7964,
      "zes": 7965,
      "ĠFle": 7966,
      "Ġpoetry": 7967,
      "Ġvirtue": 7968,
      "Ġcrisis": 7969,
      "Ġtent": 7970,
      "Ġsupplies": 7971,
      "Ġsuspic": 7972,
      "Ġextraordinary": 7973,
      "54": 7974,
      "Ġlosing": 7975,
      "Do": 7976,
      "ĠQuest": 7977,
      "ĠBerlin": 7978,
      "Ġpublication": 7979,
      "Ġchat": 7980,
      "ĠEX": 7981,
      "ĠDirect": 7982,
      "ĠMA": 7983,
      "Ġuniversal": 7984,
      "Ġdefined": 7985,
      "ĠYe": 7986,
      "ĠRight": 7987,
      "ĠGro": 7988,
      "five": 7989,
      "Ġmoins": 7990,
      "ĠWord": 7991,
      "jud": 7992,
      "Ġscored": 7993,
      "unct": 7994,
      "53": 7995,
      "Ġfifth": 7996,
      "ĠSn": 7997,
      "edia": 7998,
      "Ġthinks": 7999,
      "ĠBrazil": 8000,
      "Ġborder": 8001,
      "ĠBO": 8002,
      "Ġwearing": 8003,
      "06": 8004,
      "ĠHay": 8005,
      "Ġformerly": 8006,
      ".:": 8007,
      "ĠKnow": 8008,
      "Ġresc": 8009,
      "des": 8010,
      "ĠConnect": 8011,
      "Â°": 8012,
      "Ġtast": 8013,
      "rast": 8014,
      "Ġagents": 8015,
      "Ġcheer": 8016,
      "ĠPlace": 8017,
      "ĠRa": 8018,
      "ĠLincoln": 8019,
      "Not": 8020,
      "Ġbeside": 8021,
      "asi": 8022,
      "Ġbrothers": 8023,
      "ĠIslam": 8024,
      "Ġcontra": 8025,
      "Ġliked": 8026,
      "Ġexposed": 8027,
      "Ġstudied": 8028,
      "ĠWales": 8029,
      "Ġexhaust": 8030,
      "Ġnucle": 8031,
      "anes": 8032,
      "ayer": 8033,
      "DA": 8034,
      "alty": 8035,
      "ĠGru": 8036,
      "ouses": 8037,
      "Ġprovision": 8038,
      "Ġshoulder": 8039,
      "Ġneglect": 8040,
      "Ġmulti": 8041,
      "Ġdifferences": 8042,
      "iere": 8043,
      "Ġcultural": 8044,
      "inking": 8045,
      "asm": 8046,
      "Ġcontrovers": 8047,
      "Ġcontinu": 8048,
      "Ġsorry": 8049,
      "Ġintellectual": 8050,
      "ÏĦ": 8051,
      "friend": 8052,
      "ĠSet": 8053,
      "Ġprofile": 8054,
      "Ġdess": 8055,
      "oub": 8056,
      "ĠInn": 8057,
      "Ġeverywhere": 8058,
      "Ġtoute": 8059,
      "Ġdeeply": 8060,
      "Ġham": 8061,
      "ĠPrem": 8062,
      "uine": 8063,
      "Ġexem": 8064,
      "iry": 8065,
      "Ġautres": 8066,
      "Ġatmosphere": 8067,
      "Ġeste": 8068,
      "Ġservant": 8069,
      "So": 8070,
      "09": 8071,
      "ĠPA": 8072,
      "Ġci": 8073,
      "eline": 8074,
      "hemat": 8075,
      "Ġloose": 8076,
      "ĠDeath": 8077,
      "ĠEss": 8078,
      "ĠSix": 8079,
      "Ġease": 8080,
      "Ġrow": 8081,
      "onym": 8082,
      "Ġsentiment": 8083,
      "Ġenvironmental": 8084,
      "ĠGames": 8085,
      "ĠCirc": 8086,
      "Ġdiscussed": 8087,
      "Ġparalle": 8088,
      "Ġderived": 8089,
      "Ġencourage": 8090,
      "Ġburied": 8091,
      "ĠRam": 8092,
      "ĠPrice": 8093,
      "ainted": 8094,
      "ĠSong": 8095,
      "Ġfees": 8096,
      "Ġcloser": 8097,
      "Ġtort": 8098,
      "Ġregions": 8099,
      "ĠArthur": 8100,
      "Ġarrive": 8101,
      "Ġregularly": 8102,
      "ĠGreg": 8103,
      "ĠÐ": 8104,
      "Pro": 8105,
      "ĠConc": 8106,
      "Ġlegislation": 8107,
      "ĠEmpire": 8108,
      "Ġselbst": 8109,
      "Ġears": 8110,
      "02": 8111,
      "IES": 8112,
      "ĠPL": 8113,
      "comm": 8114,
      "Ġpale": 8115,
      "ĠFrancis": 8116,
      "isd": 8117,
      "Ġips": 8118,
      "ulus": 8119,
      "ĠTaylor": 8120,
      "embered": 8121,
      "Ġpresents": 8122,
      "rav": 8123,
      "Ġcorps": 8124,
      "ĠAmazon": 8125,
      "ĠStephen": 8126,
      "fall": 8127,
      "Ġsupporting": 8128,
      "Ġprotected": 8129,
      "Ġtechniques": 8130,
      "Ġlabel": 8131,
      "Ġcod": 8132,
      "ORD": 8133,
      "Ġtriumph": 8134,
      "Ġsharing": 8135,
      "Ġnegoti": 8136,
      "Ġgathered": 8137,
      "ront": 8138,
      "ĠSecurity": 8139,
      "ĠSummer": 8140,
      "lisher": 8141,
      "03": 8142,
      "ĠContin": 8143,
      "Ġdc": 8144,
      "pent": 8145,
      "ĠCho": 8146,
      "Ġfurniture": 8147,
      "Ġchurches": 8148,
      "Ġspite": 8149,
      "Ġcondem": 8150,
      "Ġaspects": 8151,
      "ĠPap": 8152,
      "ĠWilson": 8153,
      "Le": 8154,
      "Î¿": 8155,
      "Ġpasses": 8156,
      "51": 8157,
      "Ġsoldier": 8158,
      "Ġamend": 8159,
      "Sp": 8160,
      "Ġfalls": 8161,
      "Ġmistake": 8162,
      "Ġdeck": 8163,
      "ĠPriv": 8164,
      "oche": 8165,
      "heim": 8166,
      "Ġgegen": 8167,
      "ARY": 8168,
      "ĠKl": 8169,
      "Ġtaxes": 8170,
      "ĠMaria": 8171,
      "Ġseriously": 8172,
      "Ġsees": 8173,
      "ĠBY": 8174,
      "Ġresemb": 8175,
      "Ġpackage": 8176,
      "Ġges": 8177,
      "voir": 8178,
      "Ġformal": 8179,
      "Ġwrites": 8180,
      "ulpt": 8181,
      "Ġdescribe": 8182,
      "END": 8183,
      "Ġgradually": 8184,
      "Ġthrew": 8185,
      "Ġprovisions": 8186,
      "Ġmart": 8187,
      "isms": 8188,
      "Ġwidely": 8189,
      "ĠJr": 8190,
      "ĠPRO": 8191,
      "rip": 8192,
      "riv": 8193,
      "ĠBab": 8194,
      "ĠVe": 8195,
      "Ġvib": 8196,
      "Ġtrading": 8197,
      "opher": 8198,
      "ruption": 8199,
      "Ġsubt": 8200,
      "isi": 8201,
      "ĠMarsh": 8202,
      "Ġwhis": 8203,
      "iten": 8204,
      "Ġresidence": 8205,
      "riptions": 8206,
      "Ġcandidate": 8207,
      "Ġ1970": 8208,
      "Ġmarks": 8209,
      "Ġscenes": 8210,
      "Ġcelebrated": 8211,
      "Ġidentity": 8212,
      "resents": 8213,
      "ĠCook": 8214,
      "Ġsunt": 8215,
      "Ġpregn": 8216,
      "Ġva": 8217,
      "ĠDoes": 8218,
      "Ġpap": 8219,
      "ĠAnth": 8220,
      "ĠBall": 8221,
      "ĠSem": 8222,
      "Ġadventure": 8223,
      "Ġpartly": 8224,
      "ĠKr": 8225,
      "Ġroads": 8226,
      "idi": 8227,
      "UD": 8228,
      "Ġgran": 8229,
      "Ġexplanation": 8230,
      "atem": 8231,
      "ĠFox": 8232,
      "Cl": 8233,
      "ĠAssembly": 8234,
      "Ġobliged": 8235,
      "Ġcarbon": 8236,
      "tense": 8237,
      "Ġbrave": 8238,
      "Ġspirits": 8239,
      "ieu": 8240,
      "Ġhidden": 8241,
      "ĠStart": 8242,
      "ĠCoast": 8243,
      "rific": 8244,
      "Ġvehicles": 8245,
      "Ġunex": 8246,
      "Ġ1995": 8247,
      "ĠTreat": 8248,
      "Ġ69": 8249,
      "ĠTar": 8250,
      "SA": 8251,
      "Ġshoes": 8252,
      "Ġ98": 8253,
      "Ġpag": 8254,
      "Ġseed": 8255,
      "Ġattitude": 8256,
      "cluding": 8257,
      "Ġguilty": 8258,
      "ĠAmb": 8259,
      "who": 8260,
      "isa": 8261,
      "Ġgel": 8262,
      "Ġthread": 8263,
      "ĠMatt": 8264,
      "ĠNavy": 8265,
      "ĠFootball": 8266,
      "Ġroot": 8267,
      "Ġpredict": 8268,
      "Ġdevoted": 8269,
      "Ġpublish": 8270,
      "aa": 8271,
      "ĠBrad": 8272,
      "Ġestablishment": 8273,
      "Ġstriking": 8274,
      "pie": 8275,
      "ĠTechnology": 8276,
      "Ġshipping": 8277,
      "Ġearned": 8278,
      "ĠBroad": 8279,
      "Ġdiscount": 8280,
      "Ġsmoke": 8281,
      "ĠCambridge": 8282,
      "Ġcorporate": 8283,
      "cons": 8284,
      "Ġupdate": 8285,
      "Ġrelie": 8286,
      "adium": 8287,
      "ampion": 8288,
      "Ġvend": 8289,
      "ĠWrit": 8290,
      "Ġgrande": 8291,
      "PR": 8292,
      "Ġborrow": 8293,
      "Ġsua": 8294,
      "ĠRus": 8295,
      "ircraft": 8296,
      "Ġbegun": 8297,
      "Ġassigned": 8298,
      "abet": 8299,
      "Ġsovere": 8300,
      "ĠPhilip": 8301,
      "ĠMarket": 8302,
      "Ġsurrounded": 8303,
      "Ġbrows": 8304,
      "ĠAsh": 8305,
      "etch": 8306,
      "ĠAth": 8307,
      "Ġpermission": 8308,
      "ĠIra": 8309,
      "VER": 8310,
      "ĠHal": 8311,
      "Ġdestruction": 8312,
      "Ġsurely": 8313,
      ".=": 8314,
      "Ġ77": 8315,
      "Ġot": 8316,
      "icity": 8317,
      "onia": 8318,
      "Ġloves": 8319,
      "ĠRoll": 8320,
      "ĠLine": 8321,
      "Ġbenefic": 8322,
      "ĠFinally": 8323,
      "Ġaccurate": 8324,
      "Ġseasons": 8325,
      "gi": 8326,
      "Ġrealized": 8327,
      "Ġspecifically": 8328,
      "Ġrocks": 8329,
      "Ġdebut": 8330,
      "ĠTrust": 8331,
      "ĠUpon": 8332,
      "Ġbattery": 8333,
      "Ġdifficulties": 8334,
      "Ġsoit": 8335,
      "Ġabroad": 8336,
      "Ġwhenever": 8337,
      "ospel": 8338,
      "ĠDespite": 8339,
      "Ġmol": 8340,
      "Ġprosper": 8341,
      "Ġviv": 8342,
      "Ġemergency": 8343,
      "onne": 8344,
      "Ġgross": 8345,
      "Ġocean": 8346,
      "Ġexpense": 8347,
      "list": 8348,
      "Ġmarry": 8349,
      "ĠAv": 8350,
      "ĠForce": 8351,
      "Ġpainting": 8352,
      "Ġcoat": 8353,
      "owa": 8354,
      "Ġdarkness": 8355,
      "ecess": 8356,
      "wich": 8357,
      "Ġcommerce": 8358,
      "inding": 8359,
      "Ġoccurs": 8360,
      "Ġdiscovery": 8361,
      "Ġcenturies": 8362,
      "Ġinstruction": 8363,
      "Ġregulations": 8364,
      "Ġtempt": 8365,
      "Ġburning": 8366,
      "Ġgods": 8367,
      "Ġdimin": 8368,
      "Ġrelatively": 8369,
      "oni": 8370,
      "Ġtopic": 8371,
      "atr": 8372,
      "Ġol": 8373,
      "ĠData": 8374,
      "ĠIran": 8375,
      "Ġhide": 8376,
      "Ġcous": 8377,
      "Ġgrade": 8378,
      "Ġmaj": 8379,
      "Ġelsewhere": 8380,
      "Ġcovers": 8381,
      "Ġtongue": 8382,
      "Ġswitch": 8383,
      "Ġfaculty": 8384,
      "Ġexamination": 8385,
      "Ġparish": 8386,
      "Ġautre": 8387,
      "Ġgentlemen": 8388,
      "ĠDoctor": 8389,
      "ĠDick": 8390,
      "ĠCentre": 8391,
      "class": 8392,
      "Ġcul": 8393,
      "Ġchart": 8394,
      "Ġhousing": 8395,
      "Ġunn": 8396,
      "phy": 8397,
      "ĠMajesty": 8398,
      "Ġanswers": 8399,
      "Ġrepresents": 8400,
      "Ġtired": 8401,
      "Ġelimin": 8402,
      "Ġabuse": 8403,
      "ĠNetwork": 8404,
      "Ġfought": 8405,
      "ĠIllinois": 8406,
      "Ġliquid": 8407,
      "Ġ|-": 8408,
      "ifies": 8409,
      "ĠAu": 8410,
      "Ġhelpful": 8411,
      "Ġhole": 8412,
      "Ġserves": 8413,
      "Ġremembered": 8414,
      "Ġpuis": 8415,
      "Ġmyster": 8416,
      "Ġkeeps": 8417,
      "198": 8418,
      "ĠMR": 8419,
      "Ġeggs": 8420,
      "Ġnewspaper": 8421,
      "Ġestimated": 8422,
      "IO": 8423,
      "Ġ{": 8424,
      "ocolate": 8425,
      "Ġsubmit": 8426,
      "dam": 8427,
      "ĠFestival": 8428,
      "Ġprofessor": 8429,
      "Ġpermitted": 8430,
      "Ġdow": 8431,
      "Ġcombat": 8432,
      "ĠSant": 8433,
      "à¤": 8434,
      "Ġsuspect": 8435,
      "Ġshooting": 8436,
      "Ġearnest": 8437,
      "Ġplot": 8438,
      "Ġcruel": 8439,
      "ĠCR": 8440,
      "iscop": 8441,
      "Ġtough": 8442,
      "ĠKh": 8443,
      "utter": 8444,
      "zt": 8445,
      "grade": 8446,
      "Ġreprodu": 8447,
      "ounced": 8448,
      "Ġsag": 8449,
      "ahr": 8450,
      "Ġther": 8451,
      "Ġwre": 8452,
      "Ġdates": 8453,
      "irect": 8454,
      "Ġbreaking": 8455,
      "inton": 8456,
      "Ġnouve": 8457,
      "Ġmissed": 8458,
      "SP": 8459,
      "Ġforgotten": 8460,
      "Ġ2022": 8461,
      "ĠLt": 8462,
      "comp": 8463,
      "Ġfancy": 8464,
      "ĠSupreme": 8465,
      "Ġdebate": 8466,
      "ĠTen": 8467,
      "Ġlocations": 8468,
      "ĠBeing": 8469,
      "Ġstones": 8470,
      "Ġ76": 8471,
      "Ġload": 8472,
      "Ġformation": 8473,
      "Ġadapt": 8474,
      "ĠUnd": 8475,
      "Ġgrounds": 8476,
      "ĠSteve": 8477,
      "Ġsorrow": 8478,
      "Ġexcit": 8479,
      "Ġcrop": 8480,
      "enda": 8481,
      "TR": 8482,
      "Ġkick": 8483,
      "Ġviolent": 8484,
      "Ġconvey": 8485,
      "resses": 8486,
      "Ġfingers": 8487,
      "ĠSarah": 8488,
      "ĠSher": 8489,
      "inge": 8490,
      "Ġuncertain": 8491,
      "ĠColumbia": 8492,
      "heast": 8493,
      "Ġtransp": 8494,
      "Ġprofessionals": 8495,
      "agram": 8496,
      "Ġprotest": 8497,
      "low": 8498,
      "Ġexclusive": 8499,
      "Ġpanel": 8500,
      "Ġeleg": 8501,
      "ĠPur": 8502,
      "ĠMean": 8503,
      "Ġmotiv": 8504,
      "Ġattempts": 8505,
      "Ġinvolve": 8506,
      "ĠEner": 8507,
      "ĠLi": 8508,
      "Ġ71": 8509,
      "ĠCreat": 8510,
      "ĠJane": 8511,
      "Ĥ¬": 8512,
      "Ġtrois": 8513,
      "Ġtrained": 8514,
      "Ġvest": 8515,
      "Ġcontemporary": 8516,
      "esome": 8517,
      "ĠUnivers": 8518,
      "Ġrecovery": 8519,
      "ounter": 8520,
      "Ġsolo": 8521,
      "ups": 8522,
      "Ġdepending": 8523,
      "wed": 8524,
      "ĠHotel": 8525,
      "anted": 8526,
      "Ġtale": 8527,
      "ĠAlbert": 8528,
      "hop": 8529,
      "ITH": 8530,
      "Ġsuccessfully": 8531,
      "Ġtemp": 8532,
      "Ġentering": 8533,
      "Ġisol": 8534,
      "ĠCEO": 8535,
      "related": 8536,
      "ĠCastle": 8537,
      "Ġexecution": 8538,
      "Ġplastic": 8539,
      "ji": 8540,
      "Ġ73": 8541,
      "Ġpocket": 8542,
      "Ġintense": 8543,
      "Ġwave": 8544,
      "ĠDist": 8545,
      "ouch": 8546,
      "Ġbrilliant": 8547,
      "inus": 8548,
      "Ġdefence": 8549,
      "Ġflesh": 8550,
      "Ġintr": 8551,
      "Ġprosec": 8552,
      "ĠCA": 8553,
      "ao": 8554,
      "Ġfaster": 8555,
      "ĠDur": 8556,
      "ECT": 8557,
      "Ġshares": 8558,
      "ĠBR": 8559,
      "rank": 8560,
      "Ġburst": 8561,
      "Ġregret": 8562,
      "Ġ1994": 8563,
      "ĠFilm": 8564,
      "Ġnombre": 8565,
      "Ġflying": 8566,
      "leep": 8567,
      "engers": 8568,
      "oys": 8569,
      "Ġenhance": 8570,
      "Ġplane": 8571,
      "IGH": 8572,
      "ĠBesides": 8573,
      "Ġpul": 8574,
      "ĠEqu": 8575,
      "ĠHart": 8576,
      "atio": 8577,
      "Ġliterary": 8578,
      "acked": 8579,
      "Ġslaves": 8580,
      "ĠChristians": 8581,
      "Ġyours": 8582,
      "Ġequival": 8583,
      "imming": 8584,
      "iors": 8585,
      "Ġadds": 8586,
      "Ġattempted": 8587,
      "Ġlunch": 8588,
      "hm": 8589,
      "ĠLL": 8590,
      "Ġpoem": 8591,
      "Ġjed": 8592,
      "Ġadults": 8593,
      "Ġimagination": 8594,
      "Ġrepresentative": 8595,
      "aya": 8596,
      "attered": 8597,
      "wan": 8598,
      "Ġcontext": 8599,
      "Ġdistinction": 8600,
      "âĢĺ": 8601,
      "Ġwoods": 8602,
      "ĠVar": 8603,
      "Ġvital": 8604,
      "organ": 8605,
      "Ġexclaimed": 8606,
      "ienne": 8607,
      "Ġlaughed": 8608,
      "Ġrendered": 8609,
      "ĠEle": 8610,
      "Ġstatements": 8611,
      "Se": 8612,
      "Ġmovements": 8613,
      "Ġalleged": 8614,
      "Ġfert": 8615,
      "ĠNeg": 8616,
      "jet": 8617,
      "Ġpossessed": 8618,
      "Ġsubsequent": 8619,
      "Ġathlet": 8620,
      "Ġpad": 8621,
      "Ġshadow": 8622,
      "Ġcolle": 8623,
      "Ġbitter": 8624,
      "urent": 8625,
      "Ġtests": 8626,
      "Ġmiser": 8627,
      "Ġhabits": 8628,
      "Ġaprs": 8629,
      "Ġsuiv": 8630,
      "Ġweapons": 8631,
      "liest": 8632,
      "ĠMach": 8633,
      "Ġarmed": 8634,
      "Ġenorm": 8635,
      "Ġgli": 8636,
      "Ġadvertising": 8637,
      "Ġsending": 8638,
      "Ġcomposition": 8639,
      "ami": 8640,
      "ĠOd": 8641,
      "state": 8642,
      "Ġentertainment": 8643,
      "father": 8644,
      "ĠChair": 8645,
      "Ġfaithful": 8646,
      "De": 8647,
      "ĠLive": 8648,
      "Ġdecades": 8649,
      "Ġimmense": 8650,
      "Ġblank": 8651,
      "Ġdoch": 8652,
      "ensed": 8653,
      "Ġshout": 8654,
      "Ġcapture": 8655,
      "Ġfifteen": 8656,
      "Ġcotton": 8657,
      "Ġrailway": 8658,
      "ĠPitt": 8659,
      "Ġilleg": 8660,
      "Ġlanguages": 8661,
      "ĠMicrosoft": 8662,
      "ugs": 8663,
      "Ġmassive": 8664,
      "Ġconsequences": 8665,
      "ĠDavis": 8666,
      "OUN": 8667,
      "fle": 8668,
      "ĠEth": 8669,
      "Ġfasc": 8670,
      "Ġingredients": 8671,
      "Ġcents": 8672,
      "Ġprisoners": 8673,
      "NE": 8674,
      "ĠDieu": 8675,
      "Ġasse": 8676,
      "Ġultimately": 8677,
      "ĠSU": 8678,
      "Ġcandidates": 8679,
      "Ġquelque": 8680,
      "ĠBrother": 8681,
      "Ġfir": 8682,
      "Ġconsumers": 8683,
      "ĠHind": 8684,
      "Ġoppon": 8685,
      "Ġainsi": 8686,
      "Ġtypical": 8687,
      "Ġhoriz": 8688,
      "ĠInvest": 8689,
      "Ġgenius": 8690,
      "iour": 8691,
      "ĠRand": 8692,
      "Ġmanufacturing": 8693,
      "Ġarranged": 8694,
      "Ġforever": 8695,
      "Ġfavourite": 8696,
      "uster": 8697,
      "Ġtracks": 8698,
      "ĠStock": 8699,
      "ĠRevolution": 8700,
      "awa": 8701,
      "Ġloyal": 8702,
      "Ġfleet": 8703,
      "Ġeastern": 8704,
      "Ġoc": 8705,
      "Ġobsc": 8706,
      "Ġmerc": 8707,
      "ĠNotes": 8708,
      "Ġhospit": 8709,
      "Ġfright": 8710,
      "Ġavoir": 8711,
      "Ġdesper": 8712,
      "Ġsinging": 8713,
      "ĠMinn": 8714,
      "Ġtiss": 8715,
      "Ġanxiety": 8716,
      "Ġexpenses": 8717,
      "ĠHas": 8718,
      "Ġenforce": 8719,
      "Ġgenuine": 8720,
      "ruck": 8721,
      "Ġinch": 8722,
      "abase": 8723,
      "Ġsolemn": 8724,
      "ĠMother": 8725,
      "yes": 8726,
      "Ġ74": 8727,
      "Ġdemands": 8728,
      "eman": 8729,
      "ĠLind": 8730,
      "Ġseine": 8731,
      "Ġinstances": 8732,
      "gon": 8733,
      "Ġvisiting": 8734,
      "ĠAwards": 8735,
      "ĠVery": 8736,
      "Ġalla": 8737,
      "ingham": 8738,
      "ĠEmperor": 8739,
      "aver": 8740,
      "ĠWithout": 8741,
      "Ġassured": 8742,
      "Ġsacrifice": 8743,
      "grad": 8744,
      "Ġmob": 8745,
      "Ġthoroughly": 8746,
      "!)": 8747,
      "ĠGil": 8748,
      "----------------": 8749,
      "occ": 8750,
      "Ġmovies": 8751,
      "Ġagencies": 8752,
      "Ġpermit": 8753,
      "Ġexists": 8754,
      "Ġbroadcast": 8755,
      "Ġ]": 8756,
      "Ġluck": 8757,
      "sex": 8758,
      "Ġlicense": 8759,
      "iac": 8760,
      "four": 8761,
      "Ġsubmitted": 8762,
      "Ġdrugs": 8763,
      "orters": 8764,
      "Ġpraise": 8765,
      "Ġawarded": 8766,
      "rient": 8767,
      "ĠCub": 8768,
      "actory": 8769,
      "ogy": 8770,
      "Ġbehalf": 8771,
      "ĠHence": 8772,
      "otte": 8773,
      "ĠIX": 8774,
      "SS": 8775,
      "ĠCru": 8776,
      "Ġconsol": 8777,
      "ĠBarb": 8778,
      "Ġliber": 8779,
      "Ġplanet": 8780,
      "Ġapartment": 8781,
      "ĠHope": 8782,
      "Ġassume": 8783,
      "Ġprevail": 8784,
      "ĠLas": 8785,
      "Ġactor": 8786,
      "ĠPlus": 8787,
      "Ġprobable": 8788,
      "Ġobserve": 8789,
      "Ġrecognize": 8790,
      "ĠWatch": 8791,
      "Ġdreams": 8792,
      "Ġrecognition": 8793,
      "Ġpup": 8794,
      "Ġdad": 8795,
      "Ġcastle": 8796,
      "teenth": 8797,
      "iste": 8798,
      "Ġsomewhere": 8799,
      "Ġoccasions": 8800,
      "Ġalg": 8801,
      "Ġdealing": 8802,
      "Ġmehr": 8803,
      "Ġclothing": 8804,
      "iast": 8805,
      "Ġmuseum": 8806,
      "ĠGener": 8807,
      "Ġhook": 8808,
      "ĠDies": 8809,
      "ĠDoug": 8810,
      "assen": 8811,
      "Ġsituated": 8812,
      "die": 8813,
      "cious": 8814,
      "Ġguer": 8815,
      "tha": 8816,
      "Ġoccasionally": 8817,
      "ifer": 8818,
      "Ġfinger": 8819,
      "ĠJudge": 8820,
      "rep": 8821,
      "ichte": 8822,
      "lock": 8823,
      "Ġtoler": 8824,
      "Ġnose": 8825,
      "ouver": 8826,
      "ĠStra": 8827,
      "Ġnewly": 8828,
      "oren": 8829,
      "Ġtas": 8830,
      "ĠCountry": 8831,
      "har": 8832,
      "Ġ250": 8833,
      "Ġanxious": 8834,
      "ĠGesch": 8835,
      "Ġsurf": 8836,
      "Ġlistening": 8837,
      "Ġarrested": 8838,
      "ĠMembers": 8839,
      "foot": 8840,
      "Ġsurgery": 8841,
      "Ġstrengthen": 8842,
      "Ġassumed": 8843,
      "Ġaccomplished": 8844,
      "Ġdepends": 8845,
      "vals": 8846,
      "Ġcet": 8847,
      "ĠBand": 8848,
      "Ġfolks": 8849,
      "rency": 8850,
      "Ġinstalled": 8851,
      "Ġfantastic": 8852,
      "Ġadap": 8853,
      "ancer": 8854,
      "Ġprominent": 8855,
      "ados": 8856,
      "Ġbass": 8857,
      "Go": 8858,
      "Ġaffili": 8859,
      "ĠAvenue": 8860,
      "Ġdistricts": 8861,
      "Ġassert": 8862,
      "ĠChampionship": 8863,
      "MA": 8864,
      "ĠPH": 8865,
      "Ġcleaning": 8866,
      "Ġattach": 8867,
      "ĠFall": 8868,
      "Ġdrinking": 8869,
      "acion": 8870,
      "ĠHamilton": 8871,
      "Ġlikewise": 8872,
      "Ġcomprehensive": 8873,
      "Ġlawyer": 8874,
      "olas": 8875,
      "Ġ81": 8876,
      "Ġpreparation": 8877,
      "Ġorganic": 8878,
      "emon": 8879,
      "ĠLin": 8880,
      "lessly": 8881,
      "Ġarrangement": 8882,
      "Ġregistered": 8883,
      "Ġadvis": 8884,
      "Ġstronger": 8885,
      "xx": 8886,
      "Ġislands": 8887,
      "Ġdei": 8888,
      "ĠRepresent": 8889,
      "aupt": 8890,
      "ĠAk": 8891,
      "ĠRen": 8892,
      "Ġneut": 8893,
      "Ġpainted": 8894,
      "weight": 8895,
      "iae": 8896,
      "Ġpitch": 8897,
      "Ġ1992": 8898,
      "Ġfart": 8899,
      "ova": 8900,
      "ĠAB": 8901,
      "Ġverse": 8902,
      "umni": 8903,
      "Ġceux": 8904,
      "aved": 8905,
      "wy": 8906,
      "ĠBalt": 8907,
      "apped": 8908,
      "ĠExecutive": 8909,
      "Ġchest": 8910,
      "Ġextend": 8911,
      "Ġdrama": 8912,
      "riers": 8913,
      "Ġshock": 8914,
      "Ġconsumer": 8915,
      "abil": 8916,
      "ĠWat": 8917,
      "Ġangry": 8918,
      "Ġraces": 8919,
      "Ġservants": 8920,
      "onto": 8921,
      "Ġ79": 8922,
      "Ġcomponents": 8923,
      "Ġindicated": 8924,
      "Ġcaptured": 8925,
      "Ġtranslation": 8926,
      "IAN": 8927,
      "Ġeverybody": 8928,
      "ĠAnne": 8929,
      "Ġcategory": 8930,
      "Ġalbums": 8931,
      "tery": 8932,
      "oco": 8933,
      "Ġshame": 8934,
      "Ġeccles": 8935,
      "Ġyard": 8936,
      "atri": 8937,
      "Ġengineering": 8938,
      "Ġnerv": 8939,
      "ĠWel": 8940,
      "Ġproducing": 8941,
      "sters": 8942,
      "Ġrespectively": 8943,
      "case": 8944,
      "Ġenterprise": 8945,
      "ĠLater": 8946,
      "arse": 8947,
      "ogs": 8948,
      "Ġrecover": 8949,
      "Ġwholly": 8950,
      "this": 8951,
      "Ġos": 8952,
      "aping": 8953,
      "Ġrecording": 8954,
      "ĠPut": 8955,
      "Ġarbit": 8956,
      "ĠSimon": 8957,
      "ĠNothing": 8958,
      "Ġregister": 8959,
      "Ġtitles": 8960,
      "oqu": 8961,
      "DF": 8962,
      "PH": 8963,
      "ĠCreek": 8964,
      "Ġwinner": 8965,
      "icial": 8966,
      "Ġcrossed": 8967,
      "itage": 8968,
      "ĠPak": 8969,
      "inced": 8970,
      "Ġdiscl": 8971,
      "Ġgifts": 8972,
      "ĠLewis": 8973,
      "Ġresulting": 8974,
      "Ġconcluded": 8975,
      "emp": 8976,
      "yers": 8977,
      "gement": 8978,
      "ologist": 8979,
      "Ġ168": 8980,
      "weg": 8981,
      "ĠMAR": 8982,
      "ĠLeon": 8983,
      "ĠBridge": 8984,
      "Ġsymbol": 8985,
      "Ġvictim": 8986,
      "Ġunp": 8987,
      "ĠHung": 8988,
      "ĠTurk": 8989,
      "ĠFarm": 8990,
      "Ġreaching": 8991,
      "Ġrg": 8992,
      "Ġworn": 8993,
      "Ġdare": 8994,
      "Ġengage": 8995,
      "Ġcant": 8996,
      "ĠBurn": 8997,
      "Ġtil": 8998,
      "Ġconsec": 8999,
      "Ġsecured": 9000,
      "Ġseiner": 9001,
      "ĠIraq": 9002,
      "bat": 9003,
      "urer": 9004,
      "ĠNat": 9005,
      "Ġteen": 9006,
      "Ġ(\"": 9007,
      "Ġadvantages": 9008,
      "Ġqualities": 9009,
      "Ġmagic": 9010,
      "ĠHan": 9011,
      "Ġending": 9012,
      ",)": 9013,
      "Ġpump": 9014,
      "inf": 9015,
      "Ġwand": 9016,
      "Ġcogn": 9017,
      "eling": 9018,
      "Ġ83": 9019,
      "Ġextension": 9020,
      "whel": 9021,
      "enen": 9022,
      "Ġcock": 9023,
      "Ġeu": 9024,
      "Ġquelques": 9025,
      "Ġtreaty": 9026,
      "Ġfriendship": 9027,
      "Ġtempor": 9028,
      "Ġdipl": 9029,
      "VI": 9030,
      "........": 9031,
      "struction": 9032,
      "Ġattorney": 9033,
      "Ġfaut": 9034,
      "Ġpunishment": 9035,
      "jours": 9036,
      "Ġpreserved": 9037,
      "bur": 9038,
      "Ġperspective": 9039,
      "Ġ84": 9040,
      "Ġillness": 9041,
      "Ġsang": 9042,
      "Ġlieu": 9043,
      "arum": 9044,
      "ĠBarn": 9045,
      "Ġschon": 9046,
      "American": 9047,
      "rec": 9048,
      "Ġsuggests": 9049,
      "Ġceremony": 9050,
      "Ġcopies": 9051,
      "Ġdir": 9052,
      "Ġdozen": 9053,
      "Ġprocedure": 9054,
      "Ġwishes": 9055,
      "Ġclim": 9056,
      "âĶĢâĶĢâĶĢâĶĢ": 9057,
      "Ġparallel": 9058,
      "ĠIndeed": 9059,
      "ĠContact": 9060,
      "iis": 9061,
      "Ġeines": 9062,
      "See": 9063,
      "ĠKeep": 9064,
      "ĠIde": 9065,
      "Ġtons": 9066,
      "Ġreck": 9067,
      "ĠQual": 9068,
      "Ġbigger": 9069,
      "ects": 9070,
      "Ġaged": 9071,
      "Ġpremier": 9072,
      "will": 9073,
      "Ġ82": 9074,
      "uits": 9075,
      "Ġfacing": 9076,
      "Ġalign": 9077,
      "Ġbeer": 9078,
      "Ġ97": 9079,
      "ĠRoss": 9080,
      "Ġpace": 9081,
      "Ġrejo": 9082,
      "At": 9083,
      "Ġwen": 9084,
      "Ġphase": 9085,
      "Ġancest": 9086,
      "Ġorn": 9087,
      "Ġreaction": 9088,
      "Ġconstructed": 9089,
      "ĠAC": 9090,
      "ĠShould": 9091,
      "Ġdesert": 9092,
      "Ġefficiency": 9093,
      "berry": 9094,
      "ĠGuard": 9095,
      "Ġvoll": 9096,
      ";\"": 9097,
      "Ġseats": 9098,
      "Ġphrase": 9099,
      "Ġbottle": 9100,
      "Ġpresc": 9101,
      "ĠMuslim": 9102,
      "Ġdying": 9103,
      "Ġpreferred": 9104,
      "ĠEsp": 9105,
      "Ġtopics": 9106,
      "non": 9107,
      "Ġwing": 9108,
      "itus": 9109,
      "Ġpetition": 9110,
      "Ġchamber": 9111,
      "looking": 9112,
      "Ġcontempl": 9113,
      "ĠAst": 9114,
      "ĠSche": 9115,
      "ĠXXX": 9116,
      "Ġspeaks": 9117,
      "Ġbay": 9118,
      "Ġalcohol": 9119,
      "Pl": 9120,
      "Ġdic": 9121,
      "Ġregional": 9122,
      "Ġmachines": 9123,
      "ĠFord": 9124,
      "rac": 9125,
      "Ġconsistent": 9126,
      "Ġcovering": 9127,
      "Ġdismiss": 9128,
      "ĠMoh": 9129,
      "Ġpowder": 9130,
      "rets": 9131,
      "Ġgrie": 9132,
      "ĠBad": 9133,
      "Ġassistant": 9134,
      "Ġsheet": 9135,
      "ĠBooks": 9136,
      "Ġ93": 9137,
      "Now": 9138,
      "vation": 9139,
      "ĠCommer": 9140,
      "ĠMaybe": 9141,
      "Ġroi": 9142,
      "Ġrival": 9143,
      "Ġjurisd": 9144,
      "quarters": 9145,
      "Ġclimb": 9146,
      "ĠFol": 9147,
      "Ġdeliber": 9148,
      "Ġsingles": 9149,
      "Ġbrig": 9150,
      "uther": 9151,
      "ĠCrown": 9152,
      "oves": 9153,
      "Ġ1960": 9154,
      "Ġwithdraw": 9155,
      "Mar": 9156,
      "Ġthereof": 9157,
      "Ġmood": 9158,
      "Ġeffectively": 9159,
      "Ġsect": 9160,
      "Ġhttps": 9161,
      "mont": 9162,
      "hren": 9163,
      "Ġwebsites": 9164,
      "his": 9165,
      "rome": 9166,
      "Ġ87": 9167,
      "Ġdispos": 9168,
      "Ġparte": 9169,
      "Ġneighb": 9170,
      "Sc": 9171,
      "ashed": 9172,
      "Ġcampus": 9173,
      "Ġdefeat": 9174,
      "Ġresolved": 9175,
      "Ġmighty": 9176,
      "Ġprecious": 9177,
      "Ġpip": 9178,
      "kan": 9179,
      "ĠHeaven": 9180,
      "aro": 9181,
      "Ġindicate": 9182,
      "ĠCra": 9183,
      "ĠBat": 9184,
      "oto": 9185,
      "ĠNich": 9186,
      "Ġparticipate": 9187,
      "Ġ89": 9188,
      "Ġfishing": 9189,
      "Ġemployee": 9190,
      "Ġcompanion": 9191,
      "Ġsections": 9192,
      "ographic": 9193,
      "Ġsecondary": 9194,
      "ĠSin": 9195,
      "itated": 9196,
      "Ġ96": 9197,
      "endar": 9198,
      "Ġdescend": 9199,
      "Ġseparated": 9200,
      "ĠThird": 9201,
      "ĠRadio": 9202,
      "Ġsuo": 9203,
      "Ġoperate": 9204,
      "Ġrib": 9205,
      "Ġfare": 9206,
      "ĠIsa": 9207,
      "Ġtiny": 9208,
      "Ġwra": 9209,
      "ĠBudd": 9210,
      "Ġsculpt": 9211,
      "ĠKey": 9212,
      "Ġfundamental": 9213,
      "Ġconfusion": 9214,
      "Ġ1993": 9215,
      "Ġprocessing": 9216,
      "Ġjack": 9217,
      "Ġay": 9218,
      "Ġwurde": 9219,
      "Ġseg": 9220,
      "Ġproceeded": 9221,
      "zed": 9222,
      "ĠNEW": 9223,
      "Ġaircraft": 9224,
      "Ġassault": 9225,
      "Ġpersonally": 9226,
      "Ġpier": 9227,
      "ateur": 9228,
      "Ġsig": 9229,
      "ĠShort": 9230,
      "Ġemotional": 9231,
      "azed": 9232,
      "ources": 9233,
      "ĠTerm": 9234,
      "oker": 9235,
      "Ġappreciate": 9236,
      "ourable": 9237,
      "nie": 9238,
      "Ġhem": 9239,
      "ĠGrant": 9240,
      "Ġmanusc": 9241,
      "ĠFra": 9242,
      "ĠVideo": 9243,
      "Ġaston": 9244,
      "Ġrand": 9245,
      "Ġdrove": 9246,
      "ĠWould": 9247,
      "ĠProm": 9248,
      "ĠMountain": 9249,
      "MAN": 9250,
      "ĠFac": 9251,
      "orte": 9252,
      "ondern": 9253,
      "Ġincreases": 9254,
      "TV": 9255,
      "anguage": 9256,
      "star": 9257,
      "Ġobservation": 9258,
      "ĠRelig": 9259,
      "Ġsingular": 9260,
      "Ġloving": 9261,
      "Ġsignificantly": 9262,
      "Ġjun": 9263,
      "Ġdefinition": 9264,
      "sal": 9265,
      "Ġ86": 9266,
      "ĠPlat": 9267,
      "Ġresource": 9268,
      "Ġreplace": 9269,
      "ĠCape": 9270,
      "Ġmyth": 9271,
      "Ġmagnific": 9272,
      "Ġsinger": 9273,
      "Ġparticipants": 9274,
      "ĠMarc": 9275,
      "ĠWy": 9276,
      "ĠSom": 9277,
      "Ġarchitecture": 9278,
      "Ġcattle": 9279,
      "Ġbelonging": 9280,
      "ĠMult": 9281,
      "weet": 9282,
      "Ġengagement": 9283,
      "Ġprimarily": 9284,
      "ĠCorporation": 9285,
      "Ġrect": 9286,
      "PL": 9287,
      "ĠAns": 9288,
      "Ġacres": 9289,
      "Ġdonc": 9290,
      "anim": 9291,
      "Ġachieved": 9292,
      "usalem": 9293,
      "aughters": 9294,
      "Ġunse": 9295,
      "chief": 9296,
      "ped": 9297,
      "Ġgrate": 9298,
      "Ġtrick": 9299,
      "Ġcheese": 9300,
      "Ġtied": 9301,
      "Ġspin": 9302,
      "Ġautem": 9303,
      "agger": 9304,
      "ĠScript": 9305,
      "lec": 9306,
      "ĠEsq": 9307,
      "Ġnearby": 9308,
      "Ġward": 9309,
      "Ġunh": 9310,
      "ouri": 9311,
      "icket": 9312,
      "Ġmild": 9313,
      "Ġwieder": 9314,
      "Ġstructures": 9315,
      "fen": 9316,
      "orem": 9317,
      "ĠBelg": 9318,
      "Ġcooking": 9319,
      "Ġ101": 9320,
      "Ġelig": 9321,
      "Ġspo": 9322,
      "Ġproposal": 9323,
      "Ġserver": 9324,
      "Ġqueen": 9325,
      "Ġmenu": 9326,
      "onna": 9327,
      "VD": 9328,
      "Ġtack": 9329,
      "Ġlegend": 9330,
      "ĠColorado": 9331,
      "asures": 9332,
      "Ġ110": 9333,
      "Ġunusual": 9334,
      "Ġwooden": 9335,
      "ector": 9336,
      "Ġspecim": 9337,
      "Ġtrem": 9338,
      "Phone": 9339,
      "Ġmoist": 9340,
      "ĠLiter": 9341,
      "idance": 9342,
      "Ġsample": 9343,
      ",,": 9344,
      "ĠStation": 9345,
      "Ġtruck": 9346,
      "ĠMeanwhile": 9347,
      "ifferent": 9348,
      "Ġverd": 9349,
      "Ġkon": 9350,
      "Ġprotein": 9351,
      "pic": 9352,
      "Ġ92": 9353,
      "Ġrice": 9354,
      "Ġexcitement": 9355,
      "Ġhoped": 9356,
      "Ġordin": 9357,
      "ĠAbs": 9358,
      "Ġfestival": 9359,
      "umps": 9360,
      "Ġaug": 9361,
      "Ġsupplied": 9362,
      "Ġcooper": 9363,
      "Ġprime": 9364,
      "ĠConvention": 9365,
      "Ġfame": 9366,
      "Ġartific": 9367,
      "ĠEdition": 9368,
      "Ġmidst": 9369,
      "ĠTable": 9370,
      "ĠGlobal": 9371,
      "irts": 9372,
      "rupted": 9373,
      "QU": 9374,
      "ĠET": 9375,
      "aws": 9376,
      "ĠSmall": 9377,
      "KE": 9378,
      "Ġclinical": 9379,
      "ployment": 9380,
[...]
