{
  "version": "1.0",
  "truncation": null,
  "padding": null,
  "added_tokens": [
    {
      "id": 0,
      "content": "[UNK]",
      "single_word": false,
      "lstrip": false,
      "rstrip": false,
      "normalized": false,
      "special": true
    },
    {
      "id": 1,
      "content": "<|system|>",
      "single_word": false,
      "lstrip": false,
      "rstrip": false,
      "normalized": false,
      "special": true
    },
    {
      "id": 2,
      "content": "<|user|>",
      "single_word": false,
      "lstrip": false,
      "rstrip": false,
      "normalized": false,
      "special": true
    },
    {
      "id": 3,
      "content": "<|assistant|>",
      "single_word": false,
      "lstrip": false,
      "rstrip": false,
      "normalized": false,
      "special": true
    },
    {
      "id": 4,
      "content": "<|end|>",
      "single_word": false,
      "lstrip": false,
      "rstrip": false,
      "normalized": false,
      "special": true
    }
  ],
  "normalizer": null,
  "pre_tokenizer": {
    "type": "ByteLevel",
    "add_prefix_space": false,
    "trim_offsets": true,
    "use_regex": true
  },
  "post_processor": null,
  "decoder": {
    "type": "ByteLevel",
    "add_prefix_space": true,
    "trim_offsets": true,
    "use_regex": true
  },
  "model": {
    "type": "BPE",
    "dropout": null,
    "unk_token": "[UNK]",
    "continuing_subword_prefix": null,
    "end_of_word_suffix": null,
    "fuse_unk": false,
    "byte_fallback": false,
    "ignore_merges": false,
    "vocab": {
      "[UNK]": 0,
      "<|system|>": 1,
      "<|user|>": 2,
      "<|assistant|>": 3,
      "<|end|>": 4,
      "!": 5,
      "\"": 6,
      "#": 7,
      "$": 8,
      "%": 9,
      "&": 10,
      "'": 11,
      "(": 12,
      ")": 13,
      "*": 14,
      "+": 15,
      ",": 16,
      "-": 17,
      ".": 18,
      "/": 19,
      "0": 20,
      "1": 21,
      "2": 22,
      "3": 23,
      "4": 24,
      "5": 25,
      "6": 26,
      "7": 27,
      "8": 28,
      "9": 29,
      ":": 30,
      ";": 31,
      "<": 32,
      "=": 33,
      ">": 34,
      "?": 35,
      "@": 36,
      "A": 37,
      "B": 38,
      "C": 39,
      "D": 40,
      "E": 41,
      "F": 42,
      "G": 43,
      "H": 44,
      "I": 45,
      "J": 46,
      "K": 47,
      "L": 48,
      "M": 49,
      "N": 50,
      "O": 51,
      "P": 52,
      "Q": 53,
      "R": 54,
      "S": 55,
      "T": 56,
      "U": 57,
      "V": 58,
      "W": 59,
      "X": 60,
      "Y": 61,
      "Z": 62,
      "[": 63,
      "\\": 64,
      "]": 65,
      "^": 66,
      "_": 67,
      "`": 68,
      "a": 69,
      "b": 70,
      "c": 71,
      "d": 72,
      "e": 73,
      "f": 74,
      "g": 75,
      "h": 76,
      "i": 77,
      "j": 78,
      "k": 79,
      "l": 80,
      "m": 81,
      "n": 82,
      "o": 83,
      "p": 84,
      "q": 85,
      "r": 86,
      "s": 87,
      "t": 88,
      "u": 89,
      "v": 90,
      "w": 91,
      "x": 92,
      "y": 93,
      "z": 94,
      "{": 95,
      "|": 96,
      "}": 97,
      "~": 98,
      "¡": 99,
      "¢": 100,
      "£": 101,
      "¤": 102,
      "¥": 103,
      "¦": 104,
      "§": 105,
      "¨": 106,
      "©": 107,
      "ª": 108,
      "«": 109,
      "¬": 110,
      "®": 111,
      "¯": 112,
      "°": 113,
      "±": 114,
      "²": 115,
      "³": 116,
      "´": 117,
      "µ": 118,
      "¶": 119,
      "·": 120,
      "¸": 121,
      "¹": 122,
      "º": 123,
      "»": 124,
      "¼": 125,
      "½": 126,
      "¾": 127,
      "¿": 128,
      "Â": 129,
      "Ã": 130,
      "Ä": 131,
      "Å": 132,
      "Æ": 133,
      "Ç": 134,
      "È": 135,
      "É": 136,
      "Ê": 137,
      "Ë": 138,
      "Ì": 139,
      "Í": 140,
      "Î": 141,
      "Ï": 142,
      "Ð": 143,
      "Ñ": 144,
      "Ò": 145,
      "Ó": 146,
      "Ö": 147,
      "×": 148,
      "Ø": 149,
      "Ù": 150,
      "Ú": 151,
      "Û": 152,
      "Ü": 153,
      "à": 154,
      "á": 155,
      "â": 156,
      "ã": 157,
      "ä": 158,
      "å": 159,
      "æ": 160,
      "ç": 161,
      "è": 162,
      "é": 163,
      "ê": 164,
      "ë": 165,
      "ì": 166,
      "í": 167,
      "î": 168,
      "ï": 169,
      "ð": 170,
      "ó": 171,
      "ô": 172,
      "Ā": 173,
      "ā": 174,
      "Ă": 175,
      "ă": 176,
      "Ą": 177,
      "ą": 178,
      "Ć": 179,
      "ć": 180,
      "Ĉ": 181,
      "ĉ": 182,
      "Ċ": 183,
      "ċ": 184,
      "Č": 185,
      "č": 186,
      "Ď": 187,
      "ď": 188,
      "Đ": 189,
      "Ē": 190,
      "ē": 191,
      "Ĕ": 192,
      "Ė": 193,
      "Ę": 194,
      "ę": 195,
      "Ě": 196,
      "ě": 197,
      "ĝ": 198,
      "Ġ": 199,
      "ġ": 200,
      "Ģ": 201,
      "ģ": 202,
      "Ĥ": 203,
      "ĥ": 204,
      "Ħ": 205,
      "ħ": 206,
      "Ĩ": 207,
      "ĩ": 208,
      "Ī": 209,
      "ī": 210,
      "Ĭ": 211,
      "ĭ": 212,
      "Į": 213,
      "į": 214,
      "İ": 215,
      "ı": 216,
      "Ĳ": 217,
      "ĳ": 218,
      "Ĵ": 219,
      "ĵ": 220,
      "Ķ": 221,
      "ķ": 222,
      "ĸ": 223,
      "Ĺ": 224,
      "ĺ": 225,
      "Ļ": 226,
      "ļ": 227,
      "Ľ": 228,
      "ľ": 229,
      "Ŀ": 230,
      "ŀ": 231,
      "Ł": 232,
      "ł": 233,
      "Ń": 234,
      "Ġt": 235,
      "Ġa": 236,
      "ou": 237,
      "in": 238,
      "re": 239,
      "Ġth": 240,
      "Ġw": 241,
      "Ġs": 242,
      "ĠI": 243,
      "at": 244,
      "it": 245,
      "Ġy": 246,
      "er": 247,
      "Ġm": 248,
      "Ġyou": 249,
      "Ġan": 250,
      "ing": 251,
      "Ġh": 252,
      "Ġto": 253,
      "is": 254,
      "Ġb": 255,
      "on": 256,
      "Ġf": 257,
      "an": 258,
      "Ġthe": 259,
      "Ġd": 260,
      "Ġc": 261,
      "or": 262,
      "ll": 263,
      "en": 264,
      "Ġp": 265,
      "Ġl": 266,
      "Ġg": 267,
      "ar": 268,
      "st": 269,
      "Ġo": 270,
      "ve": 271,
      "Ġand": 272,
      "Ġbe": 273,
      "Ġn": 274,
      "ow": 275,
      "om": 276,
      "Ġit": 277,
      "'s": 278,
      "ed": 279,
      "es": 280,
      "el": 281,
      "ch": 282,
      "et": 283,
      "ay": 284,
      "hat": 285,
      "Ġof": 286,
      "ot": 287,
      "Ġin": 288,
      "Ġha": 289,
      "Ġthat": 290,
      "ke": 291,
      "un": 292,
      "ro": 293,
      "You": 294,
      "Ġre": 295,
      "Ġare": 296,
      "ea": 297,
      "ĠB": 298,
      "ut": 299,
      "'m": 300,
      "Ġme": 301,
      "ck": 302,
      "le": 303,
      "Ġfor": 304,
      "ust": 305,
      "out": 306,
      "'t": 307,
      "Ġdo": 308,
      "all": 309,
      "gh": 310,
      "Ġwe": 311,
      "Ġli": 312,
      "Ġgo": 313,
      "ist": 314,
      "ld": 315,
      "Ġj": 316,
      "Ġe": 317,
      "Th": 318,
      "se": 319,
      "im": 320,
      "Ġk": 321,
      "ish": 322,
      "Ġon": 323,
      "al": 324,
      "id": 325,
      "Ġis": 326,
      "as": 327,
      "ith": 328,
      "rit": 329,
      "Ġro": 330,
      "ce": 331,
      "ver": 332,
      "ally": 333,
      "Ġjust": 334,
      "Ġcan": 335,
      "ri": 336,
      "Ġst": 337,
      "Ġso": 338,
      "arch": 339,
      "Ġmy": 340,
      "Ġkn": 341,
      "unk": 342,
      "ere": 343,
      "Ġrock": 344,
      "Ġyour": 345,
      "ĠBrit": 346,
      "ĠBritish": 347,
      "Ġpunk": 348,
      "Ġanarch": 349,
      "Ġanarchist": 350,
      "Ġrocker": 351,
      "Ġwith": 352,
      "Ġab": 353,
      "Ġknow": 354,
      "'re": 355,
      "ĠW": 356,
      "th": 357,
      "Ġhave": 358,
      "nd": 359,
      "ght": 360,
      "ould": 361,
      "ant": 362,
      "Ġwh": 363,
      "Ġu": 364,
      "ion": 365,
      "Ġlike": 366,
      "Ġsom": 367,
      "Ġne": 368,
      "Ġnot": 369,
      "Ġwhat": 370,
      "if": 371,
      "ct": 372,
      "ad": 373,
      "Ġreally": 374,
      "Ġabout": 375,
      "ĠA": 376,
      "od": 377,
      "ent": 378,
      "ĠTh": 379,
      "pp": 380,
      "Ġfe": 381,
      "ry": 382,
      "That": 383,
      "Ġdon": 384,
      "Ġlo": 385,
      "Ġwas": 386,
      "Ġsu": 387,
      "ĠS": 388,
      "Ġwor": 389,
      "ly": 390,
      "ell": 391,
      "king": 392,
      "ĠIt": 393,
      "Ġse": 394,
      "ank": 395,
      "Ġsh": 396,
      "Ġbeen": 397,
      "Ġthis": 398,
      "am": 399,
      "Ġwant": 400,
      "ake": 401,
      "ir": 402,
      "ore": 403,
      "eah": 404,
      "Ġthin": 405,
      "Ġfeel": 406,
      "Yeah": 407,
      "ey": 408,
      "ill": 409,
      "Ġal": 410,
      "reat": 411,
      "Ġout": 412,
      "ic": 413,
      "Ġup": 414,
      "Ġbut": 415,
      "ound": 416,
      "Ġas": 417,
      "ĠYou": 418,
      "ĠH": 419,
      "Ġany": 420,
      "'ve": 421,
      "Ġall": 422,
      "'ll": 423,
      "our": 424,
      "ĠM": 425,
      "eth": 426,
      "Ġsee": 427,
      "Ġget": 428,
      "ter": 429,
      "Ġcom": 430,
      "ely": 431,
      "Ġde": 432,
      "Ġgood": 433,
      "end": 434,
      "Ġif": 435,
      "Ġthink": 436,
      "op": 437,
      "ul": 438,
      "ess": 439,
      "Ġat": 440,
      "us": 441,
      "ĠBut": 442,
      "ble": 443,
      "and": 444,
      "ime": 445,
      "very": 446,
      "ain": 447,
      "Ġpl": 448,
      "Ġsome": 449,
      "Ġgreat": 450,
      "Ġhel": 451,
      "Ġhe": 452,
      "ol": 453,
      "art": 454,
      "Ġhelp": 455,
      "Ġthere": 456,
      "Ġgoing": 457,
      "Ġch": 458,
      "ind": 459,
      "Ġhow": 460,
      "ur": 461,
      "Ġex": 462,
      "Ġtoo": 463,
      "way": 464,
      "Ġor": 465,
      "Ġpro": 466,
      "rom": 467,
      "thing": 468,
      "ra": 469,
      "Ġtime": 470,
      "Ġwould": 471,
      "Well": 472,
      "ate": 473,
      "right": 474,
      "ĠC": 475,
      "ard": 476,
      "ough": 477,
      "uch": 478,
      "ĠJ": 479,
      "ge": 480,
      "Ġneed": 481,
      "ĠD": 482,
      "ĠL": 483,
      "Ġhapp": 484,
      "ie": 485,
      "Ġmuch": 486,
      "ings": 487,
      "Ġcon": 488,
      "one": 489,
      "Hey": 490,
      "ĠWhat": 491,
      "anks": 492,
      "fe": 493,
      "ure": 494,
      "Ġhere": 495,
      "Ġdid": 496,
      "il": 497,
      "Ġnow": 498,
      "Ġun": 499,
      "ive": 500,
      "Ġlot": 501,
      "Ġmake": 502,
      "Ġmore": 503,
      "ething": 504,
      "Ġcould": 505,
      "ort": 506,
      "ers": 507,
      "ight": 508,
      "ation": 509,
      "Ġloo": 510,
      "are": 511,
      "Ġsomething": 512,
      "ĠAnd": 513,
      "Ġsure": 514,
      "Ġfrom": 515,
      "Ġwork": 516,
      "..": 517,
      "ways": 518,
      "Ġwill": 519,
      "Ġalways": 520,
      "ss": 521,
      "Ġtal": 522,
      "--": 523,
      "Ġthey": 524,
      "ong": 525,
      "Ġsound": 526,
      "It": 527,
      "Ġright": 528,
      "ci": 529,
      "Ġlove": 530,
      "ig": 531,
      "ome": 532,
      "Ġone": 533,
      "Ġevery": 534,
      "der": 535,
      "Ġtry": 536,
      "Ġsp": 537,
      "ep": 538,
      "Ġen": 539,
      "ue": 540,
      "kay": 541,
      "Ġno": 542,
      "ĠP": 543,
      "Ġus": 544,
      "ine": 545,
      "ĠWe": 546,
      "Ġdoing": 547,
      "ak": 548,
      "Ġthings": 549,
      "Ġint": 550,
      "Ġr": 551,
      "nt": 552,
      "Ġsounds": 553,
      "sel": 554,
      "Ġway": 555,
      "Ġam": 556,
      "ice": 557,
      "Ġv": 558,
      "Ġthem": 559,
      "au": 560,
      "Ġwhen": 561,
      "Ġim": 562,
      "ven": 563,
      "ame": 564,
      "No": 565,
      "oth": 566,
      "Ġour": 567,
      "Ġthen": 568,
      "Ġtr": 569,
      "Ġmean": 570,
      "ĠF": 571,
      "Ġfa": 572,
      "âĢ": 573,
      "ear": 574,
      "Ġsa": 575,
      "Ġpre": 576,
      "Ġbet": 577,
      "self": 578,
      "ĠĠ": 579,
      "Ġgl": 580,
      "ĠT": 581,
      "Ġby": 582,
      "Ġlet": 583,
      "Ġtake": 584,
      "ous": 585,
      "Ġoth": 586,
      "ĠE": 587,
      "ĠSo": 588,
      "Ġag": 589,
      "eop": 590,
      "eople": 591,
      "Ġar": 592,
      "Ġnew": 593,
      "Ġwere": 594,
      "Ġanything": 595,
      "ĠJust": 596,
      "ĠThe": 597,
      "orry": 598,
      "Ġmo": 599,
      "riend": 600,
      "Ġapp": 601,
      "ack": 602,
      "Ġtalk": 603,
      "fin": 604,
      "Ġstart": 605,
      "be": 606,
      "Ġlook": 607,
      "ving": 608,
      "ect": 609,
      "Ġhad": 610,
      "ting": 611,
      "Ġwhi": 612,
      "Ġwho": 613,
      "Ġpeople": 614,
      "finit": 615,
      "What": 616,
      "Ġhis": 617,
      "Ġpo": 618,
      "Ġher": 619,
      "ĠHow": 620,
      "Ġday": 621,
      "Ġsorry": 622,
      "Ġglad": 623,
      "em": 624,
      "oy": 625,
      "finitely": 626,
      "qu": 627,
      "Ġco": 628,
      "Ġfriend": 629,
      "ĠO": 630,
      "ast": 631,
      "ĠG": 632,
      "Ġhim": 633,
      "Ġman": 634,
      "ath": 635,
      "ity": 636,
      "Ġlife": 637,
      "Ġwell": 638,
      "Ġother": 639,
      "day": 640,
      "Ġshould": 641,
      "Ġdefinitely": 642,
      "Ġimp": 643,
      "Ġhappen": 644,
      "um": 645,
      "Ġunder": 646,
      "Ġsay": 647,
      "ful": 648,
      "Ġbetter": 649,
      "ause": 650,
      "iff": 651,
      "Ġthou": 652,
      "aybe": 653,
      "ose": 654,
      "Ġgu": 655,
      "Ġhas": 656,
      "ĠN": 657,
      "ang": 658,
      "Ġexp": 659,
      "ies": 660,
      "Ġcl": 661,
      "Ġhappy": 662,
      "own": 663,
      "Ġlat": 664,
      "akes": 665,
      "itt": 666,
      "Ġke": 667,
      "Ġdiff": 668,
      "hy": 669,
      "Ġagain": 670,
      "Ġhard": 671,
      "Ġover": 672,
      "Oh": 673,
      "pt": 674,
      "ide": 675,
      "Ġbec": 676,
      "Ġfun": 677,
      "ĠR": 678,
      "Yes": 679,
      "ĠThat": 680,
      "Ġeverything": 681,
      "ud": 682,
      "Ġwanted": 683,
      "ĠThanks": 684,
      "ieve": 685,
      "Ġfo": 686,
      "ead": 687,
      "Ġfind": 688,
      "aking": 689,
      "ty": 690,
      "stand": 691,
      "blem": 692,
      "Ġbel": 693,
      "Ġcare": 694,
      "ag": 695,
      "able": 696,
      "Ġproblem": 697,
      "imes": 698,
      "ire": 699,
      "ass": 700,
      "ittle": 701,
      "eal": 702,
      "Ġunderstand": 703,
      "âĢĻ": 704,
      "ff": 705,
      "Ġcome": 706,
      "Ġlittle": 707,
      "Ġea": 708,
      "Ġel": 709,
      "Ġtoday": 710,
      "Ġcour": 711,
      "Ġokay": 712,
      "ob": 713,
      "Ġcomp": 714,
      "Ġad": 715,
      "Ġshe": 716,
      "ether": 717,
      "Ġlately": 718,
      "Ġback": 719,
      "ĠDo": 720,
      "Ġdoes": 721,
      "Ġnever": 722,
      "Ġappre": 723,
      "ions": 724,
      "Ġkeep": 725,
      "wn": 726,
      "Ġbeing": 727,
      "ment": 728,
      "ĠLet": 729,
      "Ġappreci": 730,
      "Ġtell": 731,
      "ace": 732,
      "Ġdidn": 733,
      "Thank": 734,
      "ance": 735,
      "Ġbo": 736,
      "Ġgr": 737,
      "Ġfeeling": 738,
      "Ġthr": 739,
      "Ġdiffere": 740,
      "ence": 741,
      "ise": 742,
      "Ġoff": 743,
      "...": 744,
      "cc": 745,
      "ress": 746,
      "Ġtheir": 747,
      "Ġappreciate": 748,
      "joy": 749,
      "Ġfriends": 750,
      "Ġbest": 751,
      "ĠK": 752,
      "Ġbelieve": 753,
      "fore": 754,
      "Okay": 755,
      "os": 756,
      "Ġenjoy": 757,
      "Ġinto": 758,
      "'d": 759,
      "Ġmad": 760,
      "gether": 761,
      "Ġ(": 762,
      "Ġvery": 763,
      "Ġcourse": 764,
      "Ġact": 765,
      "ick": 766,
      "Ġeven": 767,
      "ap": 768,
      "Thanks": 769,
      "irst": 770,
      "Ġthan": 771,
      "Ġtogether": 772,
      "Ġthinking": 773,
      "age": 774,
      "Ġid": 775,
      "ning": 776,
      "Hi": 777,
      "Ġread": 778,
      "Ġdown": 779,
      "Ġbecause": 780,
      "Ġmon": 781,
      "Ġplay": 782,
      "So": 783,
      "ah": 784,
      "Ġper": 785,
      "Ġwon": 786,
      "Ġgot": 787,
      "ab": 788,
      "Ġseem": 789,
      "act": 790,
      "Ġrel": 791,
      "Ġelse": 792,
      "Ġthrough": 793,
      "est": 794,
      "Ġgive": 795,
      "Ġpr": 796,
      "Ġthought": 797,
      "Ġpart": 798,
      "Ġaf": 799,
      "ite": 800,
      "Ġmight": 801,
      "ber": 802,
      "Ġpret": 803,
      "Ġ\"": 804,
      "az": 805,
      "Ġlong": 806,
      "iz": 807,
      "Ġstill": 808,
      "Ġlooking": 809,
      "so": 810,
      "Ġbefore": 811,
      "Ġguess": 812,
      "we": 813,
      "eri": 814,
      "Ġbr": 815,
      "etimes": 816,
      "Ġjob": 817,
      "rong": 818,
      "Ġable": 819,
      "Ġfin": 820,
      "Ġ1": 821,
      "Ġsuch": 822,
      "ually": 823,
      "Ġmakes": 824,
      "ok": 825,
      "Ġwhy": 826,
      "Ġbus": 827,
      "Ġgetting": 828,
      "Ġhome": 829,
      "other": 830,
      "Ġpretty": 831,
      "Ġaround": 832,
      "But": 833,
      "ĠWh": 834,
      "Ġwhere": 835,
      "ave": 836,
      "Ġqu": 837,
      "Ġidea": 838,
      "ily": 839,
      "Ġsc": 840,
      "Ġfirst": 841,
      ".\"": 842,
      "Ġwhich": 843,
      "Ġimport": 844,
      "Ġmade": 845,
      "Ġhear": 846,
      "ood": 847,
      "Ġhop": 848,
      "fect": 849,
      "Ġkind": 850,
      "Ġlea": 851,
      "Ġtrying": 852,
      "ĠThis": 853,
      "erest": 854,
      "Ġwhile": 855,
      "Ġown": 856,
      "ord": 857,
      "Ġmat": 858,
      "Ġyourself": 859,
      "ces": 860,
      "sp": 861,
      "ree": 862,
      "Ġimportant": 863,
      "ult": 864,
      "ĠThere": 865,
      "Of": 866,
      "hing": 867,
      "bs": 868,
      "ip": 869,
      "Ġmyself": 870,
      "Ġdifferent": 871,
      "Ġdone": 872,
      "Ġinterest": 873,
      "Ġalso": 874,
      "Ġbl": 875,
      "Not": 876,
      "Ġtough": 877,
      "ations": 878,
      "Ġdis": 879,
      "Ġdec": 880,
      "Ġnice": 881,
      "Ġamaz": 882,
      "Ġlear": 883,
      "Ġcont": 884,
      "Ġthank": 885,
      "Ġfew": 886,
      "xt": 887,
      "Ġamazing": 888,
      "Ġplace": 889,
      "ease": 890,
      "iss": 891,
      "Ġworld": 892,
      "Ġmaybe": 893,
      "ach": 894,
      "Ġbig": 895,
      "Ġexc": 896,
      "Ġthing": 897,
      "ĠSh": 898,
      "ible": 899,
      "Ġworking": 900,
      "Ġsaid": 901,
      "Ġsch": 902,
      "ec": 903,
      "int": 904,
      "Ġrem": 905,
      "Ġmust": 906,
      "Ġhand": 907,
      "uck": 908,
      "Ġdes": 909,
      "ool": 910,
      "Ġsometimes": 911,
      "Ġsupp": 912,
      "orm": 913,
      "Why": 914,
      "Ġput": 915,
      "Ġsm": 916,
      "olut": 917,
      "Ġpers": 918,
      "Ġfeels": 919,
      "atch": 920,
      "Ġend": 921,
      "ried": 922,
      "Ġever": 923,
      "Ġmind": 924,
      "Ġmost": 925,
      "Ġfam": 926,
      "Ġcar": 927,
      "ount": 928,
      "ather": 929,
      "ull": 930,
      "ever": 931,
      "ves": 932,
      "Ġbit": 933,
      "ĠThey": 934,
      "Ġnothing": 935,
      "ange": 936,
      "Ġsame": 937,
      "ĠPl": 938,
      "ating": 939,
      "ward": 940,
      "Ġfl": 941,
      "Ġsomeone": 942,
      "Ġstay": 943,
      "Ġafter": 944,
      "Ġhappened": 945,
      "Ġyear": 946,
      "ru": 947,
      "ated": 948,
      "ax": 949,
      "ark": 950,
      "Ġthese": 951,
      "Ġhur": 952,
      "ary": 953,
      "ef": 954,
      "ng": 955,
      "urn": 956,
      "Ġonly": 957,
      "ory": 958,
      "Ġthose": 959,
      "Ġhang": 960,
      "red": 961,
      "Ġmoney": 962,
      "Ġschool": 963,
      "ĠHe": 964,
      "Ġtalking": 965,
      "Ġwrong": 966,
      "olutely": 967,
      "Ġaway": 968,
      "iv": 969,
      "ince": 970,
      "Ġdoesn": 971,
      "Ġtw": 972,
      "Ġplan": 973,
      "Ġmatter": 974,
      "Ġtrue": 975,
      "Ġeach": 976,
      "ense": 977,
      "Ġexcit": 978,
      "ĠIf": 979,
      "Ġenough": 980,
      "The": 981,
      "ek": 982,
      "ild": 983,
      "pl": 984,
      "Ġshow": 985,
      "ign": 986,
      "que": 987,
      "Ġmaking": 988,
      "Ġuse": 989,
      "come": 990,
      "ons": 991,
      "Ġmeet": 992,
      "ia": 993,
      "Ġwithout": 994,
      "ĠĠĠĠ": 995,
      "ĠMom": 996,
      "Ġacc": 997,
      "ait": 998,
      "igh": 999,
      "ert": 1000,
      "Ġmay": 1001,
      "Ġlearn": 1002,
      "ject": 1003,
      "Ġbad": 1004,
      "Ġthanks": 1005,
      "Ġ'": 1006,
      "arah": 1007,
      "wh": 1008,
      "Ġhope": 1009,
      "Ġmeans": 1010,
      "Ġperson": 1011,
      "ors": 1012,
      "Ġfamily": 1013,
      "ĠMy": 1014,
      "Ġyet": 1015,
      "Ġhurt": 1016,
      "bsolutely": 1017,
      "Absolutely": 1018,
      "Ġprom": 1019,
      "Ġbre": 1020,
      "sh": 1021,
      "Ġcomm": 1022,
      "Ġnext": 1023,
      "vel": 1024,
      "ouse": 1025,
      "Ġhaving": 1026,
      "ĠIn": 1027,
      "We": 1028,
      "og": 1029,
      "Ġfine": 1030,
      "Ġinc": 1031,
      "ond": 1032,
      "Ġcall": 1033,
      "Ġweek": 1034,
      "ady": 1035,
      "aut": 1036,
      "Ġtea": 1037,
      "vent": 1038,
      "Ġmany": 1039,
      "Ġmom": 1040,
      "Ġstu": 1041,
      "Ġcoming": 1042,
      "ĠMaybe": 1043,
      "Ġtaking": 1044,
      "Ġsit": 1045,
      "elcome": 1046,
      "Ġplease": 1047,
      "Ġworry": 1048,
      "ĠThank": 1049,
      "ember": 1050,
      "Ġbusy": 1051,
      "Ġactually": 1052,
      "Ġshall": 1053,
      "Ġeas": 1054,
      "Ġwait": 1055,
      "Ġsoon": 1056,
      "Ġold": 1057,
      "Ġche": 1058,
      "Ġatt": 1059,
      "Ġswe": 1060,
      "Ġsince": 1061,
      "Ġeveryone": 1062,
      "ĠCan": 1063,
      "Ġthough": 1064,
      "Ġperfect": 1065,
      "ens": 1066,
      "Ġboth": 1067,
      "vor": 1068,
      "Ġtwo": 1069,
      "ny": 1070,
      "Ġbeaut": 1071,
      "Ġbu": 1072,
      "Ġop": 1073,
      "ac": 1074,
      "ition": 1075,
      "Ġask": 1076,
      "Wow": 1077,
      "Ġlooks": 1078,
      "ian": 1079,
      "oud": 1080,
      "les": 1081,
      "Ġwelcome": 1082,
      "ious": 1083,
      "Ġset": 1084,
      "Ġworth": 1085,
      "Ġrelax": 1086,
      "nce": 1087,
      "Ġlast": 1088,
      "Ġhead": 1089,
      "Ġfar": 1090,
      "Ġcons": 1091,
      "ved": 1092,
      "Ġem": 1093,
      "Ġsense": 1094,
      "ual": 1095,
      "Ġhouse": 1096,
      "actly": 1097,
      "ĠCh": 1098,
      "iness": 1099,
      "Ġfinally": 1100,
      "ĠHave": 1101,
      "Ġwonder": 1102,
      "Ġremember": 1103,
      "Ġrec": 1104,
      "Ġ2": 1105,
      "Ġlist": 1106,
      "Ġreal": 1107,
      "cus": 1108,
      "Ġwish": 1109,
      "Ġmiss": 1110,
      "row": 1111,
      "form": 1112,
      "Ġbook": 1113,
      "ne": 1114,
      "ten": 1115,
      "Ġdr": 1116,
      "du": 1117,
      "Ġready": 1118,
      "Ġfig": 1119,
      "Ġused": 1120,
      "ĠPlus": 1121,
      "Ġposs": 1122,
      "Ġfavor": 1123,
      "ike": 1124,
      "Ġhanging": 1125,
      "Ġcle": 1126,
      "Ġdeal": 1127,
      "Sure": 1128,
      "pe": 1129,
      "ĠSarah": 1130,
      "Ġchange": 1131,
      "ail": 1132,
      "Ġtra": 1133,
      "Ġforg": 1134,
      "ents": 1135,
      "Ġca": 1136,
      "llow": 1137,
      "ĠAre": 1138,
      "Ġspend": 1139,
      "Ġwal": 1140,
      "Ġfi": 1141,
      "Ġexperi": 1142,
      "cial": 1143,
      "Ġfigure": 1144,
      "Ġwrit": 1145,
      "Ġyears": 1146,
      "Ġconf": 1147,
      "ract": 1148,
      "Ġfound": 1149,
      "Ġstuff": 1150,
      "Ġpass": 1151,
      "Ex": 1152,
      "Ġpain": 1153,
      "gg": 1154,
      "Ġra": 1155,
      "Ġres": 1156,
      "Ġrun": 1157,
      "Ġsweet": 1158,
      "Ġexpl": 1159,
      "ew": 1160,
      "Ġfr": 1161,
      "ness": 1162,
      "erv": 1163,
      "Ġstarted": 1164,
      "ple": 1165,
      "Ġnight": 1166,
      "als": 1167,
      "ĠV": 1168,
      "old": 1169,
      "Ġsaw": 1170,
      "ĠNow": 1171,
      "any": 1172,
      "iful": 1173,
      "Ġpay": 1174,
      "eas": 1175,
      "ĠIs": 1176,
      "Ġclass": 1177,
      "ĠWhy": 1178,
      "ĠFor": 1179,
      "ĠSt": 1180,
      "Ġexcited": 1181,
      "ĠTo": 1182,
      "ier": 1183,
      "ib": 1184,
      "ream": 1185,
      "Ġstud": 1186,
      "Ġear": 1187,
      "Ġthy": 1188,
      "ork": 1189,
      "And": 1190,
      "per": 1191,
      "Ġimag": 1192,
      "Ġanyone": 1193,
      "Ġpoint": 1194,
      "Ġsl": 1195,
      "Ġseems": 1196,
      "Ġcho": 1197,
      "ee": 1198,
      "Just": 1199,
      "Ġbeautiful": 1200,
      "Ġluck": 1201,
      "ical": 1202,
      "Ġbreak": 1203,
      "Ġresp": 1204,
      "Ġsw": 1205,
      "mm": 1206,
      "quest": 1207,
      "Ġgi": 1208,
      "ling": 1209,
      "Ġfavorite": 1210,
      "How": 1211,
      "Ġart": 1212,
      "ither": 1213,
      "Ġsupport": 1214,
      "Ġmove": 1215,
      "00": 1216,
      "Ġsec": 1217,
      "Ġboss": 1218,
      "ired": 1219,
      "Ġpromise": 1220,
      "Ġcreat": 1221,
      "Ġenjoying": 1222,
      "side": 1223,
      "Ġcame": 1224,
      "Ġinterested": 1225,
      "Ġsk": 1226,
      "Ġinst": 1227,
      ".)": 1228,
      "Ġtri": 1229,
      "ealth": 1230,
      "Ġseen": 1231,
      "ific": 1232,
      "more": 1233,
      "Do": 1234,
      "Ġchar": 1235,
      "Ġanother": 1236,
      "ile": 1237,
      "Ġadv": 1238,
      "ular": 1239,
      "Ġrest": 1240,
      "ower": 1241,
      "ner": 1242,
      "Al": 1243,
      "Ġits": 1244,
      "Ġlive": 1245,
      "eak": 1246,
      "ret": 1247,
      "Ġleave": 1248,
      "Ġname": 1249,
      "ial": 1250,
      "ost": 1251,
      "ction": 1252,
      "cess": 1253,
      "Ġey": 1254,
      "Ġmus": 1255,
      "Ġind": 1256,
      "Ġturn": 1257,
      "Ġfocus": 1258,
      "Ġwent": 1259,
      "ds": 1260,
      "Ġproud": 1261,
      "Ġeasy": 1262,
      "Ġonce": 1263,
      "Ġnat": 1264,
      "fort": 1265,
      "ĠQ": 1266,
      "Ġproject": 1267,
      "ink": 1268,
      "Ġalone": 1269,
      "ident": 1270,
      "Ġanymore": 1271,
      "Ġstand": 1272,
      "Ġheart": 1273,
      "ĠYour": 1274,
      "ph": 1275,
      "night": 1276,
      "Ġthee": 1277,
      "ied": 1278,
      "Ġhaven": 1279,
      "ered": 1280,
      "ready": 1281,
      "ĠShe": 1282,
      "ĠMr": 1283,
      "Ġpos": 1284,
      "Ġbusiness": 1285,
      "ater": 1286,
      "Ġquest": 1287,
      "Ġlisten": 1288,
      "ody": 1289,
      "ĠU": 1290,
      "ying": 1291,
      "less": 1292,
      "Ġalready": 1293,
      "Ġimagine": 1294,
      "ans": 1295,
      "Ġtrou": 1296,
      "ared": 1297,
      "Ġpres": 1298,
      "Ġpossible": 1299,
      "Ġexperience": 1300,
      "Ġrep": 1301,
      "air": 1302,
      "ures": 1303,
      "oh": 1304,
      "Ġfood": 1305,
      "Ġspe": 1306,
      "aught": 1307,
      "ash": 1308,
      "Ġsir": 1309,
      "Ġcompany": 1310,
      "Ġsur": 1311,
      "Ġfollow": 1312,
      "ertain": 1313,
      "Ġisn": 1314,
      "Ġwatch": 1315,
      "Ġ[": 1316,
      "ities": 1317,
      "Ġasking": 1318,
      "Ġinteresting": 1319,
      "ize": 1320,
      "erm": 1321,
      "Ġcool": 1322,
      "ub": 1323,
      "aw": 1324,
      "ĠY": 1325,
      "ict": 1326,
      "Ġcomes": 1327,
      "Ġfut": 1328,
      "ener": 1329,
      "ock": 1330,
      "Ġcompl": 1331,
      "Ġbeh": 1332,
      "ife": 1333,
      "Wh": 1334,
      "hip": 1335,
      "Ġle": 1336,
      "Ġstop": 1337,
      "Ġfuture": 1338,
      "orrow": 1339,
      "vers": 1340,
      "Ġdecis": 1341,
      "Ġmist": 1342,
      "Ġcareful": 1343,
      "ĠEvery": 1344,
      "Ġmusic": 1345,
      "Ġhigh": 1346,
      "cept": 1347,
      "Ġlost": 1348,
      "Ġmar": 1349,
      "ute": 1350,
      "eft": 1351,
      "Ġstarting": 1352,
      "Ġtimes": 1353,
      "erve": 1354,
      "Ġstr": 1355,
      "Ġhealth": 1356,
      "Ġroom": 1357,
      "Ġcheck": 1358,
      "Ġcount": 1359,
      "Ġmin": 1360,
      "ought": 1361,
      "Ġchild": 1362,
      "iet": 1363,
      "Ġfair": 1364,
      "ys": 1365,
      "av": 1366,
      "ween": 1367,
      "Ġleft": 1368,
      "ĠAs": 1369,
      "elt": 1370,
      "Ġopen": 1371,
      "Ġchance": 1372,
      "Ġwalk": 1373,
      "ĠĠĠ": 1374,
      "set": 1375,
      "Ġph": 1376,
      "Ġhon": 1377,
      "cer": 1378,
      "Ġunt": 1379,
      "ering": 1380,
      "Ġ3": 1381,
      "Great": 1382,
      "Ġliving": 1383,
      "Ġtrouble": 1384,
      "ĠNo": 1385,
      "ĠWell": 1386,
      "uth": 1387,
      "ĠâĢ": 1388,
      "Ġson": 1389,
      "ccess": 1390,
      "Alright": 1391,
      "lly": 1392,
      "Ġothers": 1393,
      "Ġstress": 1394,
      "Ġadd": 1395,
      "Ġtrust": 1396,
      "Ġang": 1397,
      "Ġ-": 1398,
      "Ġopp": 1399,
      "Ġwom": 1400,
      "Ġopt": 1401,
      "Ġ*": 1402,
      "Ġcoll": 1403,
      "Ġac": 1404,
      "Ġpur": 1405,
      "where": 1406,
      "Ġwondering": 1407,
      "Ġdifference": 1408,
      "Ġ.": 1409,
      "Ġbetween": 1410,
      "Ġdri": 1411,
      "Ġconsid": 1412,
      "Ġte": 1413,
      "Ġforward": 1414,
      "Ġevent": 1415,
      "he": 1416,
      "Ġent": 1417,
      "arent": 1418,
      "Ġstrong": 1419,
      "ctor": 1420,
      "Ġsuccess": 1421,
      "led": 1422,
      "Ġwar": 1423,
      "ility": 1424,
      "ced": 1425,
      "ounds": 1426,
      "leep": 1427,
      "ably": 1428,
      "This": 1429,
      "Ġkid": 1430,
      "Ġexam": 1431,
      "Ġheard": 1432,
      "ont": 1433,
      "Ġfall": 1434,
      "ustr": 1435,
      "Ġfight": 1436,
      "ecause": 1437,
      "ich": 1438,
      "Ġfather": 1439,
      "Ġdays": 1440,
      "Ġdet": 1441,
      "onest": 1442,
      "ates": 1443,
      "Ġwhatever": 1444,
      "Ġaw": 1445,
      "ĠWhen": 1446,
      "Ġleast": 1447,
      "na": 1448,
      "Ġdep": 1449,
      "Ġsy": 1450,
      "irl": 1451,
      "unity": 1452,
      "Ġreg": 1453,
      "ished": 1454,
      "Ġmonth": 1455,
      "Ġworried": 1456,
      "Ġmor": 1457,
      "Ġfore": 1458,
      "gr": 1459,
      "Ġplaying": 1460,
      "Ġdream": 1461,
      "Ġlight": 1462,
      "ention": 1463,
      "Ġwater": 1464,
      "Ġteam": 1465,
      "Ġsmall": 1466,
      "its": 1467,
      "ides": 1468,
      "ude": 1469,
      "ĠGod": 1470,
      "Ġap": 1471,
      "Ġcouldn": 1472,
      "Fine": 1473,
      "Ġhour": 1474,
      "Ġcity": 1475,
      "itive": 1476,
      "Ġsim": 1477,
      "There": 1478,
      "----": 1479,
      "Ġchang": 1480,
      "Ġyoung": 1481,
      "Ġfre": 1482,
      "Ġupon": 1483,
      "Ġ$": 1484,
      "Ġvis": 1485,
      "osed": 1486,
      "Ġret": 1487,
      "Exactly": 1488,
      "Ġgra": 1489,
      "vie": 1490,
      "Ġoften": 1491,
      "Ġcal": 1492,
      "Ġgrow": 1493,
      "ft": 1494,
      "app": 1495,
      "Ġgame": 1496,
      "erious": 1497,
      "Ġprodu": 1498,
      "Ġpri": 1499,
      "Ġwasn": 1500,
      "Ġdel": 1501,
      "work": 1502,
      "Ġimpro": 1503,
      "Ġfelt": 1504,
      "Ġgone": 1505,
      "Ġreas": 1506,
      "Ġinv": 1507,
      "Me": 1508,
      "Ġhum": 1509,
      "ren": 1510,
      "Ġinter": 1511,
      "Ġalright": 1512,
      "sw": 1513,
      "Ġpract": 1514,
      "Ġlate": 1515,
      "ove": 1516,
      "ient": 1517,
      "Ġtest": 1518,
      "Ġtried": 1519,
      "ully": 1520,
      "Ġcontro": 1521,
      "Ġsel": 1522,
      "ush": 1523,
      "ER": 1524,
      "Ġclose": 1525,
      "Ġloved": 1526,
      "Ġmed": 1527,
      "orn": 1528,
      "Ġstru": 1529,
      "Ġsitu": 1530,
      "Ġusual": 1531,
      "Ġgirl": 1532,
      "aid": 1533,
      "Ġwhole": 1534,
      "Ġfrustr": 1535,
      "Ġwin": 1536,
      "Ġstep": 1537,
      "Ġext": 1538,
      "Ġcatch": 1539,
      "ase": 1540,
      "Ġtonight": 1541,
      "ided": 1542,
      "Ġspec": 1543,
      "man": 1544,
      "olog": 1545,
      "Ġmod": 1546,
      "Ġeither": 1547,
      "Ġty": 1548,
      "Ġdiffic": 1549,
      "Don": 1550,
      "Ġtired": 1551,
      "ĠSom": 1552,
      "Ġval": 1553,
      "up": 1554,
      "Ġbas": 1555,
      "res": 1556,
      "Ġparent": 1557,
      "ars": 1558,
      "Ġuntil": 1559,
      "Ġcur": 1560,
      "Ġcol": 1561,
      "ming": 1562,
      "Good": 1563,
      "bably": 1564,
      "Ġass": 1565,
      "ĠAl": 1566,
      "den": 1567,
      "ohn": 1568,
      "He": 1569,
      "ook": 1570,
      "Ġgener": 1571,
      "Ġspecial": 1572,
      "Ġgoes": 1573,
      "ĠWhere": 1574,
      "ther": 1575,
      "Ġspeak": 1576,
      "ized": 1577,
      "Ġpower": 1578,
      "Ġi": 1579,
      "Let": 1580,
      "Ġopport": 1581,
      "Ġstory": 1582,
      "io": 1583,
      "ĠAn": 1584,
      "Ġob": 1585,
      "Ġlucky": 1586,
      "eace": 1587,
      "nter": 1588,
      "ames": 1589,
      "ĠThen": 1590,
      "Ġmess": 1591,
      "allen": 1592,
      "Ġserious": 1593,
      "cing": 1594,
      "Ġparty": 1595,
      "Ġcr": 1596,
      "Ġhold": 1597,
      "Ġeff": 1598,
      "ĠAm": 1599,
      "ets": 1600,
      "Ġmen": 1601,
      "Ġsafe": 1602,
      "eally": 1603,
      "Ġsleep": 1604,
      "Ġhelping": 1605,
      "Ġdifficult": 1606,
      "Ġcertain": 1607,
      "Ġcontrol": 1608,
      "Ġeat": 1609,
      "Ġcomfort": 1610,
      "Ġclean": 1611,
      "cy": 1612,
      "ale": 1613,
      "Ġhonest": 1614,
      "My": 1615,
      "Ġansw": 1616,
      "ĠDad": 1617,
      "ĠOr": 1618,
      "Ġface": 1619,
      "Ġtop": 1620,
      "âĢĶ": 1621,
      "Ġchallen": 1622,
      "Ġspecific": 1623,
      "Ġform": 1624,
      "Ġadvice": 1625,
      "Ġspending": 1626,
      "ics": 1627,
      "Ġunderstanding": 1628,
      "Because": 1629,
      "Ġforget": 1630,
      "Ġpot": 1631,
      "Ġfree": 1632,
      "oring": 1633,
      "Ġparents": 1634,
      "aces": 1635,
      "Ġter": 1636,
      "Ġteach": 1637,
      "ese": 1638,
      "Ġtakes": 1639,
      "Ġlives": 1640,
      "Ġless": 1641,
      "ouch": 1642,
      "Ġneeded": 1643,
      "Ġmeant": 1644,
      "ery": 1645,
      "Ġprov": 1646,
      "Ġdecision": 1647,
      "Ġdist": 1648,
      "Ġprobably": 1649,
      "Ġgrad": 1650,
      "Ġexactly": 1651,
      "Ġtold": 1652,
      "Ġmorning": 1653,
      "to": 1654,
      "Ġsun": 1655,
      "Ġstore": 1656,
      "eare": 1657,
      "ined": 1658,
      "Ġserv": 1659,
      "Ġtook": 1660,
      "Ġdeserve": 1661,
      "ues": 1662,
      "time": 1663,
      "Ġcra": 1664,
      "Ġbeg": 1665,
      "ix": 1666,
      "cri": 1667,
      "ross": 1668,
      "Ġquick": 1669,
      "Ġusing": 1670,
      "Ġlearning": 1671,
      "ication": 1672,
      "Ġtalked": 1673,
      "Ġupset": 1674,
      "ĠSir": 1675,
      "Ġmoment": 1676,
      "Ġagainst": 1677,
      "Ġsub": 1678,
      "gest": 1679,
      "Ġsho": 1680,
      "Ġstrugg": 1681,
      "Ġsol": 1682,
      "Ġnum": 1683,
      "not": 1684,
      "Ġquite": 1685,
      "ĠDid": 1686,
      "Ġeyes": 1687,
      "Ġclear": 1688,
      "Ġseeing": 1689,
      "Ġwouldn": 1690,
      "Ġpeace": 1691,
      "ments": 1692,
      "unt": 1693,
      "Ġav": 1694,
      "Ġpositive": 1695,
      "Ġref": 1696,
      "Ġsituation": 1697,
      "Ġdog": 1698,
      "ills": 1699,
      "ĠMar": 1700,
      "amp": 1701,
      "Ġwilling": 1702,
      "Ġrelations": 1703,
      "Ġri": 1704,
      "Ġfull": 1705,
      "Ġ=": 1706,
      "Ġreason": 1707,
      "Ġimprove": 1708,
      "Ġpast": 1709,
      "get": 1710,
      "Sounds": 1711,
      "Ġpol": 1712,
      "ĠWith": 1713,
      "uring": 1714,
      "ative": 1715,
      "med": 1716,
      "Ġknew": 1717,
      "Ġpassion": 1718,
      "Ġpick": 1719,
      "Ġrespons": 1720,
      "Ġwoman": 1721,
      "ene": 1722,
      "Ġstre": 1723,
      "ĠJohn": 1724,
      "Ġtown": 1725,
      "ustom": 1726,
      "Ġhands": 1727,
      "Ġsaying": 1728,
      "Ġinform": 1729,
      "selves": 1730,
      "oc": 1731,
      "Ġhappens": 1732,
      "Ġes": 1733,
      "Ġbring": 1734,
      "Really": 1735,
      "Ġmine": 1736,
      "Ġexciting": 1737,
      "They": 1738,
      "Ġmark": 1739,
      "Ġbehind": 1740,
      "Ġreading": 1741,
      "ows": 1742,
      "ential": 1743,
      "Ġtreat": 1744,
      "Ġbecome": 1745,
      "nect": 1746,
      "Ġrelationship": 1747,
      "Ġways": 1748,
      "Ġgiving": 1749,
      "Ġfact": 1750,
      "Ġfit": 1751,
      "etime": 1752,
      "Ġangry": 1753,
      "Ġtom": 1754,
      "Ġjo": 1755,
      "Ġsing": 1756,
      "omm": 1757,
      "Ġbro": 1758,
      "Ġdear": 1759,
      "Ġlater": 1760,
      "Ġcomplet": 1761,
      "Ġcalled": 1762,
      "Ġhist": 1763,
      "use": 1764,
      "Ġdisc": 1765,
      "Ġprocess": 1766,
      "Ġlik": 1767,
      "Ġpresent": 1768,
      "Ġoptions": 1769,
      "Ġdoctor": 1770,
      "Ġbreat": 1771,
      ",\"": 1772,
      "aken": 1773,
      "Ġhun": 1774,
      "Ġexample": 1775,
      "Ġ4": 1776,
      "Ġfix": 1777,
      "Ġeventually": 1778,
      "Ġed": 1779,
      "Ġsecond": 1780,
      "Ġincred": 1781,
      "Ġplaces": 1782,
      "Ġknows": 1783,
      "eld": 1784,
      "Aw": 1785,
      "Ġcustom": 1786,
      "Ġhea": 1787,
      "ately": 1788,
      "aring": 1789,
      "Ġcase": 1790,
      "Ġdecided": 1791,
      "Ġpie": 1792,
      "Ġcharact": 1793,
      "Ġideas": 1794,
      "aster": 1795,
      "Ġvisit": 1796,
      "Ġadm": 1797,
      "Ġside": 1798,
      "Ġexpect": 1799,
      "Ġdra": 1800,
      "Ġsupposed": 1801,
      "ices": 1802,
      "ege": 1803,
      "augh": 1804,
      "ĠAr": 1805,
      "head": 1806,
      "Ġworked": 1807,
      "Ġbed": 1808,
      "Ġarm": 1809,
      "Ġfast": 1810,
      "Ġwind": 1811,
      "erg": 1812,
      "ĠLike": 1813,
      "ural": 1814,
      "Ġpleas": 1815,
      "ries": 1816,
      "ĠOf": 1817,
      "raid": 1818,
      "ĠAny": 1819,
      "ĠLord": 1820,
      "Ġinstead": 1821,
      "ĊĠĠĠ": 1822,
      "ĠHere": 1823,
      "ins": 1824,
      "Ġbuy": 1825,
      "Ġlead": 1826,
      "ĠSometimes": 1827,
      "Ġterri": 1828,
      "rat": 1829,
      "AR": 1830,
      "Ġcor": 1831,
      "Ġdin": 1832,
      "Ġquestion": 1833,
      "ĠBe": 1834,
      "Ġris": 1835,
      "bt": 1836,
      "ulations": 1837,
      "Ġaff": 1838,
      "Ġru": 1839,
      "ps": 1840,
      "Ġlooked": 1841,
      "Ġsick": 1842,
      "ĠWho": 1843,
      "Ġconfident": 1844,
      "Ġsign": 1845,
      "Ġalong": 1846,
      "Ġwords": 1847,
      "cially": 1848,
      "ird": 1849,
      "Ġincl": 1850,
      "ray": 1851,
      "Ġdecide": 1852,
      "Ġnature": 1853,
      "unch": 1854,
      "ories": 1855,
      "Ġdrink": 1856,
      "Ġmem": 1857,
      "Ġpat": 1858,
      "ister": 1859,
      "AN": 1860,
      "irt": 1861,
      "pping": 1862,
      "Ġdeath": 1863,
      "Ġconnect": 1864,
      "Ġopportunity": 1865,
      "ric": 1866,
      "ised": 1867,
      "Ġafraid": 1868,
      "Ġword": 1869,
      "ants": 1870,
      "Ġsometime": 1871,
      "Ġdress": 1872,
      "Ġdeep": 1873,
      "Ġsou": 1874,
      "Ġach": 1875,
      "ger": 1876,
      "yn": 1877,
      "Ġanswer": 1878,
      "br": 1879,
      "Ġoutside": 1880,
      "Ġmother": 1881,
      "Ġcut": 1882,
      "Ġrese": 1883,
      "Ġproduct": 1884,
      "Ġmonths": 1885,
      "lex": 1886,
      "velop": 1887,
      "entle": 1888,
      "by": 1889,
      "Ġagree": 1890,
      "Ġreach": 1891,
      "Ġforever": 1892,
      "Ġshare": 1893,
      "Ġev": 1894,
      "Ġperform": 1895,
      "iced": 1896,
      "Ġboy": 1897,
      "Ġtelling": 1898,
      "Ġhoping": 1899,
      ").": 1900,
      "ceed": 1901,
      "Ġneeds": 1902,
      "gan": 1903,
      "Ġlaw": 1904,
      "Ġconst": 1905,
      "ape": 1906,
      "ubl": 1907,
      "ĠKe": 1908,
      "whel": 1909,
      "Ġkids": 1910,
      "Ġincredible": 1911,
      "Ġcloth": 1912,
      "Ġknowing": 1913,
      "Ġmovie": 1914,
      "Ġair": 1915,
      "rew": 1916,
      "Ġoffer": 1917,
      "Ġdad": 1918,
      "arm": 1919,
      "Ġmoving": 1920,
      "Ġweeks": 1921,
      "Ġmet": 1922,
      "zy": 1923,
      "Ġoverwhel": 1924,
      "rist": 1925,
      "ope": 1926,
      "ĠAd": 1927,
      "Ġhit": 1928,
      "Ġscared": 1929,
      "enty": 1930,
      "pr": 1931,
      "Ġstruggling": 1932,
      "Ġcalm": 1933,
      "ON": 1934,
      "Ġbooks": 1935,
      "ines": 1936,
      "ĠZ": 1937,
      "Ġthree": 1938,
      "ently": 1939,
      "Ġcollege": 1940,
      "Ġtomorrow": 1941,
      "Ġpop": 1942,
      "pped": 1943,
      "eed": 1944,
      "Ġbody": 1945,
      "Ġrunning": 1946,
      "aining": 1947,
      "Ġdoor": 1948,
      "Ġeffort": 1949,
      "land": 1950,
      "Hmm": 1951,
      "Ġinformation": 1952,
      "com": 1953,
      "Ġmeaning": 1954,
      "vest": 1955,
      "Ġcomfortable": 1956,
      "Ġresearch": 1957,
      "Ġorder": 1958,
      "Ġye": 1959,
      "Ġsweetie": 1960,
      "pect": 1961,
      "wise": 1962,
      "Ġdinner": 1963,
      "Ġhandle": 1964,
      "Ġcountry": 1965,
      "itch": 1966,
      "Ġbuild": 1967,
      "Ġgiven": 1968,
      "Ġfire": 1969,
      "stem": 1970,
      "Ġguys": 1971,
      "Ġcontin": 1972,
      "els": 1973,
      "ks": 1974,
      "aint": 1975,
      "Ġproblems": 1976,
      "Ġtrip": 1977,
      "Ġshort": 1978,
      "Ġhistory": 1979,
      "Ġcaus": 1980,
      "ĠEng": 1981,
      "Ġhours": 1982,
      "Ġtre": 1983,
      "Ġsave": 1984,
      "ĠDon": 1985,
      "Ġtouch": 1986,
      "anger": 1987,
      "Ġwife": 1988,
      "ĠĠĠĠĠĠĠĠ": 1989,
      "Ġmot": 1990,
      "Ġpotential": 1991,
      "cell": 1992,
      "Ġsug": 1993,
      "line": 1994,
      "ift": 1995,
      "âĤ": 1996,
      "Ġtruth": 1997,
      "oint": 1998,
      "Maybe": 1999,
      "Ġcannot": 2000,
      "Ġdevelop": 2001,
      "Ġuni": 2002,
      "ances": 2003,
      "ically": 2004,
      "wards": 2005,
      "Ġquestions": 2006,
      "ester": 2007,
      "Ġmath": 2008,
      "Ġhi": 2009,
      "Ġcou": 2010,
      "Ġ5": 2011,
      "Ġprof": 2012,
      "Ġcreate": 2013,
      "Ġlord": 2014,
      "ffect": 2015,
      "Ġstuck": 2016,
      "Ġfault": 2017,
      "Ġapart": 2018,
      "De": 2019,
      "Ġwrite": 2020,
      "Ġsuccessful": 2021,
      "ade": 2022,
      "Ġprot": 2023,
      "Ġdou": 2024,
      "dy": 2025,
      "In": 2026,
      "erc": 2027,
      "ences": 2028,
      "IN": 2029,
      "Ġanim": 2030,
      "Ġfeelings": 2031,
      "Ġmeeting": 2032,
      "Ġcold": 2033,
      "Ġlonger": 2034,
      "Ġkill": 2035,
      "Ġhappening": 2036,
      "Ġachieve": 2037,
      "Ġworse": 2038,
      "Ġnews": 2039,
      "ains": 2040,
      "Ġhelps": 2041,
      "body": 2042,
      "Ġhealthy": 2043,
      "Ġcult": 2044,
      "Ġpark": 2045,
      "Ġtravel": 2046,
      "angu": 2047,
      "Ġins": 2048,
      "Ġeye": 2049,
      "Ġvar": 2050,
      "ĠAll": 2051,
      "Ġcommon": 2052,
      "Ġself": 2053,
      "Ġbab": 2054,
      "ĠSp": 2055,
      "Ġfresh": 2056,
      "ffe": 2057,
      "EN": 2058,
      "ĠGood": 2059,
      "Ġhoney": 2060,
      "Ġwriting": 2061,
      "aughter": 2062,
      "Ġdead": 2063,
      "To": 2064,
      "Ġago": 2065,
      "ging": 2066,
      "Ġprep": 2067,
      "Ġdepend": 2068,
      "Ġblood": 2069,
      "Ġdat": 2070,
      "Ġpap": 2071,
      "gress": 2072,
      "Ġpartic": 2073,
      "Ġsystem": 2074,
      "ality": 2075,
      "Ġeffect": 2076,
      "Ġsn": 2077,
      "All": 2078,
      "uc": 2079,
      "ages": 2080,
      "Ġnoticed": 2081,
      "Ġrid": 2082,
      "She": 2083,
      "Ġline": 2084,
      "rent": 2085,
      "ibility": 2086,
      "?\"": 2087,
      "ern": 2088,
      "but": 2089,
      "band": 2090,
      "Ġfrustrating": 2091,
      "Ġwalking": 2092,
      "Ġhimself": 2093,
      "ev": 2094,
      "Ġahead": 2095,
      "Then": 2096,
      "Ġdire": 2097,
      "Ġkeeping": 2098,
      "fter": 2099,
      "Ġiss": 2100,
      "Ġappro": 2101,
      "Ġsuff": 2102,
      "Here": 2103,
      "tis": 2104,
      "Ġpubl": 2105,
      "Ġsort": 2106,
      "Ġhath": 2107,
      "oking": 2108,
      "Mom": 2109,
      "Ġrespect": 2110,
      "Ġfinish": 2111,
      "most": 2112,
      "Ġnear": 2113,
      "Ġsent": 2114,
      "usband": 2115,
      "Ġattention": 2116,
      "Ġdark": 2117,
      "``": 2118,
      "Ġconc": 2119,
      "ĠEverything": 2120,
      "Ġmarket": 2121,
      "Ġimpress": 2122,
      "Ġexplore": 2123,
      "ĠOh": 2124,
      "ĠKing": 2125,
      "Ġextra": 2126,
      "Ġfail": 2127,
      "Ġve": 2128,
      "Ġrather": 2129,
      "Ġproper": 2130,
      "Ġhu": 2131,
      "Ġduring": 2132,
      "Ġchoice": 2133,
      "Ġaccount": 2134,
      "Ġreturn": 2135,
      "uri": 2136,
      "aste": 2137,
      "ote": 2138,
      "Ġlangu": 2139,
      "Ġlose": 2140,
      ",--": 2141,
      "ilt": 2142,
      "Ġfinding": 2143,
      "esome": 2144,
      "ongrat": 2145,
      "Ġdisapp": 2146,
      "Ġworks": 2147,
      "Ġvo": 2148,
      "ĠMrs": 2149,
      "Ġhomework": 2150,
      "Ġlaugh": 2151,
      "Ġyeah": 2152,
      "ief": 2153,
      "oke": 2154,
      "Ġbrings": 2155,
      "chn": 2156,
      "tle": 2157,
      "Ġwanting": 2158,
      "Ġcap": 2159,
      "ism": 2160,
      "Ġclothes": 2161,
      "Ġconsider": 2162,
      "ĠCome": 2163,
      "Ġinside": 2164,
      "Ġsmart": 2165,
      "of": 2166,
      "Ġeng": 2167,
      "Ġsat": 2168,
      "Ġcost": 2169,
      "Ġhair": 2170,
      "Ġ|": 2171,
      "Ġhelpful": 2172,
      "If": 2173,
      "aj": 2174,
      "ited": 2175,
      "Ġbir": 2176,
      "Ġinvest": 2177,
      "Ġhuman": 2178,
      "Ġmis": 2179,
      "Ġdiv": 2180,
      "Ġpray": 2181,
      "yle": 2182,
      "ervous": 2183,
      "Ġcareer": 2184,
      "Ġtaken": 2185,
      "do": 2186,
      "Ġfaith": 2187,
      "Ġsays": 2188,
      "Are": 2189,
      "itude": 2190,
      "ateful": 2191,
      "Ġgets": 2192,
      "lish": 2193,
      "Ġbaby": 2194,
      "Ġdie": 2195,
      "ned": 2196,
      "Ġpress": 2197,
      "idence": 2198,
      "Ġtem": 2199,
      "ĠBr": 2200,
      "Ġhelped": 2201,
      "ina": 2202,
      "Ġland": 2203,
      "Ġgames": 2204,
      "Ġsal": 2205,
      "ĠSome": 2206,
      "Sarah": 2207,
      "Ġaccept": 2208,
      "Ġnatural": 2209,
      "ĠFr": 2210,
      "Ġnecess": 2211,
      "the": 2212,
      "Ġmateri": 2213,
      "Ġnervous": 2214,
      "well": 2215,
      "**": 2216,
      "eg": 2217,
      "Ġletter": 2218,
      "Ġnumber": 2219,
      "OR": 2220,
      "Ġgoals": 2221,
      "ĠEnter": 2222,
      "Who": 2223,
      "Ġdesign": 2224,
      "ommend": 2225,
      "irit": 2226,
      "Ġsoul": 2227,
      "Ġresult": 2228,
      "ffee": 2229,
      "Ġmistake": 2230,
      "Ġhusband": 2231,
      "Ġtalent": 2232,
      "read": 2233,
      "Ġfear": 2234,
      "Is": 2235,
      "Ġtechn": 2236,
      "Ġdeterm": 2237,
      "Ġnor": 2238,
      "ongratulations": 2239,
      "âĢĿ": 2240,
      "ats": 2241,
      "Ġequ": 2242,
      "Ġspace": 2243,
      "ton": 2244,
      "Ġinf": 2245,
      "Ġchoose": 2246,
      "Ġhowever": 2247,
      "Ġenerg": 2248,
      "Ġsong": 2249,
      "Ġpractice": 2250,
      "Ġinvol": 2251,
      "iety": 2252,
      "Ġchanges": 2253,
      "Ġaffect": 2254,
      "Ġconcer": 2255,
      "Ġorgan": 2256,
      "icious": 2257,
      "ĠUn": 2258,
      "Ġusually": 2259,
      "Ġpopular": 2260,
      "Ġcause": 2261,
      "Ġprogress": 2262,
      "ience": 2263,
      "lo": 2264,
      "Ġafford": 2265,
      "Ġfinished": 2266,
      "ius": 2267,
      "Ġcoffee": 2268,
      "Ġprovide": 2269,
      "Ġbur": 2270,
      "ode": 2271,
      "arr": 2272,
      "Ġrecommend": 2273,
      "Definitely": 2274,
      "ha": 2275,
      "cellent": 2276,
      "Ġsuggest": 2277,
      "Ġminute": 2278,
      "Ġsuc": 2279,
      "Ġservice": 2280,
      "Ġshouldn": 2281,
      "ison": 2282,
      "Ġpoor": 2283,
      "Ġsucceed": 2284,
      "Ġcoach": 2285,
      "Ġsad": 2286,
      "....": 2287,
      "Ġser": 2288,
      "Ġpict": 2289,
      "pose": 2290,
      "Ġgentle": 2291,
      "ĠKeep": 2292,
      "ourn": 2293,
      "Ġwithin": 2294,
      "ceive": 2295,
      "ĠPlease": 2296,
      "ĠPr": 2297,
      "Ġcurrent": 2298,
      "Ġmistakes": 2299,
      "othing": 2300,
      "Ġdi": 2301,
      "Ġskills": 2302,
      "Ġstate": 2303,
      "Ġstri": 2304,
      "Ġhal": 2305,
      "Ġdev": 2306,
      "Ġtrans": 2307,
      "ump": 2308,
      "Ġcompletely": 2309,
      "iew": 2310,
      "Ġanx": 2311,
      "ex": 2312,
      "ĠTr": 2313,
      "aps": 2314,
      "Ġemb": 2315,
      "Ġgrateful": 2316,
      "Ġsister": 2317,
      "Ġplenty": 2318,
      "oid": 2319,
      "Ġexplain": 2320,
      "Ġdanger": 2321,
      "Ġfollowing": 2322,
      "Ġhot": 2323,
      "ploy": 2324,
      "ĠWould": 2325,
      "cks": 2326,
      "iron": 2327,
      "Ġquickly": 2328,
      "Ġlevel": 2329,
      "ana": 2330,
      "Ġopin": 2331,
      "Ġlar": 2332,
      "ession": 2333,
      "Ġenergy": 2334,
      "Ġplans": 2335,
      "Ġlistening": 2336,
      "Ġground": 2337,
      "ĠHis": 2338,
      "ĠBy": 2339,
      "utes": 2340,
      "ĠAt": 2341,
      "gram": 2342,
      "Ġjud": 2343,
      "ination": 2344,
      "Ġcaught": 2345,
      "Ġknown": 2346,
      "Ġabs": 2347,
      "Ġcertainly": 2348,
      "oll": 2349,
      "Ġpassionate": 2350,
      "Ġleg": 2351,
      "iy": 2352,
      "une": 2353,
      "Ġbrought": 2354,
      "Ġforgive": 2355,
      "Ġcond": 2356,
      "over": 2357,
      "Ġweather": 2358,
      "pecially": 2359,
      "Ġben": 2360,
      "Ġhate": 2361,
      "Ġsimple": 2362,
      "Ġphone": 2363,
      "Ġcook": 2364,
      "Ġbreath": 2365,
      "Ġchildren": 2366,
      "Ġaccom": 2367,
      "con": 2368,
      "Ġputting": 2369,
      "Ġunderstandable": 2370,
      "gu": 2371,
      "oe": 2372,
      "Ġkey": 2373,
      "Ġview": 2374,
      "Ġcrazy": 2375,
      "Ġposition": 2376,
      "ane": 2377,
      "te": 2378,
      "Ġbrother": 2379,
      "Ġ...": 2380,
      "Ġespecially": 2381,
      "Ġill": 2382,
      "Ġstudy": 2383,
      "Ġmatters": 2384,
      "otion": 2385,
      "Ġcharacter": 2386,
      "Have": 2387,
      "ology": 2388,
      "Ġpar": 2389,
      "Ġdata": 2390,
      "Ġbra": 2391,
      "ature": 2392,
      "Ġgro": 2393,
      "Ġones": 2394,
      "ĠâĢľ": 2395,
      "Any": 2396,
      "Ġweekend": 2397,
      "ged": 2398,
      "Ġpaper": 2399,
      "ital": 2400,
      "Ġwatching": 2401,
      "Come": 2402,
      "reen": 2403,
      "Ġanyway": 2404,
      "ĠâĢĵ": 2405,
      "Ġdaughter": 2406,
      "Ġterrible": 2407,
      "ĠNot": 2408,
      "Ġspirit": 2409,
      "),": 2410,
      "Ġshows": 2411,
      "ĠCl": 2412,
      "Ġhor": 2413,
      "Ġenv": 2414,
      "Ġsecret": 2415,
      "Ġtype": 2416,
      "Ġsocial": 2417,
      "Ġdam": 2418,
      "Ġ10": 2419,
      "Ġdro": 2420,
      "Ġcomput": 2421,
      "Ġparticular": 2422,
      "cle": 2423,
      "ears": 2424,
      "Ġcolor": 2425,
      "bers": 2426,
      "Ġsumm": 2427,
      "rying": 2428,
      "dle": 2429,
      "ighb": 2430,
      "Ġsell": 2431,
      "antly": 2432,
      "Ġblack": 2433,
      "Ġsend": 2434,
      "err": 2435,
      "Ġ6": 2436,
      "Ġgrand": 2437,
      "Ġlie": 2438,
      "Ġdoubt": 2439,
      "Ġ+": 2440,
      "Ġdram": 2441,
      "Ġalmost": 2442,
      "Ġclos": 2443,
      "Ġking": 2444,
      "Ġwear": 2445,
      "hys": 2446,
      "Ġpiece": 2447,
      "Aww": 2448,
      "Ġstudying": 2449,
      "ĠWill": 2450,
      "Ġsurpr": 2451,
      "ection": 2452,
      "Ġfool": 2453,
      "ik": 2454,
      "Ġprogram": 2455,
      "ored": 2456,
      "Ġmarried": 2457,
      "Ġfur": 2458,
      "Ġmanag": 2459,
      "ley": 2460,
      "ety": 2461,
      "Ġloc": 2462,
      "Ġthoughts": 2463,
      "asc": 2464,
      "pes": 2465,
      "Ġage": 2466,
      "ES": 2467,
      "Ġfly": 2468,
      "Ġlanguage": 2469,
      "Ġonline": 2470,
      "esterday": 2471,
      "Ġpaint": 2472,
      "Ġbother": 2473,
      "Ġbegin": 2474,
      "ony": 2475,
      "Ġexerc": 2476,
      "Ġslow": 2477,
      "ĠEm": 2478,
      "Ġdef": 2479,
      "Ġwaiting": 2480,
      "Ġanywhere": 2481,
      "Ġhaue": 2482,
      "Ġbud": 2483,
      "Ġdem": 2484,
      "Ġrequ": 2485,
      "let": 2486,
      "ges": 2487,
      "Ġdish": 2488,
      "Ġlearned": 2489,
      "friend": 2490,
      "ĠChrist": 2491,
      "Ġhalf": 2492,
      "St": 2493,
      "Ġpleasure": 2494,
      "Ġgeneral": 2495,
      "Ġthus": 2496,
      "Ġstrange": 2497,
      "Ġgave": 2498,
      "hood": 2499,
      "Ġpersonal": 2500,
      "Ġearly": 2501,
      "Ġneighb": 2502,
      "ole": 2503,
      "Ġmissed": 2504,
      "ĠOther": 2505,
      "ĠPro": 2506,
      "ips": 2507,
      "Ġweight": 2508,
      "Ġminutes": 2509,
      "Ġcommun": 2510,
      "ists": 2511,
      "Ġred": 2512,
      "yl": 2513,
      "iment": 2514,
      "owers": 2515,
      "Ġwall": 2516,
      "Ġstressed": 2517,
      "Ġfighting": 2518,
      "Ġauth": 2519,
      "Ġyesterday": 2520,
      "Ġsoft": 2521,
      "ns": 2522,
      "Ġaccompl": 2523,
      "Ġvide": 2524,
      "icing": 2525,
      "Ġreward": 2526,
      "Can": 2527,
      "Ġmil": 2528,
      "Ġdetail": 2529,
      "Ġturned": 2530,
      "ĠAfter": 2531,
      "Ġvoice": 2532,
      "Ġinsp": 2533,
      "Ġfunny": 2534,
      "ury": 2535,
      "cious": 2536,
      "Ġtrack": 2537,
      "Ġfour": 2538,
      "ĠThese": 2539,
      "Ġplanning": 2540,
      "Ġemploy": 2541,
      "Ġaccident": 2542,
      "Ġoverall": 2543,
      "dden": 2544,
      "Ġraise": 2545,
      "ĠNew": 2546,
      "Ġexpress": 2547,
      "Ġjoin": 2548,
      "fully": 2549,
      "ĠDe": 2550,
      "Ġclasses": 2551,
      "Ġguy": 2552,
      "Ġhung": 2553,
      "sing": 2554,
      "Ġfront": 2555,
      "Ġ16": 2556,
      "ĠBes": 2557,
      "Ġroad": 2558,
      "Ġla": 2559,
      "Ġnorm": 2560,
      "Now": 2561,
      "ained": 2562,
      "efully": 2563,
      "Ġeasier": 2564,
      "outh": 2565,
      "ĠOn": 2566,
      "Tis": 2567,
      "Ġsudden": 2568,
      "Ġcent": 2569,
      "ĠEveryone": 2570,
      "ĠFirst": 2571,
      "Ġscary": 2572,
      "eless": 2573,
      "Ġdate": 2574,
      "ding": 2575,
      "pid": 2576,
      "For": 2577,
      "ĠOne": 2578,
      "Ġded": 2579,
      "Ġhast": 2580,
      "lyn": 2581,
      "Ġocc": 2582,
      "Ġ15": 2583,
      "isf": 2584,
      "Ġanimals": 2585,
      "Ġpurpose": 2586,
      "ĠEl": 2587,
      "Ġfield": 2588,
      "Ġbecom": 2589,
      "Ġbenef": 2590,
      "Ġbirth": 2591,
      "Ġfan": 2592,
      "Ġlady": 2593,
      "ots": 2594,
      "Ġearth": 2595,
      "ĠSee": 2596,
      "men": 2597,
      "ards": 2598,
      "ĊĠĠĠĠ": 2599,
      "Ġadvent": 2600,
      "Ġbrain": 2601,
      "und": 2602,
      "HE": 2603,
      "Ġdriving": 2604,
      "Ġinclud": 2605,
      "mb": 2606,
      "cl": 2607,
      "Ġpaid": 2608,
      "Ġgoal": 2609,
      "ensive": 2610,
      "Ġindeed": 2611,
      "Ġphys": 2612,
      "Ġquiet": 2613,
      "Ġtas": 2614,
      "son": 2615,
      "Ġhell": 2616,
      "ealous": 2617,
      "Ġeating": 2618,
      "Ġwhom": 2619,
      ".--": 2620,
      "ilar": 2621,
      "Ġlunch": 2622,
      "Ġbar": 2623,
      "Ġvol": 2624,
      "Ġtable": 2625,
      "ĠFf": 2626,
      "Ġdest": 2627,
      "Ġattitude": 2628,
      "Like": 2629,
      "Ġthemselves": 2630,
      "ĠBesides": 2631,
      "Ġwhether": 2632,
      "Ġcontinue": 2633,
      "Ġawesome": 2634,
      "Ġmoved": 2635,
      "Ġtot": 2636,
      "LL": 2637,
      "Ġcommunity": 2638,
      "oss": 2639,
      "Ġyes": 2640,
      "Ġpack": 2641,
      "Ġavail": 2642,
      "Ġsil": 2643,
      "put": 2644,
      "Ġ18": 2645,
      "Ġfoot": 2646,
      "Ġmodel": 2647,
      "ann": 2648,
      "Ġcorre": 2649,
      "Ġsomewhere": 2650,
      "bb": 2651,
      "Ġrisk": 2652,
      "Ġoverwhelmed": 2653,
      "Ġdan": 2654,
      "cient": 2655,
      "Ġopinion": 2656,
      "Ġlay": 2657,
      "ug": 2658,
      "ĠEnglish": 2659,
      "Ġorig": 2660,
      "Ġsubject": 2661,
      "Ġallow": 2662,
      "Ġresponsibility": 2663,
      "Ġgrou": 2664,
      "itions": 2665,
      "Ġstra": 2666,
      "Ġyours": 2667,
      "Ġmid": 2668,
      "Ġterm": 2669,
      "Ġmeantime": 2670,
      "Ġalive": 2671,
      "Ġ{": 2672,
      "ises": 2673,
      "ands": 2674,
      "Ġspea": 2675,
      "iol": 2676,
      "Ġcamp": 2677,
      "Ġjourn": 2678,
      "ai": 2679,
      "for": 2680,
      "Ġneg": 2681,
      "ources": 2682,
      "Ġwonderful": 2683,
      "Ġtext": 2684,
      "ĠWhich": 2685,
      "Ġsatisf": 2686,
      "urious": 2687,
      "eric": 2688,
      "verse": 2689,
      "Ġmaterial": 2690,
      "ilities": 2691,
      "Ġappl": 2692,
      "ĠEx": 2693,
      "Ġfinan": 2694,
      "uly": 2695,
      "Ġearl": 2696,
      "Ġfeet": 2697,
      "Ġhiking": 2698,
      "Ġdecisions": 2699,
      "Ġhearing": 2700,
      "Ġheaven": 2701,
      "Ġenviron": 2702,
      "Ġgold": 2703,
      "Ġmer": 2704,
      "arden": 2705,
      "Ġasked": 2706,
      "Ġourselves": 2707,
      "Ġarea": 2708,
      "no": 2709,
      "Ġdraw": 2710,
      "Ġfurther": 2711,
      "arl": 2712,
      "cience": 2713,
      "Ġorigin": 2714,
      "Ġfrustrated": 2715,
      "Ġran": 2716,
      "Ġavoid": 2717,
      "ĠGo": 2718,
      "Ġpressure": 2719,
      "ules": 2720,
      "Ġfort": 2721,
      "Ġbright": 2722,
      "IS": 2723,
      "oms": 2724,
      "pective": 2725,
      "ken": 2726,
      "Ġnormal": 2727,
      "Ġprepared": 2728,
      "ument": 2729,
      "Ġmanage": 2730,
      "Ġwarm": 2731,
      "ured": 2732,
      "ĠCongratulations": 2733,
      "000": 2734,
      "ior": 2735,
      "ron": 2736,
      "ster": 2737,
      "Ġkiss": 2738,
      "Ġexploring": 2739,
      "Ġtill": 2740,
      "Ġperspective": 2741,
      "Ġdelicious": 2742,
      "Ġpaying": 2743,
      "Ġdance": 2744,
      "Ġexcellent": 2745,
      "Your": 2746,
      "haps": 2747,
      "Ġ7": 2748,
      "Ġcourt": 2749,
      "Ġrealized": 2750,
      "Ġmag": 2751,
      "Ġpainting": 2752,
      "Ġteacher": 2753,
      "!\"": 2754,
      "Ġdrive": 2755,
      "Ġprin": 2756,
      "Ġletting": 2757,
      "Ġcat": 2758,
      "Ġcross": 2759,
      "Ġchallenge": 2760,
      "Ġfil": 2761,
      "Ġstage": 2762,
      "ngth": 2763,
      "Ġpublic": 2764,
      "Ġjealous": 2765,
      "urch": 2766,
      "Ġjoy": 2767,
      "Ġsight": 2768,
      "Ġperfectly": 2769,
      "view": 2770,
      "Ġba": 2771,
      "Ġconvers": 2772,
      "Ġlow": 2773,
      "Ġ19": 2774,
      "Ġwhite": 2775,
      "Ġavailable": 2776,
      "ĠOur": 2777,
      "Ġstar": 2778,
      "my": 2779,
      "Ġbeat": 2780,
      "Ġgrades": 2781,
      "Ġliked": 2782,
      "icient": 2783,
      "Ġpath": 2784,
      "Ġ8": 2785,
      "Ġnote": 2786,
      "Ġfalling": 2787,
      "Ġaction": 2788,
      "Ġvideo": 2789,
      "inking": 2790,
      "Ġenvironment": 2791,
      ".,": 2792,
      "Ġsix": 2793,
      "Ġreport": 2794,
      "ution": 2795,
      "amed": 2796,
      "elf": 2797,
      "Ġmotiv": 2798,
      "Ġstick": 2799,
      "Ġball": 2800,
      "sequ": 2801,
      "Ġ20": 2802,
      "Ġbal": 2803,
      "ĠTake": 2804,
      "ott": 2805,
      "ĠSc": 2806,
      "Ġdisappoint": 2807,
      "Ġdied": 2808,
      "cript": 2809,
      "Ġswim": 2810,
      "Ġfish": 2811,
      "Ġwomen": 2812,
      "Ġstreet": 2813,
      "Ġconsidering": 2814,
      "Ġpeaceful": 2815,
      "Where": 2816,
      "Ġtowards": 2817,
      "Ġblue": 2818,
      "Pl": 2819,
      "Ġhuge": 2820,
      "Ġstupid": 2821,
      "Ġcontent": 2822,
      "ĠNor": 2823,
      "Ġest": 2824,
      "Ġdirect": 2825,
      "Ġvalue": 2826,
      "Ġann": 2827,
      "Ġsever": 2828,
      "Ġstrength": 2829,
      "ĠMad": 2830,
      "Ġbat": 2831,
      "ĠEven": 2832,
      "Ġpen": 2833,
      "Ġseemed": 2834,
      "just": 2835,
      "Ġstyle": 2836,
      "ring": 2837,
      "Ġten": 2838,
      "anna": 2839,
      "iring": 2840,
      "Ġrealize": 2841,
      "Ġfriendly": 2842,
      "Ġhonour": 2843,
      "Ġgri": 2844,
      "Ġoffice": 2845,
      "Ġearlier": 2846,
      "Ġboard": 2847,
      "Ġfellow": 2848,
      "Ġincre": 2849,
      "Ġfill": 2850,
      "Ġmaster": 2851,
      "ule": 2852,
      "Ġmain": 2853,
      "Ġcir": 2854,
      "Ġcontri": 2855,
      "Ġobject": 2856,
      "Ġunique": 2857,
      "Ġwood": 2858,
      "ĠPh": 2859,
      "Ġgrocer": 2860,
      "Ġboring": 2861,
      "Ġstories": 2862,
      "Ġprotect": 2863,
      "ĠCon": 2864,
      "ees": 2865,
      "Ġcompet": 2866,
      "Ġrecently": 2867,
      "oor": 2868,
      "izing": 2869,
      "Ġwhose": 2870,
      "ma": 2871,
      "Ġbeauty": 2872,
      "Ġpoet": 2873,
      "Ġinvolved": 2874,
      "esit": 2875,
      "Ġnecessary": 2876,
      "Ġice": 2877,
      "ending": 2878,
      "ĠAnything": 2879,
      "Ġforgot": 2880,
      "Ġcode": 2881,
      "Ġrich": 2882,
      "Ġapproach": 2883,
      "Ġfell": 2884,
      "Ġbear": 2885,
      "Ġenjoyed": 2886,
      "Ġmeth": 2887,
      "Ġtruly": 2888,
      "Ġnone": 2889,
      "ledge": 2890,
      "ify": 2891,
      "uro": 2892,
      "rest": 2893,
      "An": 2894,
      "Ġsaf": 2895,
      "col": 2896,
      "Ġchanged": 2897,
      "Ġlarge": 2898,
      "Ġdetermined": 2899,
      "Ġhesit": 2900,
      "ume": 2901,
      "ĠHowever": 2902,
      "airs": 2903,
      "Ġscene": 2904,
      "ires": 2905,
      "ani": 2906,
      "ites": 2907,
      "ĠCa": 2908,
      "Sh": 2909,
      "ĠYes": 2910,
      "ele": 2911,
      "Ġacting": 2912,
      "Ġquit": 2913,
      "Ġissue": 2914,
      "icated": 2915,
      "ĠRe": 2916,
      "Ġchallenging": 2917,
      "Ġresults": 2918,
      "vern": 2919,
      "Ġregular": 2920,
      "Ġcustomer": 2921,
      "ters": 2922,
      "Ġgod": 2923,
      "iding": 2924,
      "Ġride": 2925,
      "ples": 2926,
      "Ch": 2927,
      "mer": 2928,
      "Ġfive": 2929,
      "Ġseriously": 2930,
      "!--": 2931,
      "As": 2932,
      "ye": 2933,
      "ball": 2934,
      "ze": 2935,
      "Ġgen": 2936,
      "US": 2937,
      "Ġrepres": 2938,
      "Ġhurts": 2939,
      "Ġprofession": 2940,
      "arrass": 2941,
      "Ġabove": 2942,
      "pon": 2943,
      "Ġmov": 2944,
      "Ġbased": 2945,
      "Ġcapt": 2946,
      "Ah": 2947,
      "Ġwr": 2948,
      "Ġdepends": 2949,
      "ĠAmeric": 2950,
      "Ġcomputer": 2951,
      "ship": 2952,
      "ables": 2953,
      "Ġharm": 2954,
      "Ġgift": 2955,
      "Ġgarden": 2956,
      "Ġaud": 2957,
      "Ġprice": 2958,
      "Ġrewarding": 2959,
      "Ġdreams": 2960,
      "ili": 2961,
      "__": 2962,
      "Ġther": 2963,
      "Ġsport": 2964,
      "Ġembarrass": 2965,
      "Ġcorrect": 2966,
      "ones": 2967,
      "Ġlim": 2968,
      "ĠYork": 2969,
      "Ġlibr": 2970,
      "Ġsmell": 2971,
      "Ġdangerous": 2972,
      "AT": 2973,
      "Ġvac": 2974,
      "ware": 2975,
      "Ġfasc": 2976,
      "aly": 2977,
      "osp": 2978,
      "ĠFrom": 2979,
      "Ġmaj": 2980,
      "Ġresponsible": 2981,
      "ĠOtherwise": 2982,
      "akesp": 2983,
      "Ġcurious": 2984,
      "ement": 2985,
      "Ġwants": 2986,
      "ĠTV": 2987,
      "Ġactiv": 2988,
      "ĠLady": 2989,
      "ended": 2990,
      "Ġcrit": 2991,
      "aine": 2992,
      "era": 2993,
      "Ġcred": 2994,
      "Ġpracticing": 2995,
      "la": 2996,
      "ashion": 2997,
      "Ġprop": 2998,
      "aur": 2999,
      "Ġgrowing": 3000,
      "Ġhappiness": 3001,
      "Ġleaving": 3002,
      "Ġauthor": 3003,
      "Ġmissing": 3004,
      "Ġpolice": 3005,
      "Ġign": 3006,
      "ari": 3007,
      "Ġthrow": 3008,
      "Ġshot": 3009,
      "Ġobs": 3010,
      "Ġharder": 3011,
      "Ġjourney": 3012,
      "icken": 3013,
      "Ġpurs": 3014,
      "Ġconstantly": 3015,
      "Ġmovies": 3016,
      "her": 3017,
      "Ġwindow": 3018,
      "ĠHey": 3019,
      "Ġbroke": 3020,
      "ender": 3021,
      "Ġoption": 3022,
      "atic": 3023,
      "Ġfascin": 3024,
      "you": 3025,
      "Ġcausing": 3026,
      "ays": 3027,
      "Ġfunction": 3028,
      "Ġneighbor": 3029,
      "Ġsteps": 3030,
      "Ġshopping": 3031,
      "Ġapolog": 3032,
      "Ġcustomers": 3033,
      "while": 3034,
      "ches": 3035,
      "ĠShakesp": 3036,
      "Ġmention": 3037,
      "Ġround": 3038,
      "Ġcharacters": 3039,
      "ĠBl": 3040,
      "Ġrole": 3041,
      "Ġbabe": 3042,
      "ĠLife": 3043,
      "ello": 3044,
      "Ġchat": 3045,
      "ruct": 3046,
      "LE": 3047,
      "Ġbeach": 3048,
      "riage": 3049,
      "Ġitself": 3050,
      "Ġconsequ": 3051,
      "lee": 3052,
      "Ġacross": 3053,
      "me": 3054,
      "icate": 3055,
      "Ġviol": 3056,
      "ĠOnce": 3057,
      "Ġgrab": 3058,
      "Ġho": 3059,
      "Ġseveral": 3060,
      "Ġeduc": 3061,
      "Ġx": 3062,
      "Ġappear": 3063,
      "ivid": 3064,
      "iting": 3065,
      "uke": 3066,
      "Ġpref": 3067,
      "Ġweak": 3068,
      "Ġpull": 3069,
      "Ġshape": 3070,
      "Ġet": 3071,
      "rodu": 3072,
      "Ġsusp": 3073,
      "Ġsitting": 3074,
      "Ġcapable": 3075,
      "Ġexercise": 3076,
      "Ġperformance": 3077,
      "Ġgroup": 3078,
      "Ġspeaking": 3079,
      "Ġthous": 3080,
      "Ġmeal": 3081,
      "Anytime": 3082,
      "Look": 3083,
      "Ġsummer": 3084,
      "Ġdare": 3085,
      "ram": 3086,
      "Ġgives": 3087,
      "Ġhosp": 3088,
      "Ġamong": 3089,
      "room": 3090,
      "Ġparts": 3091,
      "Ġswear": 3092,
      "ients": 3093,
      "Same": 3094,
      "oes": 3095,
      "Ġborn": 3096,
      "Ġmarketing": 3097,
      "ĠCom": 3098,
      "Ġpriv": 3099,
      "Ġphot": 3100,
      "iter": 3101,
      "Ġgovern": 3102,
      "Ġwit": 3103,
      "orge": 3104,
      "Ġsym": 3105,
      "Ġdiscus": 3106,
      "Ġtaste": 3107,
      "Ġcast": 3108,
      "ĠShakespeare": 3109,
      "round": 3110,
      "Ġdue": 3111,
      "ĠNothing": 3112,
      "ĠâĢĻ": 3113,
      "urope": 3114,
      "Ġshirt": 3115,
      "istic": 3116,
      "Ġbecoming": 3117,
      "ĠMay": 3118,
      "Ġcard": 3119,
      "Ġculture": 3120,
      "bo": 3121,
      "arth": 3122,
      "Ġtree": 3123,
      "Ġfeed": 3124,
      "Ġarg": 3125,
      "vious": 3126,
      "Ġcop": 3127,
      "Ġtypes": 3128,
      "lect": 3129,
      "tern": 3130,
      "Ġ9": 3131,
      "Ġpost": 3132,
      "Ġdoth": 3133,
      "Ġmood": 3134,
      "Ġoverwhelming": 3135,
      "Ġstock": 3136,
      "```": 3137,
      "Ġdeg": 3138,
      "ler": 3139,
      "Ġactions": 3140,
      "Ġprove": 3141,
      "Ġplayed": 3142,
      "20": 3143,
      "Ġlon": 3144,
      "ĠHer": 3145,
      "here": 3146,
      "ising": 3147,
      "Ġamount": 3148,
      "Ġstaying": 3149,
      "Ġconsidered": 3150,
      "Ġarms": 3151,
      "Ġrelaxing": 3152,
      "Ġnoise": 3153,
      "eday": 3154,
      "ĠEurope": 3155,
      "Ġsuppose": 3156,
      "rant": 3157,
      "Ġbudget": 3158,
      "light": 3159,
      "ĠWar": 3160,
      "Ġcake": 3161,
      "ĠPeople": 3162,
      "rity": 3163,
      "usion": 3164,
      "Ġshoes": 3165,
      "race": 3166,
      "Ġloves": 3167,
      "ization": 3168,
      "Ġenc": 3169,
      "Ġcomplex": 3170,
      "Ġknowledge": 3171,
      "val": 3172,
      "Ġstraight": 3173,
      "ĠLe": 3174,
      "ulous": 3175,
      "Ġaddress": 3176,
      "Ġreceive": 3177,
      "10": 3178,
      "Ġunf": 3179,
      "Ġtraining": 3180,
      "bit": 3181,
      "ency": 3182,
      "rench": 3183,
      "Ġredu": 3184,
      "Ġsold": 3185,
      "sc": 3186,
      "Ġfashion": 3187,
      "Ġmethod": 3188,
      "ĊĠĠĠĠĠĠĠ": 3189,
      "Ġsimilar": 3190,
      "Ġesc": 3191,
      "Ġerr": 3192,
      "ext": 3193,
      "Ġentire": 3194,
      "Ġregret": 3195,
      "Ġclim": 3196,
      "Ġexist": 3197,
      "ĠAlex": 3198,
      "itted": 3199,
      "ena": 3200,
      "Ġess": 3201,
      "ĠAb": 3202,
      "Ġbroken": 3203,
      "ms": 3204,
      "ems": 3205,
      "Ġdancing": 3206,
      "Ġhungry": 3207,
      "vy": 3208,
      "ining": 3209,
      "Ġsomeday": 3210,
      "ĠSm": 3211,
      "Ġcharge": 3212,
      "Ġchicken": 3213,
      "ĠThou": 3214,
      "Ġdivor": 3215,
      "Ġcry": 3216,
      "Ġnoble": 3217,
      "AL": 3218,
      "Ġbirthday": 3219,
      "ource": 3220,
      "Ġtrad": 3221,
      "Ġterrif": 3222,
      "Ġcream": 3223,
      "Ġconversation": 3224,
      "Ġspot": 3225,
      "ĠEd": 3226,
      "Ġquality": 3227,
      "Ġport": 3228,
      "Ġbrave": 3229,
      "Ġnon": 3230,
      "Ġmult": 3231,
      "Ġresources": 3232,
      "lu": 3233,
      "rap": 3234,
      "Ġlibrary": 3235,
      "Ġ**": 3236,
      "gs": 3237,
      "Ġrough": 3238,
      "iqu": 3239,
      "Ġsea": 3240,
      "Ġadvant": 3241,
      "Ġpowerful": 3242,
      "ified": 3243,
      "Ġimpact": 3244,
      "Ġforth": 3245,
      "ym": 3246,
      "Ġrace": 3247,
      "Ġcomb": 3248,
      "ara": 3249,
      "Ġengine": 3250,
      "Ġpush": 3251,
      "Ġsuit": 3252,
      "ĠMe": 3253,
      "icer": 3254,
      "Ġspeed": 3255,
      "Ġtalented": 3256,
      "rupt": 3257,
      "ased": 3258,
      "alt": 3259,
      "eel": 3260,
      "Ġwebs": 3261,
      "Ġmount": 3262,
      "Ġgradu": 3263,
      "Ġplays": 3264,
      "Ġmarry": 3265,
      "Ġfriendship": 3266,
      "Tr": 3267,
      "Ġrules": 3268,
      "ases": 3269,
      "Ġspecifically": 3270,
      "Ġlosing": 3271,
      "Ġrain": 3272,
      "Ġsched": 3273,
      "Ġcolors": 3274,
      "Ġqual": 3275,
      "Ġattack": 3276,
      "Ġcirc": 3277,
      "fortun": 3278,
      "za": 3279,
      "Ġnotice": 3280,
      "gain": 3281,
      "ield": 3282,
      "nes": 3283,
      "bed": 3284,
      "Ġyounger": 3285,
      "Please": 3286,
      "Ġevidence": 3287,
      "Ġ&": 3288,
      "Ġspee": 3289,
      "back": 3290,
      "Ġhers": 3291,
      "Ġincluding": 3292,
      "Ġcooking": 3293,
      "Ġhesitate": 3294,
      "Exit": 3295,
      "Ġforce": 3296,
      "acy": 3297,
      "Ġanxiety": 3298,
      "Ġassist": 3299,
      "Ġabsolutely": 3300,
      "Ġskin": 3301,
      "Ġexpensive": 3302,
      "Ġstudents": 3303,
      "IC": 3304,
      "Ġpicture": 3305,
      "Will": 3306,
      "Ġcredit": 3307,
      "Ġkept": 3308,
      "Ġsto": 3309,
      "Ġelect": 3310,
      "used": 3311,
      "Ġrepresent": 3312,
      "atures": 3313,
      "Ġpatient": 3314,
      "ĠYeah": 3315,
      "Ġunh": 3316,
      "Ġbalance": 3317,
      "sy": 3318,
      "Ġexcuse": 3319,
      "Ġhadn": 3320,
      "Ġflowers": 3321,
      "Ġadventure": 3322,
      "Ġchurch": 3323,
      "Ġmedication": 3324,
      "ĠTell": 3325,
      "Ġcover": 3326,
      "Ġindivid": 3327,
      "Ġ17": 3328,
      "Ġhospital": 3329,
      "Ġlab": 3330,
      "Ġpu": 3331,
      "now": 3332,
      "Ġdesp": 3333,
      "Ã©": 3334,
      "dom": 3335,
      "Ġtherap": 3336,
      "Ġfocused": 3337,
      "IT": 3338,
      "Ġsteal": 3339,
      "Did": 3340,
      "ibly": 3341,
      "aged": 3342,
      "AM": 3343,
      "ĠHar": 3344,
      "Ġeasily": 3345,
      "Ġaware": 3346,
      "ĠQu": 3347,
      "tw": 3348,
      "Ġrepl": 3349,
      "Ġaren": 3350,
      "Ġproperly": 3351,
      "Ġdisappointed": 3352,
      "Ġeducation": 3353,
      "Ġthousand": 3354,
      "epend": 3355,
      ".+": 3356,
      "Ġlikely": 3357,
      "Ġpieces": 3358,
      "Ġremind": 3359,
      "AS": 3360,
      "Ġpun": 3361,
      "ĠMan": 3362,
      "Sorry": 3363,
      "Ġsearch": 3364,
      "RE": 3365,
      "how": 3366,
      "Ġflat": 3367,
      "Ġshame": 3368,
      "Ġpet": 3369,
      "Ġprevent": 3370,
      "Ġimpressed": 3371,
      "ĠQue": 3372,
      "ateg": 3373,
      "Ġda": 3374,
      "Ġdeser": 3375,
      "Ġmiddle": 3376,
      "Ġwild": 3377,
      "Ġgotten": 3378,
      "iling": 3379,
      "Ġrout": 3380,
      "Ġadmir": 3381,
      "ording": 3382,
      "Ġneck": 3383,
      "Ġfile": 3384,
      "ses": 3385,
      "Ġmur": 3386,
      "oman": 3387,
      "ils": 3388,
      "go": 3389,
      "Ġz": 3390,
      "Ġfascinating": 3391,
      "Ġinclude": 3392,
      "Ġglass": 3393,
      "Ha": 3394,
      "ĠHa": 3395,
      "Ġwed": 3396,
      "Ġpoints": 3397,
      "Ġexcept": 3398,
      "umb": 3399,
      "iod": 3400,
      "OU": 3401,
      "appy": 3402,
      "Ġintell": 3403,
      "Ġaccomplish": 3404,
      "ĠAh": 3405,
      "elling": 3406,
      "Ġord": 3407,
      "what": 3408,
      "Ġcute": 3409,
      "Ġcarry": 3410,
      "ĠX": 3411,
      "Ġver": 3412,
      "Ġfru": 3413,
      "Ġdoll": 3414,
      "Ġindividual": 3415,
      "Ġment": 3416,
      "Ġbless": 3417,
      "Ġbored": 3418,
      "Ġtemper": 3419,
      "Ġii": 3420,
      "Ġturns": 3421,
      "Ġwearing": 3422,
      "Ġgreen": 3423,
      "Ġsens": 3424,
      "Ġcup": 3425,
      "like": 3426,
      "Ġsurprised": 3427,
      "Ġwritten": 3428,
      "Ġvacation": 3429,
      "Ġborrow": 3430,
      "Ġbelong": 3431,
      "Ġdrinking": 3432,
      "ĠPar": 3433,
      "co": 3434,
      "Ġbuilding": 3435,
      "Ġconsequences": 3436,
      "Ġmach": 3437,
      "Ġkitch": 3438,
      "ĠHea": 3439,
      "ilty": 3440,
      "unities": 3441,
      "50": 3442,
      "ability": 3443,
      "Sir": 3444,
      "Ġsurround": 3445,
      "retch": 3446,
      "ator": 3447,
      "Ġinterests": 3448,
      "ĠBecause": 3449,
      "Ġrent": 3450,
      "Ġtick": 3451,
      "Ġweird": 3452,
      "Ġinj": 3453,
      "ĠFl": 3454,
      "Ġbehav": 3455,
      "eng": 3456,
      "Ġissues": 3457,
      "Ġvill": 3458,
      "ushing": 3459,
      "Ġexperien": 3460,
      "Ġsingle": 3461,
      "ĠAI": 3462,
      "Ġcondition": 3463,
      "Ġannoy": 3464,
      "ooth": 3465,
      "Ġsky": 3466,
      "Ġpolit": 3467,
      "conom": 3468,
      "Ġjudge": 3469,
      "Ġhom": 3470,
      "Ġkitchen": 3471,
      "wor": 3472,
      "Ġeverywhere": 3473,
      "Ġconv": 3474,
      "Ġlying": 3475,
      "Ġeffective": 3476,
      "ald": 3477,
      "Ġrelig": 3478,
      "Ġbox": 3479,
      "ĠPer": 3480,
      "Ġperiod": 3481,
      "Ġcoun": 3482,
      "por": 3483,
      "Ġbought": 3484,
      "Ġfal": 3485,
      "Ġnet": 3486,
      "Ġopportunities": 3487,
      "urning": 3488,
      "Ġblock": 3489,
      "Ġconj": 3490,
      "Ġconcept": 3491,
      "Ġscience": 3492,
      "empt": 3493,
      "Ġcommand": 3494,
      "Ġsword": 3495,
      "ĠEn": 3496,
      "ĠMiss": 3497,
      "Ġnumbers": 3498,
      "dred": 3499,
      "Ġended": 3500,
      "irm": 3501,
      "Ġlonely": 3502,
      "Ġoutdo": 3503,
      "Ġrush": 3504,
      "OK": 3505,
      "EL": 3506,
      "Ġchanging": 3507,
      "Ġfant": 3508,
      "Ġtong": 3509,
      "that": 3510,
      "astic": 3511,
      "Ġmeas": 3512,
      "ĠRome": 3513,
      "Ġsqu": 3514,
      "Ġawhile": 3515,
      "Ġproducts": 3516,
      ".'": 3517,
      "Ġneither": 3518,
      "erson": 3519,
      "Ġdedication": 3520,
      "olution": 3521,
      "Ġgovernment": 3522,
      "Ġfing": 3523,
      "Ġmarriage": 3524,
      "Ġbetray": 3525,
      "Ġmix": 3526,
      "Ġhundred": 3527,
      "Ġfinancial": 3528,
      "ians": 3529,
      "lt": 3530,
      "Ġpictures": 3531,
      "Ġtool": 3532,
      "Ġchocol": 3533,
      "Ġvirt": 3534,
      "Ġadjust": 3535,
      "Ġden": 3536,
      "Ġaccess": 3537,
      "Ġgrace": 3538,
      "Ġruined": 3539,
      "Ġanxious": 3540,
      "Ġridic": 3541,
      "Ġprojects": 3542,
      "Ġshop": 3543,
      "Ġsex": 3544,
      "net": 3545,
      "Ġbase": 3546,
      "Ġemotion": 3547,
      "ĠChar": 3548,
      "par": 3549,
      "Ġdiscuss": 3550,
      "Ġpage": 3551,
      "Ġtherefore": 3552,
      "iam": 3553,
      "Ġmemories": 3554,
      "ĠTHE": 3555,
      "Ġadvantage": 3556,
      "Ġguilty": 3557,
      "Ġhopefully": 3558,
      "Ġsake": 3559,
      "Ġcaused": 3560,
      "//": 3561,
      "ives": 3562,
      "Ġexperiences": 3563,
      "ours": 3564,
      "erence": 3565,
      "yth": 3566,
      "storm": 3567,
      "Ġcultures": 3568,
      "Ġweren": 3569,
      "de": 3570,
      "Ġlots": 3571,
      "uff": 3572,
      "ĠFrench": 3573,
      "ened": 3574,
      "Ġcrow": 3575,
      "Ġbey": 3576,
      "ĠGree": 3577,
      "Ġsand": 3578,
      "Ġindepend": 3579,
      "Ġsmile": 3580,
      "Ġegg": 3581,
      "Ġthird": 3582,
      "Ġperhaps": 3583,
      "Nay": 3584,
      "Ġbeyond": 3585,
      "aim": 3586,
      "Ġveget": 3587,
      "Ġschedule": 3588,
      "ardon": 3589,
      "ket": 3590,
      "ĊĠ": 3591,
      "een": 3592,
      "aves": 3593,
      "idents": 3594,
      "Ġvers": 3595,
      "Ġnovel": 3596,
      "Hello": 3597,
      "Ġsize": 3598,
      "Ġjobs": 3599,
      "Ġant": 3600,
      "Ġreact": 3601,
      "Ġeconom": 3602,
      "Ġsooner": 3603,
      "ogn": 3604,
      "ĠYet": 3605,
      "edy": 3606,
      "Ġaddition": 3607,
      "Ġburn": 3608,
      "haust": 3609,
      "Ġom": 3610,
      "icy": 3611,
      "Ġspeech": 3612,
      "Ġawful": 3613,
      "Ġmouth": 3614,
      "rel": 3615,
      "Ġyouth": 3616,
      "Ġtor": 3617,
      "Ġlocal": 3618,
      "Ġbes": 3619,
      "iyah": 3620,
      "ĠGe": 3621,
      "Ġbike": 3622,
      "Ġplayer": 3623,
      "Ġindust": 3624,
      "Ġends": 3625,
      "Ġbag": 3626,
      "uer": 3627,
      "Ġneighborhood": 3628,
      "ayl": 3629,
      "Ġdeli": 3630,
      "Ġterms": 3631,
      "though": 3632,
      "urity": 3633,
      "Ġreasons": 3634,
      "Ġconcern": 3635,
      "ĠPope": 3636,
      "oue": 3637,
      "Ġstarts": 3638,
      "Ġherself": 3639,
      "Ġdemand": 3640,
      "Ġfeatures": 3641,
      "Ġterrific": 3642,
      "Ġtoy": 3643,
      "ĠGet": 3644,
      "aced": 3645,
      "coming": 3646,
      "Ġvict": 3647,
      "Ġsuffer": 3648,
      "ĠAdd": 3649,
      "Ġtrain": 3650,
      "ĠâĢĺ": 3651,
      "ulf": 3652,
      "illing": 3653,
      "Ġtask": 3654,
      "medi": 3655,
      "Ġsett": 3656,
      "Ġvalu": 3657,
      "Ġcreative": 3658,
      "Ġefficient": 3659,
      "Ġpassed": 3660,
      "Ġbi": 3661,
      "ĠAnt": 3662,
      "Ġque": 3663,
      "Ġexhaust": 3664,
      "ĠEngland": 3665,
      "Ġregard": 3666,
      "ctors": 3667,
      "Ġvariety": 3668,
      "Ġdegree": 3669,
      "Ġemployees": 3670,
      ");": 3671,
      "Ġhar": 3672,
      "ider": 3673,
      "bute": 3674,
      "Ġbothering": 3675,
      "using": 3676,
      "asion": 3677,
      "Ġsoci": 3678,
      "anc": 3679,
      "ĠSec": 3680,
      "See": 3681,
      "tt": 3682,
      "Ġhob": 3683,
      "vere": 3684,
      "Ġworst": 3685,
      "Ġtreated": 3686,
      "ĠMon": 3687,
      "Ġlived": 3688,
      "rey": 3689,
      "Ġreci": 3690,
      "Ġorganized": 3691,
      "fast": 3692,
      "oting": 3693,
      "Ġmatch": 3694,
      "Ġaudience": 3695,
      "Ġstanding": 3696,
      "Ġability": 3697,
      "Ġoutdoors": 3698,
      "Ġnobody": 3699,
      "ational": 3700,
      "iah": 3701,
      "cies": 3702,
      "Ġsinging": 3703,
      "uty": 3704,
      "Ġident": 3705,
      "Ġsmooth": 3706,
      "Ġchocolate": 3707,
      "By": 3708,
      "Ġtax": 3709,
      "anish": 3710,
      "Ġsucks": 3711,
      "Ġdating": 3712,
      "When": 3713,
      "Ġbrainstorm": 3714,
      "Ġrestaur": 3715,
      "irty": 3716,
      "Ġcru": 3717,
      "Ġ12": 3718,
      "Ġlovely": 3719,
      "Ġstudent": 3720,
      "Ġloud": 3721,
      "Ġmill": 3722,
      "Ġloss": 3723,
      "Dad": 3724,
      "âĢ¦": 3725,
      "Ġsuper": 3726,
      "Ġsharing": 3727,
      "Ġfinal": 3728,
      "lement": 3729,
      "Ġsupportive": 3730,
      "Ġlif": 3731,
      "Ġdealing": 3732,
      "Ġwalks": 3733,
      "ids": 3734,
      "ĠEarth": 3735,
      "Ġanytime": 3736,
      "Ġdebt": 3737,
      "Ġruin": 3738,
      "Ġlines": 3739,
      "Ġridiculous": 3740,
      "Ġdishes": 3741,
      "Ġprofessional": 3742,
      "ĠHen": 3743,
      "Ġmostly": 3744,
      "elle": 3745,
      "Ġholding": 3746,
      "ĠWas": 3747,
      "reet": 3748,
      "ĠQq": 3749,
      "Ġcloser": 3750,
      "Per": 3751,
      "Ġdevelopment": 3752,
      "ĠLove": 3753,
      "Ġfalse": 3754,
      "Ġchallenges": 3755,
      "Ġmajor": 3756,
      "Ġkinds": 3757,
      "Ġseat": 3758,
      "Ġapartment": 3759,
      "Ġjump": 3760,
      "Ġapply": 3761,
      "ĠLook": 3762,
      "CH": 3763,
      "ĠOkay": 3764,
      "ĠMaster": 3765,
      "Ġgrown": 3766,
      "Ġfloor": 3767,
      "ĠWork": 3768,
      "Ġrecogn": 3769,
      "Ġprint": 3770,
      "Ġinflu": 3771,
      "Enter": 3772,
      "Ġpurch": 3773,
      "Ġadmirable": 3774,
      "Ġwriter": 3775,
      "Ġhorse": 3776,
      "Ġintrodu": 3777,
      "Ġprison": 3778,
      "ĠFrance": 3779,
      "Ġinn": 3780,
      "Ġing": 3781,
      "itor": 3782,
      "Ġareas": 3783,
      "Ġsympt": 3784,
      "ĠTrust": 3785,
      "ications": 3786,
      "Ġimmedi": 3787,
      "ĠInd": 3788,
      "Ġsuddenly": 3789,
      "ĠGr": 3790,
      "Ġbri": 3791,
      "Ġut": 3792,
      "Ġstands": 3793,
      "--------": 3794,
      "Ġband": 3795,
      "Ġmedia": 3796,
      "ondon": 3797,
      "Ġhy": 3798,
      "Ġsoftware": 3799,
      "Tell": 3800,
      "Ġbesides": 3801,
      "Ġattract": 3802,
      "Ġcompan": 3803,
      "fortunately": 3804,
      "Ġdrunk": 3805,
      "ael": 3806,
      "ĠCal": 3807,
      "Ġapologize": 3808,
      "Ġunc": 3809,
      "Ġdoc": 3810,
      "Ġbill": 3811,
      "Ġadmire": 3812,
      "Ġcomplete": 3813,
      "ux": 3814,
      "zz": 3815,
      "ander": 3816,
      "Ġplant": 3817,
      "ĠCap": 3818,
      "Ġanger": 3819,
      "Ġconfidence": 3820,
      "Ġkilled": 3821,
      "Ġrequire": 3822,
      "Ġevents": 3823,
      "nder": 3824,
      "Ġfat": 3825,
      "Ġstrateg": 3826,
      "Ġnegative": 3827,
      "Ġdrop": 3828,
      "Ġseas": 3829,
      "Ġarri": 3830,
      "ĠSomething": 3831,
      "Ġbow": 3832,
      "Ġconnected": 3833,
      "Ġsaving": 3834,
      "ĠAng": 3835,
      "amb": 3836,
      "Ġdogs": 3837,
      "Ġenem": 3838,
      "ĠFather": 3839,
      "Ġsetting": 3840,
      "Ġheld": 3841,
      "ights": 3842,
      "Ġmultip": 3843,
      "Ġthine": 3844,
      "arily": 3845,
      "roy": 3846,
      "Ġmessage": 3847,
      "ella": 3848,
      "urs": 3849,
      "Ġstronger": 3850,
      "pri": 3851,
      "Ġserve": 3852,
      "Ġslowly": 3853,
      "Ġexper": 3854,
      "Ab": 3855,
      "ET": 3856,
      "Ġmilk": 3857,
      "arp": 3858,
      "ĠDuke": 3859,
      "Ġheal": 3860,
      "iques": 3861,
      "Ġwow": 3862,
      "Ġbank": 3863,
      "iest": 3864,
      "ĠSmith": 3865,
      "iable": 3866,
      "iers": 3867,
      "Ġsymptoms": 3868,
      "Ġwise": 3869,
      "Ġmaid": 3870,
      "Ġwine": 3871,
      "Ok": 3872,
      "Ġring": 3873,
      "Ġtreatment": 3874,
      "Ġintellig": 3875,
      "Ġescape": 3876,
      "Ġheavy": 3877,
      "Ġskill": 3878,
      "Ġpe": 3879,
      "Ġbread": 3880,
      "Ġsignific": 3881,
      "ĠJul": 3882,
      "iana": 3883,
      "ĠThings": 3884,
      "Ġcouple": 3885,
      "Ġtongue": 3886,
      "Ġthro": 3887,
      "Ġthri": 3888,
      "Ġdisp": 3889,
      "Ġimm": 3890,
      "Ġdirection": 3891,
      "Ġsolve": 3892,
      "Ġhat": 3893,
      "Ġsaved": 3894,
      "Ġsin": 3895,
      "Ġoper": 3896,
      "Ġmere": 3897,
      "ĠShall": 3898,
      "Ġinput": 3899,
      "OL": 3900,
      "Ġwaste": 3901,
      "Ġkeeps": 3902,
      "Ġ--": 3903,
      "ĠWor": 3904,
      "rite": 3905,
      "eunt": 3906,
      "illy": 3907,
      "aff": 3908,
      "Ay": 3909,
      "Ġbeginning": 3910,
      "unning": 3911,
      "Act": 3912,
      "ĠMal": 3913,
      "Ġdescri": 3914,
      "ĠTy": 3915,
      "Ġunfair": 3916,
      "Ġtotally": 3917,
      "idge": 3918,
      "Ġbehavior": 3919,
      "ython": 3920,
      "Ġclearly": 3921,
      "Ġgentleman": 3922,
      "att": 3923,
      "rie": 3924,
      "Ġvarious": 3925,
      "Ġlad": 3926,
      "Ġoffering": 3927,
      "AD": 3928,
      "Ġrisks": 3929,
      "Ġled": 3930,
      "Ġchoices": 3931,
      "ium": 3932,
      "rs": 3933,
      "Ġrely": 3934,
      "ilos": 3935,
      "Ġancient": 3936,
      "etch": 3937,
      "Ġmemory": 3938,
      "Ġtotal": 3939,
      "ĠCo": 3940,
      "iot": 3941,
      "inary": 3942,
      "port": 3943,
      "Ġcommit": 3944,
      "Ġrev": 3945,
      "Ġembarrassed": 3946,
      "raph": 3947,
      "ae": 3948,
      "With": 3949,
      "Ġbills": 3950,
      "Ġgall": 3951,
      "Ġtips": 3952,
      "ilosop": 3953,
      "Ġbenefits": 3954,
      "nces": 3955,
      "Ġagre": 3956,
      "Ġdetails": 3957,
      "gin": 3958,
      "Ġunhappy": 3959,
      "Ġvalid": 3960,
      "Ġbound": 3961,
      "erry": 3962,
      "Ġfortune": 3963,
      "Ġleaves": 3964,
      "ners": 3965,
      "Ġbreaking": 3966,
      "Ġuncom": 3967,
      "ĠTw": 3968,
      "Ġolder": 3969,
      "Ġphysical": 3970,
      "iya": 3971,
      "oo": 3972,
      "Ġfactors": 3973,
      "Be": 3974,
      "ĠRem": 3975,
      "Ġdrama": 3976,
      "Ġgods": 3977,
      "Ġgrocery": 3978,
      "ĠLondon": 3979,
      "Ġreality": 3980,
      "Ġwebsite": 3981,
      "Ġbreakfast": 3982,
      "Ġafterwards": 3983,
      "Ġtar": 3984,
      "Ġhigher": 3985,
      "ora": 3986,
      "tery": 3987,
      "Ġought": 3988,
      "imately": 3989,
      "Ġliter": 3990,
      "Ġgirls": 3991,
      "ĠAN": 3992,
      "iving": 3993,
      "ĠSch": 3994,
      "Ġdepart": 3995,
      "Ġtrees": 3996,
      "Ġtall": 3997,
      "Ġbuilt": 3998,
      "ĠMake": 3999,
      "Ġevening": 4000,
      "rem": 4001,
      "ĠJoe": 4002,
      "otions": 4003,
      "ĠLu": 4004,
      "Ġlatest": 4005,
      "Ġvolunt": 4006,
      "ĠHop": 4007,
      "uous": 4008,
      "Ġenter": 4009,
      "iliar": 4010,
      "ivil": 4011,
      "Ġartist": 4012,
      "Ġbath": 4013,
      "Ġentertain": 4014,
      "str": 4015,
      "ength": 4016,
      "ror": 4017,
      "Ġplants": 4018,
      "Ġfixed": 4019,
      "Ġartic": 4020,
      "ĠHeaven": 4021,
      "Ġjustice": 4022,
      "ĠThose": 4023,
      "Ġquar": 4024,
      "Ġswimming": 4025,
      "Ġcele": 4026,
      "ett": 4027,
      "fortable": 4028,
      "Ġgrew": 4029,
      "ares": 4030,
      "Ġhide": 4031,
      "Ġscrew": 4032,
      "Ġbasket": 4033,
      "Ġcash": 4034,
      "Ġash": 4035,
      "Ġheat": 4036,
      "anch": 4037,
      "Ġens": 4038,
      "Ġactivities": 4039,
      "Ġbull": 4040,
      "Ġhonor": 4041,
      "Ġbreathe": 4042,
      "Ġcalling": 4043,
      "ibilities": 4044,
      "Ġmotivated": 4045,
      "Ġfollowed": 4046,
      "under": 4047,
      "Ġspread": 4048,
      "ĠDr": 4049,
      "Ġvent": 4050,
      "Ġcongr": 4051,
      "Ġsleeping": 4052,
      "Ġstressful": 4053,
      "Ġloose": 4054,
      "Ġpromotion": 4055,
      "Ġ30": 4056,
      "Ġuncomfortable": 4057,
      "Ġfav": 4058,
      "Ġ}": 4059,
      "iles": 4060,
      "Ġtran": 4061,
      "Tw": 4062,
      "Ġimpressive": 4063,
      "Ġchair": 4064,
      "Ġtechniques": 4065,
      "Ġcollect": 4066,
      "icked": 4067,
      "ĠCar": 4068,
      "uing": 4069,
      "Ġble": 4070,
      "Ġwash": 4071,
      "Ġfamous": 4072,
      "Ġwhenever": 4073,
      "ama": 4074,
      "ĠCount": 4075,
      "ivity": 4076,
      "Ġindustry": 4077,
      "Ġgrade": 4078,
      "Ġgar": 4079,
      "Ġshad": 4080,
      "TH": 4081,
      "Ġtasks": 4082,
      "elyn": 4083,
      "Ġcircum": 4084,
      "Ġstars": 4085,
      "RO": 4086,
      "owe": 4087,
      "Ġcandy": 4088,
      "Ġsav": 4089,
      "ourt": 4090,
      "Ġdry": 4091,
      "ĠCor": 4092,
      "Ġcleaning": 4093,
      "Ġfigured": 4094,
      "Ġgrant": 4095,
      "Ġspent": 4096,
      "yal": 4097,
      "ĠRob": 4098,
      "Ġsociety": 4099,
      "Those": 4100,
      "Ġinviting": 4101,
      "Ġdamage": 4102,
      "gn": 4103,
      "Ġmachine": 4104,
      "Ġsli": 4105,
      "Ġrecord": 4106,
      "Ġreduce": 4107,
      "Ġ`": 4108,
      "Ġincrease": 4109,
      "ension": 4110,
      "Ġboyfriend": 4111,
      "Ġpal": 4112,
      "IL": 4113,
      "Ġwedding": 4114,
      "eter": 4115,
      "Ġflu": 4116,
      "pen": 4117,
      "ĠGu": 4118,
      "Ġcars": 4119,
      "Ġscar": 4120,
      "Ġmodern": 4121,
      "Ġpaintings": 4122,
      "Ġmoments": 4123,
      "ĠColl": 4124,
      "ung": 4125,
      "Ġshel": 4126,
      "Ġrange": 4127,
      "Ġoccasion": 4128,
      "Ġwealth": 4129,
      "ĊĠĠĠĠĠĠĠĠ": 4130,
      "ission": 4131,
      "Ġdesire": 4132,
      "Ġaccording": 4133,
      "Ġcell": 4134,
      "others": 4135,
      "Ġbigger": 4136,
      "pper": 4137,
      "Ġlies": 4138,
      "Ġtradition": 4139,
      ".]": 4140,
      "Ġrob": 4141,
      "ament": 4142,
      "Ġsongs": 4143,
      "Actually": 4144,
      "Ġfreed": 4145,
      "ED": 4146,
      "Ġstorm": 4147,
      "uen": 4148,
      "Ġtopic": 4149,
      "Ġvegetables": 4150,
      "Ġexperiment": 4151,
      "Ġintention": 4152,
      "Ġworrying": 4153,
      "guing": 4154,
      "Ġ0": 4155,
      "ĠDoes": 4156,
      "Ġservices": 4157,
      "ĠCol": 4158,
      "Ġanimal": 4159,
      "chan": 4160,
      "urance": 4161,
      "Ġburden": 4162,
      "Ġsports": 4163,
      "Go": 4164,
      "Ġir": 4165,
      "see": 4166,
      "ply": 4167,
      "Ġtit": 4168,
      "Ġvolunte": 4169,
      "ued": 4170,
      "Ġprefer": 4171,
      "Ġasleep": 4172,
      "Ġactive": 4173,
      "Ġund": 4174,
      "Ġfulf": 4175,
      "Ġuniverse": 4176,
      "ĠBar": 4177,
      "Ġotherwise": 4178,
      "eds": 4179,
      "Ġtight": 4180,
      "Ġaccomplished": 4181,
      "Ġinnoc": 4182,
      "Ġhero": 4183,
      "Ġmanaging": 4184,
      "itation": 4185,
      "uel": 4186,
      "Ġcloud": 4187,
      "Ġnames": 4188,
      "Ġselling": 4189,
      "Ġrom": 4190,
      "Nope": 4191,
      "lin": 4192,
      "kes": 4193,
      "esty": 4194,
      "Ġpair": 4195,
      "Ġcrown": 4196,
      "Ġdoctors": 4197,
      "Ġrelationships": 4198,
      "Ġsacri": 4199,
      "Ġcrowd": 4200,
      "Ġpra": 4201,
      "ossible": 4202,
      "ĠGl": 4203,
      "with": 4204,
      "Ġwrote": 4205,
      "eph": 4206,
      "ING": 4207,
      "ethe": 4208,
      "Ġbasic": 4209,
      "ĠGive": 4210,
      "Ġsituations": 4211,
      ".âĢĿ": 4212,
      "Ġfurn": 4213,
      "Ġweb": 4214,
      "li": 4215,
      "Ġflow": 4216,
      "Ġsolution": 4217,
      "Ġsafety": 4218,
      "osing": 4219,
      "oun": 4220,
      "Ġimmediately": 4221,
      "==": 4222,
      "Ġwid": 4223,
      "Ġma": 4224,
      "cked": 4225,
      "enes": 4226,
      "Ġwide": 4227,
      "RI": 4228,
      "bing": 4229,
      "Ġcongrat": 4230,
      "ĠSat": 4231,
      "Ġinvent": 4232,
      "Ġbiggest": 4233,
      "versity": 4234,
      "Ġvaluable": 4235,
      "aya": 4236,
      "cription": 4237,
      "Ġere": 4238,
      "iny": 4239,
      "erk": 4240,
      "cul": 4241,
      "Ġsle": 4242,
      "Ġdiet": 4243,
      "inct": 4244,
      "ĠFin": 4245,
      "Ġcounsel": 4246,
      "osition": 4247,
      "Ġgosh": 4248,
      "Ġloving": 4249,
      "Ġbott": 4250,
      "Ġcarrying": 4251,
      "?--": 4252,
      "Ġfamiliar": 4253,
      "Ġproperty": 4254,
      "Ġcand": 4255,
      "Mar": 4256,
      "Ġwis": 4257,
      "ĠHel": 4258,
      "Ġannoying": 4259,
      "Ġrecommendations": 4260,
      "oted": 4261,
      "Ġphilosop": 4262,
      "Ġbringing": 4263,
      "Ġletters": 4264,
      "Ġsacrif": 4265,
      "Ġstir": 4266,
      "Ġhurry": 4267,
      "ĠParis": 4268,
      "ores": 4269,
      "Ġprinci": 4270,
      "Ġowe": 4271,
      "aging": 4272,
      "Ġassign": 4273,
      "lling": 4274,
      "Ġtests": 4275,
      "ĠRich": 4276,
      "pro": 4277,
      "alk": 4278,
      "Ġpursue": 4279,
      "ĠHopefully": 4280,
      "ĠPo": 4281,
      "Ġthroughout": 4282,
      "ĠPrince": 4283,
      "esh": 4284,
      "Ġpicking": 4285,
      "Ġsty": 4286,
      "Ġstom": 4287,
      "ĠSw": 4288,
      "Ġmir": 4289,
      "Ġbecame": 4290,
      "Ġfaster": 4291,
      "ends": 4292,
      "sts": 4293,
      "Ġeggs": 4294,
      "ii": 4295,
      "Ġwinning": 4296,
      "iel": 4297,
      "Ġpresence": 4298,
      "ĠStates": 4299,
      "ision": 4300,
      "Ġcreating": 4301,
      "ccer": 4302,
      "cel": 4303,
      "Ġpardon": 4304,
      "?!": 4305,
      "vert": 4306,
      "ĠMa": 4307,
      "Ã¦": 4308,
      "ffic": 4309,
      "Ġnowhere": 4310,
      "Ġemotions": 4311,
      "Ġbuying": 4312,
      "Ġconcl": 4313,
      "Ġtransp": 4314,
      "\",": 4315,
      "Ġconcerns": 4316,
      "Ġsecurity": 4317,
      "Ġrelaxed": 4318,
      "Ġsales": 4319,
      "host": 4320,
      "Ġpride": 4321,
      "Ġpan": 4322,
      "Ġdwell": 4323,
      "Ġplayers": 4324,
      "Ġblame": 4325,
      "Ġtears": 4326,
      "ris": 4327,
      "Ġuseful": 4328,
      "ugg": 4329,
      "Ġholds": 4330,
      "Ġcircumst": 4331,
      "Ġacqu": 4332,
      "ĠIm": 4333,
      "asing": 4334,
      "Ġsem": 4335,
      "Ġseek": 4336,
      "onestly": 4337,
      "bye": 4338,
      "Ġcoat": 4339,
      "iano": 4340,
      "Ġcommunicate": 4341,
      "Ġhasn": 4342,
      "Ġwake": 4343,
      "ique": 4344,
      "Ġsharp": 4345,
      "Ġunto": 4346,
      "Ġtyp": 4347,
      "ĠQueen": 4348,
      "lled": 4349,
      "Ġcrime": 4350,
      "Ġgas": 4351,
      "Thou": 4352,
      "Ġflight": 4353,
      "awn": 4354,
      "ground": 4355,
      "Ġmass": 4356,
      "Ġaspect": 4357,
      "ening": 4358,
      "lies": 4359,
      "Ġinteract": 4360,
      "Ġhid": 4361,
      "Ġconnection": 4362,
      "mas": 4363,
      "ien": 4364,
      "Ġmaint": 4365,
      "aked": 4366,
      "Ġrequest": 4367,
      "cil": 4368,
      "Ġstruct": 4369,
      "Ġdifferently": 4370,
      "Ġbare": 4371,
      "Ġ<": 4372,
      "Ġmechan": 4373,
      "imin": 4374,
      "Ġvs": 4375,
      "Ġcelebr": 4376,
      "Ġcancer": 4377,
      "Ġcreated": 4378,
      "ĠSecond": 4379,
      "ĠGentle": 4380,
      "Ġleader": 4381,
      "Ġsale": 4382,
      "Ġblow": 4383,
      "pting": 4384,
      "Ġcatching": 4385,
      "Ġoriginal": 4386,
      "face": 4387,
      "ney": 4388,
      "Ġdistract": 4389,
      "book": 4390,
      "spect": 4391,
      "Ġsurv": 4392,
      "eared": 4393,
      "enses": 4394,
      "Ġplain": 4395,
      "Ġbird": 4396,
      "Ġencour": 4397,
      "Ġappoint": 4398,
      "Ġmoon": 4399,
      "Ġimpossible": 4400,
      "Ġaccur": 4401,
      "ĠSam": 4402,
      "oon": 4403,
      "ĠTra": 4404,
      "fit": 4405,
      "uments": 4406,
      "Ġ100": 4407,
      "Ġoriginally": 4408,
      "Ġtroub": 4409,
      "Ġshowing": 4410,
      "ĠSe": 4411,
      "Ġsource": 4412,
      "Ġfeedback": 4413,
      "Ġnotes": 4414,
      "ĠSun": 4415,
      "Ġguard": 4416,
      "âĤĤ": 4417,
      "Ġ,": 4418,
      "Ġadult": 4419,
      "Ġscr": 4420,
      "ham": 4421,
      "15": 4422,
      "ltimately": 4423,
      "Ġcontribute": 4424,
      "Ġdevil": 4425,
      "Ġbattle": 4426,
      "Ġtreas": 4427,
      "Ġentirely": 4428,
      "ĠTim": 4429,
      "Nothing": 4430,
      "raw": 4431,
      "Ġeffects": 4432,
      "Ġmanner": 4433,
      "laugh": 4434,
      "Ġreven": 4435,
      "inks": 4436,
      "Ġfavorites": 4437,
      "Ġsmaller": 4438,
      "cket": 4439,
      "Ġblast": 4440,
      "arewell": 4441,
      "Ġcheating": 4442,
      "Ġgirlfriend": 4443,
      "ruction": 4444,
      "ĠBri": 4445,
      "One": 4446,
      "ĊĊĠĠĠ": 4447,
      "Ġstomach": 4448,
      "12": 4449,
      "hold": 4450,
      "ov": 4451,
      "Ġflying": 4452,
      "imate": 4453,
      "Ġbelief": 4454,
      "Ġindependent": 4455,
      "Ġteaching": 4456,
      "Ġlaughing": 4457,
      "ĠDes": 4458,
      "nown": 4459,
      "Ġnose": 4460,
      "Ġshake": 4461,
      "Ġexamples": 4462,
      "OM": 4463,
      "anced": 4464,
      "Ġretire": 4465,
      "Ġtwenty": 4466,
      "play": 4467,
      "Ġcalming": 4468,
      "About": 4469,
      "Ġthreat": 4470,
      "Ġrestaurant": 4471,
      "Ġmeat": 4472,
      "Ġrise": 4473,
      "):": 4474,
      "Ġaut": 4475,
      "Ġproductive": 4476,
      "Ġprivate": 4477,
      "Ġduty": 4478,
      "Ġpurchase": 4479,
      "Ġunless": 4480,
      "atre": 4481,
      "Congratulations": 4482,
      "Ġsoccer": 4483,
      "Ġsomehow": 4484,
      "Ġsepar": 4485,
      "Ġcongratulations": 4486,
      "ĠAmerican": 4487,
      "Ġthoughtful": 4488,
      "arrow": 4489,
      "Ġplat": 4490,
      "Ġ14": 4491,
      "yer": 4492,
      "Ġsnow": 4493,
      "Ġgain": 4494,
      "Ġresol": 4495,
      "ĠÂ": 4496,
      "itar": 4497,
      "Ġappeal": 4498,
      "Ġeight": 4499,
      "entr": 4500,
      "ogue": 4501,
      "Ġplanned": 4502,
      "ĠThy": 4503,
      "Ġseason": 4504,
      "Ġfreedom": 4505,
      "ĠUnited": 4506,
      "Ġcheese": 4507,
      "Ġimage": 4508,
      "Ġselection": 4509,
      "Ġplot": 4510,
      "ĠFo": 4511,
      "Ġknock": 4512,
      "Ġtrick": 4513,
      "icial": 4514,
      "Ġbusinesses": 4515,
      "Ġclaim": 4516,
      "Ġmyst": 4517,
      "Ġcomplicated": 4518,
      "Ġbid": 4519,
      "Ġmodels": 4520,
      "Ġdrawn": 4521,
      "Ġtechnology": 4522,
      "Ġdoe": 4523,
      "itionally": 4524,
      "Ġshut": 4525,
      "bies": 4526,
      "Pro": 4527,
      "Ġcontribut": 4528,
      "Ġasset": 4529,
      "Ġhence": 4530,
      "Ġexh": 4531,
      "Ġcountries": 4532,
      "Ġlift": 4533,
      "Ġcares": 4534,
      "cher": 4535,
      "ĠSa": 4536,
      "Ġwea": 4537,
      "Ġclub": 4538,
      "Ġaccidents": 4539,
      "ĠRos": 4540,
      "ĠMary": 4541,
      "etic": 4542,
      "lict": 4543,
      "ĠAct": 4544,
      "Ġexpected": 4545,
      "Ġsurprise": 4546,
      "ixt": 4547,
      "Ġmort": 4548,
      "Ġconditions": 4549,
      "Ġdepending": 4550,
      "ops": 4551,
      "Ġliber": 4552,
      "ette": 4553,
      "Honestly": 4554,
      "Ġblind": 4555,
      "Ġgroceries": 4556,
      "Ġarguing": 4557,
      "Ġearn": 4558,
      "Ġsorts": 4559,
      "cean": 4560,
      "Ġsurrounded": 4561,
      "Ġsuffering": 4562,
      "Ġgoodness": 4563,
      ",'": 4564,
      "âĤĥ": 4565,
      "Ġleading": 4566,
      "apt": 4567,
      "II": 4568,
      "Exeunt": 4569,
      "iled": 4570,
      "Ġease": 4571,
      "aries": 4572,
      "Ġod": 4573,
      "Ġenjoyable": 4574,
      "gor": 4575,
      "Ġobvious": 4576,
      "Ġwet": 4577,
      "mit": 4578,
      "Ġpity": 4579,
      "Ġparties": 4580,
      "Ġsorrow": 4581,
      "aign": 4582,
      "Ġcow": 4583,
      "Ġste": 4584,
      "Ġgreater": 4585,
      "Ġmaterials": 4586,
      "uries": 4587,
      "ST": 4588,
      "Ġrare": 4589,
      "ulation": 4590,
      "Ġarr": 4591,
      "Ġlength": 4592,
      "Ġexhausted": 4593,
      "Ġlower": 4594,
      "Ġwinter": 4595,
      "Ġsmoking": 4596,
      "Ġcopy": 4597,
      "bl": 4598,
      "path": 4599,
      "key": 4600,
      "Ġregularly": 4601,
      "âĤģ": 4602,
      "Ġlevels": 4603,
      "Ġban": 4604,
      "ĠBeing": 4605,
      "Ġitems": 4606,
      "Ġallows": 4607,
      "load": 4608,
      "laughs": 4609,
      "Ġcouch": 4610,
      "Ġdiscour": 4611,
      "Ġrule": 4612,
      "99": 4613,
      "Ġsimply": 4614,
      "Ġmillion": 4615,
      "etheart": 4616,
      "Ġbold": 4617,
      "Ġseries": 4618,
      "Ġcommunication": 4619,
      "ĠJam": 4620,
      "gue": 4621,
      "Ġspl": 4622,
      "ĠSure": 4623,
      "Ġupd": 4624,
      "ĠDev": 4625,
      "Ġnetwork": 4626,
      "Ġfantastic": 4627,
      "amber": 4628,
      "Ġmental": 4629,
      "Ġscratch": 4630,
      "Ġreview": 4631,
      "ya": 4632,
      "Ġhost": 4633,
      "isten": 4634,
      "Ġstopped": 4635,
      "Ġunderstands": 4636,
      "Ġinterview": 4637,
      "Ġmadam": 4638,
      "ieving": 4639,
      "eness": 4640,
      "Ġpiz": 4641,
      "ĠJake": 4642,
      "Ġrelieve": 4643,
      "Ġcorner": 4644,
      "Ġtools": 4645,
      "Ġ13": 4646,
      "Ġworkout": 4647,
      "Ġcourage": 4648,
      "ias": 4649,
      "ĠSorry": 4650,
      "uses": 4651,
      "Ġcre": 4652,
      "Ġadmit": 4653,
      "oul": 4654,
      "Ġexec": 4655,
      "Ġevil": 4656,
      "Ġdiscover": 4657,
      "Ġpays": 4658,
      "ĠHenry": 4659,
      "ĠGeorge": 4660,
      "Ġdread": 4661,
      "ression": 4662,
      "Ġmedical": 4663,
      "ĠMax": 4664,
      "Ġ25": 4665,
      "Ġchecked": 4666,
      "Ġargument": 4667,
      "Ġbirds": 4668,
      "antic": 4669,
      "Ġsweetheart": 4670,
      "ellow": 4671,
      "Ad": 4672,
      "Perfect": 4673,
      "Ġlaid": 4674,
      "Ġcalls": 4675,
      "ĠItaly": 4676,
      "ĠCourt": 4677,
      "Ġwoke": 4678,
      "ĠMadam": 4679,
      "Ġdig": 4680,
      "Ġheaded": 4681,
      "utions": 4682,
      "Ġroutine": 4683,
      "sec": 4684,
      "ĠJay": 4685,
      "Ġstudied": 4686,
      "Ġappears": 4687,
      "ĠAmerica": 4688,
      "Ġhol": 4689,
      "Ġdramatic": 4690,
      "onna": 4691,
      "Ġfla": 4692,
      "Ġuser": 4693,
      "Ġselfe": 4694,
      "ially": 4695,
      "Ġbond": 4696,
      "Ġwalls": 4697,
      "Ġshalt": 4698,
      "Ġturning": 4699,
      "Ġrude": 4700,
      "Awesome": 4701,
      "ĠHon": 4702,
      "Ġattend": 4703,
      "Ġopening": 4704,
      "Some": 4705,
      "Ġdistance": 4706,
      "At": 4707,
      "Ġgym": 4708,
      "ĠInt": 4709,
      "Ġteeth": 4710,
      "ĠRo": 4711,
      "Ġtaught": 4712,
      "Ġempt": 4713,
      "Ġnamed": 4714,
      "UR": 4715,
      "Ġfoods": 4716,
      "ĠGreat": 4717,
      "Ġworthy": 4718,
      "100": 4719,
      "Ġarch": 4720,
      "Ġdestroy": 4721,
      "tered": 4722,
      "ĠLa": 4723,
      "opt": 4724,
      "Ġstood": 4725,
      "Ġkeys": 4726,
      "Ġreflect": 4727,
      "ĠBea": 4728,
      "Ġinstruct": 4729,
      "Ġmeasure": 4730,
      "Ġcivil": 4731,
      "iction": 4732,
      "ĠSu": 4733,
      "Ġsomebody": 4734,
      "Ġgrief": 4735,
      "ila": 4736,
      "Ġnecessarily": 4737,
      "Ġdollars": 4738,
      "ĠMore": 4739,
      "ĠGerm": 4740,
      "Ġdecl": 4741,
      "Ġdivorce": 4742,
      "gery": 4743,
      "Ġetc": 4744,
      "First": 4745,
      "Ġpred": 4746,
      "Ġedge": 4747,
      "Ãī": 4748,
      "Ġhabit": 4749,
      "Ġcampaign": 4750,
      "ĠAy": 4751,
      "ĠJack": 4752,
      "ousin": 4753,
      "Ġfirm": 4754,
      "ails": 4755,
      "mos": 4756,
      "Ġmistress": 4757,
      "Ġcritic": 4758,
      "Ġplanet": 4759,
      "Ġgue": 4760,
      "Ġtarget": 4761,
      "ĠCapell": 4762,
      "omp": 4763,
      "Ġsuggestions": 4764,
      "aul": 4765,
      "ache": 4766,
      "Ġfro": 4767,
      "Ġcam": 4768,
      "ĠNe": 4769,
      "mar": 4770,
      "Excellent": 4771,
      "Ġequal": 4772,
      "Ġheads": 4773,
      "Ġreb": 4774,
      "ĠLily": 4775,
      "gy": 4776,
      "Ġingred": 4777,
      "Ġfra": 4778,
      "Ġcreatures": 4779,
      "Ġmagic": 4780,
      "',": 4781,
      "ĠOF": 4782,
      "Ġworries": 4783,
      "AC": 4784,
      "ĠRemember": 4785,
      "Ġcrying": 4786,
      "Ġpure": 4787,
      "Ġpatience": 4788,
      "Ġpushing": 4789,
      "ĠFriend": 4790,
      "ctions": 4791,
      "Ġproof": 4792,
      "Ġdost": 4793,
      "Ġtender": 4794,
      "Ġmel": 4795,
      "Ġhearts": 4796,
      "Ġtow": 4797,
      "Ġhobbies": 4798,
      "Ġashamed": 4799,
      "esse": 4800,
      "Ġtherapy": 4801,
      "ĠArt": 4802,
      "ino": 4803,
      "Ġscient": 4804,
      "ĠIle": 4805,
      "ĠWelcome": 4806,
      "ĠWhile": 4807,
      "ĠCam": 4808,
      "ĠAngel": 4809,
      "Ġbreast": 4810,
      "Ġshift": 4811,
      "Ġmembers": 4812,
      "Ġgun": 4813,
      "gment": 4814,
      "Ġdirty": 4815,
      "Ġflavor": 4816,
      "ĠApp": 4817,
      "Ġlesson": 4818,
      "Ġbunch": 4819,
      "Ġcove": 4820,
      "Ġoil": 4821,
      "Ġpossess": 4822,
      "Ġbegg": 4823,
      "16": 4824,
      "Ġonto": 4825,
      "ĠHad": 4826,
      "urse": 4827,
      "ements": 4828,
      "Ġgenerally": 4829,
      "Ġgross": 4830,
      "Ġdivorced": 4831,
      "Ġunfortunately": 4832,
      "ograph": 4833,
      "Ġmut": 4834,
      "Ġlips": 4835,
      "Ġresist": 4836,
      "ĠSon": 4837,
      "Ġpolicy": 4838,
      "isha": 4839,
      "Ġbasketball": 4840,
      "()": 4841,
      "Right": 4842,
      "Ġplatform": 4843,
      "Ġwast": 4844,
      "Ġchances": 4845,
      "Ġspoke": 4846,
      "tering": 4847,
      "TER": 4848,
      "raphy": 4849,
      "Ġfruit": 4850,
      "Ġproduce": 4851,
      "mon": 4852,
      "Ġstat": 4853,
      "uss": 4854,
      "ĠDem": 4855,
      "OT": 4856,
      "Ġthroat": 4857,
      "Ġattempt": 4858,
      "Ġvalues": 4859,
      "Ġofficer": 4860,
      "wich": 4861,
      "Ġur": 4862,
      "'.": 4863,
      "iday": 4864,
      "Ġwoods": 4865,
      "ĠChristmas": 4866,
      "ĠIsn": 4867,
      "Ġmanager": 4868,
      "iant": 4869,
      "Ġsides": 4870,
      "gedy": 4871,
      "ĠNay": 4872,
      "Ġhike": 4873,
      "ston": 4874,
      "Ġrate": 4875,
      "Ġcontact": 4876,
      "hand": 4877,
      "Ġgrowth": 4878,
      "lace": 4879,
      "road": 4880,
      "ĠDis": 4881,
      "Ġinstr": 4882,
      "Ġpizza": 4883,
      "ford": 4884,
      "Ġweep": 4885,
      "Ġinterp": 4886,
      "sych": 4887,
      "aith": 4888,
      "Ġguid": 4889,
      "Trust": 4890,
      "Ġlack": 4891,
      "Ġrecipe": 4892,
      "Ġchea": 4893,
      "Ġwretch": 4894,
      "Ġthinks": 4895,
      "Ġdelight": 4896,
      "ĠWorld": 4897,
      "overed": 4898,
      "Ġexperiencing": 4899,
      "Ġocean": 4900,
      "Ġfinancially": 4901,
      "Ġdying": 4902,
      "Ġamb": 4903,
      "Ġpromised": 4904,
      "Ġhistor": 4905,
      "ira": 4906,
      "ography": 4907,
      "together": 4908,
      "Ġstudies": 4909,
      "Ġtim": 4910,
      "Ġlikes": 4911,
      "iven": 4912,
      "Ġconcert": 4913,
      "Ġhiding": 4914,
      "Ġfate": 4915,
      "enn": 4916,
      "board": 4917,
      "Ġexpand": 4918,
      "style": 4919,
      "Ġcurrently": 4920,
      "Ġrad": 4921,
      "iture": 4922,
      "Ġguitar": 4923,
      "Ġchest": 4924,
      "urally": 4925,
      "ĠShak": 4926,
      "Ġnarrow": 4927,
      "ico": 4928,
      "Ġlog": 4929,
      "ĠBel": 4930,
      "ona": 4931,
      "Ġcomedy": 4932,
      "umph": 4933,
      "Ġforest": 4934,
      "Ġlawyer": 4935,
      "ĠĠĠĠĠĠĠĠĠĠĠĠĠĠĠĠ": 4936,
      "Ġtend": 4937,
      "Ġsignificant": 4938,
      "lynn": 4939,
      "Ġcy": 4940,
      "ĠJe": 4941,
      "Ġfol": 4942,
      "Ġtheory": 4943,
      "Every": 4944,
      "ica": 4945,
      "alia": 4946,
      "Ġremain": 4947,
      "ĠCapt": 4948,
      "ĠThough": 4949,
      "stood": 4950,
      "ĠMother": 4951,
      "Ġprior": 4952,
      "ĠDav": 4953,
      "erved": 4954,
      "ka": 4955,
      "morrow": 4956,
      "ival": 4957,
      "Ġqueen": 4958,
      "Ġbreathing": 4959,
      "ĠCould": 4960,
      "Ġreceived": 4961,
      "Ġwarrant": 4962,
      "Ġappreciated": 4963,
      "Ġlean": 4964,
      "enery": 4965,
      "orne": 4966,
      "ĠTheir": 4967,
      "Ġchecking": 4968,
      "ĠAv": 4969,
      "isa": 4970,
      "dr": 4971,
      "Ġpicked": 4972,
      "Ġuses": 4973,
      "Ġwitness": 4974,
      "On": 4975,
      "Ġlic": 4976,
      "fl": 4977,
      "ata": 4978,
      "Ġsup": 4979,
      "Ġinfluence": 4980,
      "Ġrelief": 4981,
      "rop": 4982,
      "Ġpace": 4983,
      "Ġshoulders": 4984,
      "Ġdriver": 4985,
      "overy": 4986,
      "ades": 4987,
      "alyn": 4988,
      "ĠAdditionally": 4989,
      "itiz": 4990,
      "ĠNice": 4991,
      "Ġbadly": 4992,
      "Ġcandid": 4993,
      "Ġconfess": 4994,
      "His": 4995,
      "illed": 4996,
      "Ġsettled": 4997,
      "Ġruns": 4998,
      "Ġtrash": 4999,
      "Ġallowed": 5000,
      "action": 5001,
      "Ġsatisfying": 5002,
      "rick": 5003,
      "Ġtrade": 5004,
      "romise": 5005,
      "Ġelectric": 5006,
      "gorith": 5007,
      "omin": 5008,
      "eable": 5009,
      "Ġboat": 5010,
      "Ġtransl": 5011,
      "Ġcircumstances": 5012,
      "Ġhous": 5013,
      "##": 5014,
      "Ġexpenses": 5015,
      "Som": 5016,
      "Ġfailed": 5017,
      "Ġtraffic": 5018,
      "Ġconfusing": 5019,
      "Ġadded": 5020,
      "Ġjoke": 5021,
      "Ġticket": 5022,
      "Ġdust": 5023,
      "oken": 5024,
      "Ġchap": 5025,
      "ita": 5026,
      "19": 5027,
      "ĠJan": 5028,
      "Ġfortun": 5029,
      "Ġgorge": 5030,
      "min": 5031,
      "Ġvision": 5032,
      "ĠStreet": 5033,
      "Ġlegs": 5034,
      "ertainly": 5035,
      "ID": 5036,
      "Ġears": 5037,
      "noon": 5038,
      "ĠJo": 5039,
      "ĠRowe": 5040,
      "Ġhappier": 5041,
      "Ġslight": 5042,
      "char": 5043,
      "onder": 5044,
      "phere": 5045,
      "Ġbasics": 5046,
      "Ġmethods": 5047,
      "Ġtransport": 5048,
      "Ġship": 5049,
      "Ġpointless": 5050,
      "Ġhither": 5051,
      "rell": 5052,
      "Most": 5053,
      "che": 5054,
      "Ġfinger": 5055,
      "Ġpassing": 5056,
      "Ġriver": 5057,
      "Ġcontract": 5058,
      "leigh": 5059,
      "apan": 5060,
      "Ġpossibly": 5061,
      "Ġwilt": 5062,
      "ators": 5063,
      "ĠWilliam": 5064,
      "Ġrepe": 5065,
      "ribut": 5066,
      "Ġsugar": 5067,
      "ĠCr": 5068,
      "Ġsucceeded": 5069,
      "Ġpunish": 5070,
      "Ġcruel": 5071,
      "Ġlocation": 5072,
      "Ġwound": 5073,
      "ĠComm": 5074,
      "Ġsemester": 5075,
      "Ġempty": 5076,
      "Ġpurse": 5077,
      "11": 5078,
      "ĠAnother": 5079,
      "oses": 5080,
      "Ġexpecting": 5081,
      "ilies": 5082,
      "Ġrights": 5083,
      "Ġcheat": 5084,
      "Ġloue": 5085,
      "Ġgather": 5086,
      "Ġimplement": 5087,
      "Ġfetch": 5088,
      "zen": 5089,
      "ĠSal": 5090,
      "ĠInst": 5091,
      "Ġinvestment": 5092,
      "Ġtitle": 5093,
      "Ġexplan": 5094,
      "Ġgrave": 5095,
      "Ġuns": 5096,
      "Ġstruggle": 5097,
      "oly": 5098,
      "Ġlied": 5099,
      "Ġpartner": 5100,
      "Ġpublished": 5101,
      "omas": 5102,
      "Ġstream": 5103,
      "Ġatmos": 5104,
      "Ġshoot": 5105,
      "Ġqualities": 5106,
      "Ġingredients": 5107,
      "Ġmiser": 5108,
      "Ġanswers": 5109,
      "Ġdrinks": 5110,
      "ĠBen": 5111,
      "ustle": 5112,
      "Ġscenery": 5113,
      "Ġsandwich": 5114,
      "Ġly": 5115,
      "Ġprevious": 5116,
      "Ġappearance": 5117,
      "Ġseven": 5118,
      "Ġfiction": 5119,
      "Ġbottom": 5120,
      "Ġrut": 5121,
      "cra": 5122,
      "ĠSay": 5123,
      "Ġghost": 5124,
      "ĠTime": 5125,
      "Ġsettle": 5126,
      "Ġsurgery": 5127,
      "da": 5128,
      "ĠVal": 5129,
      "Ġbegan": 5130,
      "Ġfarm": 5131,
      "Ġinstance": 5132,
      "30": 5133,
      "aud": 5134,
      "Ġaim": 5135,
      "place": 5136,
      "ĠDel": 5137,
      "Ġgolden": 5138,
      "Ġviolence": 5139,
      "ĠCity": 5140,
      "Ġreligion": 5141,
      "Ġep": 5142,
      "Ġframe": 5143,
      "ancy": 5144,
      "oph": 5145,
      "Ġfinishing": 5146,
      "Ġcarefully": 5147,
      "Ġwaves": 5148,
      "Ġgorgeous": 5149,
      "abor": 5150,
      "Ġdar": 5151,
      "Ġending": 5152,
      "Ġpiano": 5153,
      "ĠMs": 5154,
      "Ġdedicated": 5155,
      "Ġhall": 5156,
      "Ġsoup": 5157,
      "IR": 5158,
      "Ġdow": 5159,
      "Ġpale": 5160,
      "ĠEsp": 5161,
      "alian": 5162,
      "Ġintense": 5163,
      "âĤĦ": 5164,
      "Ġmultiple": 5165,
      "ums": 5166,
      "Ġdisg": 5167,
      "acle": 5168,
      "ason": 5169,
      "rah": 5170,
      "ĠReally": 5171,
      "18": 5172,
      "ĠAnn": 5173,
      "Ġcenter": 5174,
      "Ġ/": 5175,
      "NA": 5176,
      "Ġsystems": 5177,
      "ĠAri": 5178,
      "Ġdisease": 5179,
      "Ġpossibility": 5180,
      "ĠAss": 5181,
      "Ġcondu": 5182,
      "eria": 5183,
      "Ġcompetition": 5184,
      "soci": 5185,
      "Ġinsurance": 5186,
      "ĠMer": 5187,
      "Ġfalls": 5188,
      "ĠSchool": 5189,
      "athers": 5190,
      "Ġlaws": 5191,
      "Ġessential": 5192,
      "Ġopened": 5193,
      "Ġarrest": 5194,
      "Ar": 5195,
      "Ġhidden": 5196,
      "ĠBre": 5197,
      "Ġbecomes": 5198,
      "Ġovercome": 5199,
      "erves": 5200,
      "Ġintelligence": 5201,
      "Ġsecure": 5202,
      "Ġhuh": 5203,
      "ĠSy": 5204,
      "Ġspare": 5205,
      "Ġbrush": 5206,
      "Ġbod": 5207,
      "Ġhelpless": 5208,
      "OS": 5209,
      "Ġcases": 5210,
      "Ġtwice": 5211,
      "Ġflo": 5212,
      "John": 5213,
      "house": 5214,
      "cent": 5215,
      "Ġsets": 5216,
      "Ġultimately": 5217,
      "Ġeconomy": 5218,
      "Ġafternoon": 5219,
      "asy": 5220,
      "izes": 5221,
      "Ġbreaks": 5222,
      "Ġinnocent": 5223,
      "resh": 5224,
      "Ġlimit": 5225,
      "Ġnecklace": 5226,
      "Ġmurder": 5227,
      "Ġinspired": 5228,
      "Ġalgorith": 5229,
      "Ġadopt": 5230,
      "ĠBro": 5231,
      "Ġweigh": 5232,
      "Ġpowers": 5233,
      "Ġtells": 5234,
      "Ġideal": 5235,
      "Ġinit": 5236,
      "Ġaside": 5237,
      "Ġvote": 5238,
      "Ġmedic": 5239,
      "Ġloan": 5240,
      "Ġvan": 5241,
      "Ġcounter": 5242,
      "Ġapplication": 5243,
      "Ġsavings": 5244,
      "bert": 5245,
      "real": 5246,
      "onse": 5247,
      "Ġremem": 5248,
      "ĠJohnson": 5249,
      "Ġknife": 5250,
      "ĠJac": 5251,
      "Ġdouble": 5252,
      "Ġdaily": 5253,
      "ĠSk": 5254,
      "Ġsimpl": 5255,
      "Ġcheer": 5256,
      "Ġbetrayed": 5257,
      "Ġtour": 5258,
      "Ġsees": 5259,
      "Ġcollection": 5260,
      "Ġmiles": 5261,
      "Ġtherapist": 5262,
      "Ġhole": 5263,
      "Ġslept": 5264,
      "agement": 5265,
      "Ġshowed": 5266,
      "Ġfurniture": 5267,
      "Ġcovered": 5268,
      "Ġflower": 5269,
      "Ġspin": 5270,
      "Ġguide": 5271,
      "Ġfancy": 5272,
      "ĠJapan": 5273,
      "Ġfrequ": 5274,
      "pm": 5275,
      ":**": 5276,
      "Ġspeaks": 5277,
      "Ġshelter": 5278,
      "Ġmal": 5279,
      "Ġfishing": 5280,
      "Ġdirectly": 5281,
      "Ġatmosphere": 5282,
      "Ġinstall": 5283,
      "esar": 5284,
      "17": 5285,
      "Ġinfect": 5286,
      "ĠDaddy": 5287,
      "Ġsolutions": 5288,
      "Ġtast": 5289,
      "Ġdamn": 5290,
      "Ġpsych": 5291,
      "Ġcommitted": 5292,
      "Ġriding": 5293,
      "Ġaltogether": 5294,
      "Ġshock": 5295,
      "Ġwra": 5296,
      "Ġeveryday": 5297,
      "ĠMus": 5298,
      "urday": 5299,
      "ĠChristian": 5300,
      "ĠCH": 5301,
      "Ġvain": 5302,
      "bur": 5303,
      "Ġjew": 5304,
      "Ġproceed": 5305,
      "Ġnaturally": 5306,
      "Ġabilities": 5307,
      "Ġscri": 5308,
      "Ġfully": 5309,
      "These": 5310,
      "Ġpoetry": 5311,
      "Ġassoci": 5312,
      "Ġtrusted": 5313,
      "ida": 5314,
      "ĠPhil": 5315,
      "Ġconsist": 5316,
      "ĠSuch": 5317,
      "ĠPres": 5318,
      "Ġfailure": 5319,
      "Ġsust": 5320,
      "Ġsau": 5321,
      "Ġhighly": 5322,
      "tain": 5323,
      "ĠVen": 5324,
      "Mad": 5325,
      "Ġoutfit": 5326,
      "east": 5327,
      "Ġcamping": 5328,
      "Ġensure": 5329,
      "Ġtraditional": 5330,
      "Ġtid": 5331,
      "Ġservant": 5332,
      "ĠAnytime": 5333,
      "Ġchem": 5334,
      "____": 5335,
      "Ġnut": 5336,
      "Ġtemperature": 5337,
      "Ġdesigned": 5338,
      "Ġcutting": 5339,
      "assion": 5340,
      "Ġsilence": 5341,
      "ĠChe": 5342,
      "Ġformer": 5343,
      "Ġstrike": 5344,
      "Ġprograms": 5345,
      "Ġmindful": 5346,
      "ĠMaj": 5347,
      "full": 5348,
      "ĠOpen": 5349,
      "ĠBet": 5350,
      "ĠLo": 5351,
      "ĠBefore": 5352,
      "Ġ24": 5353,
      "ĠSim": 5354,
      "Hmmm": 5355,
      "Likewise": 5356,
      "olt": 5357,
      "Ġsatisfied": 5358,
      "Ġlifestyle": 5359,
      "ĠMist": 5360,
      "Ġbot": 5361,
      "Ġpainful": 5362,
      "Ġassistance": 5363,
      "ĠWal": 5364,
      "ask": 5365,
      "Ġadventures": 5366,
      "ulate": 5367,
      "Ġdesk": 5368,
      "GE": 5369,
      "ĠMac": 5370,
      "Ġdrag": 5371,
      "Ġfond": 5372,
      "Ġholy": 5373,
      "Ġrespond": 5374,
      "Ġdistant": 5375,
      "Ġunk": 5376,
      "Ġrose": 5377,
      "Ġum": 5378,
      "ĠOver": 5379,
      "Ġdisappear": 5380,
      "Ġ#": 5381,
      "ĠFort": 5382,
      "Ġdru": 5383,
      "Ġbelow": 5384,
      "ĠPrin": 5385,
      "Ġconcentr": 5386,
      "Ġchill": 5387,
      "Ġstarving": 5388,
      "Or": 5389,
      "ĠRichard": 5390,
      "mbol": 5391,
      "Ġstro": 5392,
      "andon": 5393,
      "ĠPython": 5394,
      "Ġcompanies": 5395,
      "iration": 5396,
      "Ġhopeless": 5397,
      "Ġinvestig": 5398,
      "orter": 5399,
      "Ġconvin": 5400,
      "Ġvpon": 5401,
      "Ġfamilies": 5402,
      "bly": 5403,
      "Ġhandling": 5404,
      "Uh": 5405,
      "Ġfaire": 5406,
      "Ġswitch": 5407,
      "ato": 5408,
      "Ġdespite": 5409,
      "Ġfacing": 5410,
      "Ġprompt": 5411,
      "Ġfilm": 5412,
      "ĠKam": 5413,
      "Ġgentlemen": 5414,
      "Ġjail": 5415,
      "ĠPlay": 5416,
      "ANT": 5417,
      "Ġspring": 5418,
      "aver": 5419,
      "ĠSaturday": 5420,
      "Ġscore": 5421,
      "atoes": 5422,
      "Å¿": 5423,
      "Ġsurely": 5424,
      "coh": 5425,
      "Ġdeserved": 5426,
      "ww": 5427,
      "ENE": 5428,
      "Ġdeliver": 5429,
      "Ġbelieved": 5430,
      "Ġhandsome": 5431,
      "IM": 5432,
      "omen": 5433,
      "Ġcalcul": 5434,
      "Ġfright": 5435,
      "Ġcha": 5436,
      "cohol": 5437,
      "Sp": 5438,
      "ĠPat": 5439,
      "Ġhumans": 5440,
      "Ġpraise": 5441,
      "ĠMag": 5442,
      "Ġexpert": 5443,
      "Ġvirtue": 5444,
      "isters": 5445,
      "Ġraised": 5446,
      "ela": 5447,
      "Ġphysically": 5448,
      "Ġlessons": 5449,
      "ĠHigh": 5450,
      "Ġexperienced": 5451,
      "off": 5452,
      "Ġconflict": 5453,
      "Ġcere": 5454,
      "Ġpounds": 5455,
      "ords": 5456,
      "Ġstation": 5457,
      "ĠSound": 5458,
      "IA": 5459,
      "Ġsources": 5460,
      "ĠBob": 5461,
      "ench": 5462,
      "ĠShould": 5463,
      "arks": 5464,
      "aret": 5465,
      "Ġsmoothly": 5466,
      "father": 5467,
      "ĠDay": 5468,
      "Ġaccepted": 5469,
      "Ġmoves": 5470,
      "Ġfever": 5471,
      "Ġpresentation": 5472,
      "Ġmercy": 5473,
      "umes": 5474,
      "vant": 5475,
      "vey": 5476,
      "Ġputs": 5477,
      "Ġexpectations": 5478,
      "Ġreaching": 5479,
      "Ġrealistic": 5480,
      "Ġload": 5481,
      "Ġarticle": 5482,
      "essor": 5483,
      "ĠSince": 5484,
      "Ġspr": 5485,
      "Ġsilver": 5486,
      "ĠPri": 5487,
      "Ġforms": 5488,
      "Ġhardly": 5489,
      "Ġwindows": 5490,
      "Ġpoem": 5491,
      "Ġenemy": 5492,
      "ĠJud": 5493,
      "Ġdefend": 5494,
      "Nice": 5495,
      "thy": 5496,
      "Ġbenefit": 5497,
      "Ġwel": 5498,
      "gar": 5499,
      "Ġvir": 5500,
      "Ġdeserves": 5501,
      "eding": 5502,
      "Ġcousin": 5503,
      "Ġunl": 5504,
      "Ġsubst": 5505,
      "Ġdeb": 5506,
      "Am": 5507,
      "ĠDoctor": 5508,
      "reshing": 5509,
      "Ġcoop": 5510,
      "Ġprogramming": 5511,
      "ĠTry": 5512,
      "Ġeth": 5513,
      "ĠAth": 5514,
      "Ġguidance": 5515,
      "Ġadding": 5516,
      "Ġparticularly": 5517,
      "Ġcreep": 5518,
      "Ġincome": 5519,
      "ĠMost": 5520,
      "Ġdoors": 5521,
      "ĠOld": 5522,
      "ĠSpanish": 5523,
      "Ġrecent": 5524,
      "Ġpool": 5525,
      "Ġextrem": 5526,
      "ĠWest": 5527,
      "Ġfired": 5528,
      "Ġbackground": 5529,
      "Ġperm": 5530,
      "Ġrevenge": 5531,
      "Ġpolitical": 5532,
      "Ġyelling": 5533,
      "Ġinspiring": 5534,
      "Ġsupplies": 5535,
      "ĠCharles": 5536,
      "Ġheight": 5537,
      "Ġelements": 5538,
      "Ġmanagement": 5539,
      "Ġdesper": 5540,
      "Ġsymbol": 5541,
      "Ġversion": 5542,
      "Ġcauses": 5543,
      "Ġidiot": 5544,
      "Ġflesh": 5545,
      "Ġcentury": 5546,
      "Ġven": 5547,
      "Ġimportance": 5548,
      "elds": 5549,
      "ĠHan": 5550,
      "Ġfollows": 5551,
      "Ġsore": 5552,
      "ĠCons": 5553,
      "Ġrefreshing": 5554,
      "Ġtoward": 5555,
      "Ġoh": 5556,
      "Ġdeed": 5557,
      "Ġoptim": 5558,
      "Ġquitting": 5559,
      "aker": 5560,
      "Ġfoolish": 5561,
      "Ġmountains": 5562,
      "earest": 5563,
      "ively": 5564,
      "Certainly": 5565,
      "Ġsentence": 5566,
      "://": 5567,
      "ĠDar": 5568,
      "Ġmentioned": 5569,
      "Ġstressing": 5570,
      "gl": 5571,
      "Ġgreatest": 5572,
      "Ġemail": 5573,
      "Ġjoking": 5574,
      "ĠMich": 5575,
      "ĠHam": 5576,
      "term": 5577,
      "Ġapplications": 5578,
      "Ġbehold": 5579,
      "utation": 5580,
      "Ġnearly": 5581,
      "ĠTal": 5582,
      "Ġupcoming": 5583,
      "Ġmaintain": 5584,
      "ĠItalian": 5585,
      "Ġmedicine": 5586,
      "fer": 5587,
      "orious": 5588,
      "Ġroof": 5589,
      "Ġuncle": 5590,
      "Ġdecor": 5591,
      "Ġstructure": 5592,
      "Ġwhis": 5593,
      "\".": 5594,
      ",âĢĿ": 5595,
      "ker": 5596,
      "ĠĊ": 5597,
      "Ġfields": 5598,
      "Ġromantic": 5599,
      "Ġbutter": 5600,
      "ĠShaksp": 5601,
      "ĠMor": 5602,
      "retty": 5603,
      "Ġdescription": 5604,
      "Ġshaken": 5605,
      "Whatever": 5606,
      "Ġschools": 5607,
      "oom": 5608,
      "Ģâ": 5609,
      "AND": 5610,
      "God": 5611,
      "Ġactivity": 5612,
      "Ġsits": 5613,
      "Ġsmells": 5614,
      "oured": 5615,
      "itary": 5616,
      "Ġsmoke": 5617,
      "ague": 5618,
      "iece": 5619,
      "Ġjack": 5620,
      "ecially": 5621,
      "Ġbrothers": 5622,
      "Ġlanguages": 5623,
      "Ġreplace": 5624,
      "Ġreliable": 5625,
      "Ġshap": 5626,
      "Ġinstructions": 5627,
      "RA": 5628,
      "Ġquant": 5629,
      "eem": 5630,
      "ĠTwo": 5631,
      "ĠLea": 5632,
      "asp": 5633,
      "Ġunw": 5634,
      "ĠRev": 5635,
      "Ġdescribe": 5636,
      "Ġdeveloped": 5637,
      "ification": 5638,
      "Ġtoys": 5639,
      "Ġclients": 5640,
      "Ġbuddy": 5641,
      "Ġsquare": 5642,
      "Ġenters": 5643,
      "elia": 5644,
      "ĠWhose": 5645,
      "Un": 5646,
      "Ġsafely": 5647,
      "Ġaccountant": 5648,
      "ctic": 5649,
      "Ġignore": 5650,
      "Ġbite": 5651,
      "Ġtone": 5652,
      "Very": 5653,
      "ĠJa": 5654,
      "Ġefforts": 5655,
      "Ġinterpret": 5656,
      "Ġstone": 5657,
      "Again": 5658,
      "OP": 5659,
      "ĠMo": 5660,
      "Ġscreen": 5661,
      "Ġboys": 5662,
      "ĠThan": 5663,
      "Ġgay": 5664,
      "Ġvn": 5665,
      "priate": 5666,
      "Ġapples": 5667,
      "Ġroll": 5668,
      "Ġaspects": 5669,
      "ĠGrand": 5670,
      "Ġladies": 5671,
      "Ġshown": 5672,
      "ĠBra": 5673,
      "ĠJames": 5674,
      "cut": 5675,
      "Ġconstant": 5676,
      "Ġconduct": 5677,
      "Ġburning": 5678,
      "issa": 5679,
      "Ġtopics": 5680,
      "Ġsentiment": 5681,
      "ecture": 5682,
      "urb": 5683,
      "ĠSouth": 5684,
      "Ġresponse": 5685,
      "Ġfingers": 5686,
      "utor": 5687,
      "ĠThomas": 5688,
      "Ġtreating": 5689,
      "mother": 5690,
      "Ġobviously": 5691,
      "ĠMark": 5692,
      "Ġminds": 5693,
      "Ġmovement": 5694,
      "Ġproduction": 5695,
      "ĠFinally": 5696,
      "Ġlaz": 5697,
      "Ġimprovement": 5698,
      "ĠJav": 5699,
      "Ġmoral": 5700,
      "Ġcats": 5701,
      "lig": 5702,
      "Ġfaces": 5703,
      "Ġsilly": 5704,
      "she": 5705,
      "ĠÃ": 5706,
      "ĠLin": 5707,
      "ILL": 5708,
      "ais": 5709,
      "ĠLy": 5710,
      "Ġgenerous": 5711,
      "Ġleads": 5712,
      "Ġmap": 5713,
      "abeth": 5714,
      "Ġmountain": 5715,
      "Ġcapture": 5716,
      "gen": 5717,
      "Ġrequires": 5718,
      "Ġexpression": 5719,
      "ianna": 5720,
      "Ġju": 5721,
      "ELL": 5722,
      "Ġdropped": 5723,
      "Ġpregn": 5724,
      "Ġreve": 5725,
      "Ġadvance": 5726,
      "Ġfavour": 5727,
      "ĠWere": 5728,
      "Ġdeeply": 5729,
      "orous": 5730,
      "iments": 5731,
      "ĠCle": 5732,
      "Ġintern": 5733,
      "Ġvisiting": 5734,
      "ĠGreek": 5735,
      "ĠKen": 5736,
      "Ġhurting": 5737,
      "Ġimproving": 5738,
      "25": 5739,
      "ĠHas": 5740,
      "Ġtear": 5741,
      "Ġdownt": 5742,
      "Ġtraveling": 5743,
      "Ġrequired": 5744,
      "cuse": 5745,
      "uit": 5746,
      "Ġrocks": 5747,
      "Ġgrat": 5748,
      "Ġprec": 5749,
      "Ġowner": 5750,
      "ĠAcc": 5751,
      "ĠTre": 5752,
      "ĠEspecially": 5753,
      "inting": 5754,
      "ĠSC": 5755,
      "Ġconfused": 5756,
      "Ġpoison": 5757,
      "Ġhurtful": 5758,
      "Ġdull": 5759,
      "Ġfif": 5760,
      "Ġstealing": 5761,
      "Ġstunning": 5762,
      "Ġdressed": 5763,
      "Ġobey": 5764,
      ":--": 5765,
      "Ġprince": 5766,
      "ifying": 5767,
      "aming": 5768,
      "Ġstreets": 5769,
      "ĠWil": 5770,
      "Ġlights": 5771,
      "Ġcitiz": 5772,
      "ilyn": 5773,
      "Ġvul": 5774,
      "orough": 5775,
      "Ġdisre": 5776,
      "ĠAgain": 5777,
      "Ġnearby": 5778,
      "Ġhopes": 5779,
      "Aside": 5780,
      "ĠGre": 5781,
      "Ġadditional": 5782,
      "yard": 5783,
      "Ġprepare": 5784,
      "ERS": 5785,
      "Ġbrand": 5786,
      "Ġattach": 5787,
      "Ġobjects": 5788,
      "weet": 5789,
      "Try": 5790,
      "ĠGrace": 5791,
      "writ": 5792,
      "Ġphotos": 5793,
      "200": 5794,
      "Ġrelated": 5795,
      "Ġcompare": 5796,
      "Ġclassic": 5797,
      "undry": 5798,
      "Ġsubjects": 5799,
      "Ġsurvive": 5800,
      "Ġappointment": 5801,
      "Ġplate": 5802,
      "Ġconqu": 5803,
      "Ġblank": 5804,
      "Ġconscious": 5805,
      "Ġdiscovered": 5806,
      "ĠShakspeare": 5807,
      "ĠMart": 5808,
      "Ġstranger": 5809,
      "Ġbene": 5810,
      "ĠGra": 5811,
      "Mr": 5812,
      "Ġscript": 5813,
      "Ġprovides": 5814,
      "onson": 5815,
      "Ġbeliefs": 5816,
      "Ġopinions": 5817,
      "pack": 5818,
      "Ġshower": 5819,
      "Ġcosts": 5820,
      "ĠST": 5821,
      "Ġinvesting": 5822,
      "Ġalcohol": 5823,
      "Ġtaxes": 5824,
      "vin": 5825,
      "ĠAf": 5826,
      "Ġtroubles": 5827,
      "Ġexplanation": 5828,
      "Ġlend": 5829,
      "ĠHouse": 5830,
      "ĠThus": 5831,
      "Ġtragedy": 5832,
      "oved": 5833,
      "ĠMat": 5834,
      "Ġpupp": 5835,
      "Ġ50": 5836,
      "ĠRay": 5837,
      "Nah": 5838,
      "Ġemp": 5839,
      "ĠComp": 5840,
      "Ġshadow": 5841,
      "Ġkick": 5842,
      "Ġrelate": 5843,
      "Ġbottle": 5844,
      "Ġpuzz": 5845,
      "ĠWhatever": 5846,
      "Ġarmy": 5847,
      "ĠKh": 5848,
      "Ġsuspect": 5849,
      "Ġgraduation": 5850,
      "Ġsounded": 5851,
      "Ġpapers": 5852,
      "Ġcookies": 5853,
      "ĠHarry": 5854,
      "Ġsalt": 5855,
      "IE": 5856,
      "Ġthick": 5857,
      "Ġcompared": 5858,
      "ĠWithout": 5859,
      "Ġthinke": 5860,
      "Ġvillain": 5861,
      "Ġembarrassing": 5862,
      "Ġforgotten": 5863,
      "ĠPart": 5864,
      "Ġpleasant": 5865,
      "Ġwalked": 5866,
      "ĠCaptain": 5867,
      "Ġfears": 5868,
      "Ġweakness": 5869,
      "Ġstrang": 5870,
      "ran": 5871,
      "Ġrot": 5872,
      "Ġcombination": 5873,
      "!...": 5874,
      "ught": 5875,
      "Ġsection": 5876,
      "Ġunex": 5877,
      "Ġprize": 5878,
      "Ġfruits": 5879,
      "Ġsigh": 5880,
      "Ġrece": 5881,
      "Ġpossibilities": 5882,
      "Ġcorrectly": 5883,
      "uild": 5884,
      "Ġpocket": 5885,
      "ĠGener": 5886,
      "Ġperforming": 5887,
      "Ġdrawing": 5888,
      "Ġjerk": 5889,
      "Ġidentify": 5890,
      "Ġtreasure": 5891,
      "Ġinternet": 5892,
      "ĠCass": 5893,
      "Cl": 5894,
      "ipp": 5895,
      "oot": 5896,
      "Ġprim": 5897,
      "rast": 5898,
      "Ġchief": 5899,
      "Ġrelative": 5900,
      "Ġexplaining": 5901,
      "ption": 5902,
      "Ġlaundry": 5903,
      "Ġreligious": 5904,
      "ĠEnjoy": 5905,
      "Ġconcerned": 5906,
      "Ġunderstood": 5907,
      "Ġerror": 5908,
      "::": 5909,
      "Ġdisag": 5910,
      "ĠLaw": 5911,
      "Ġacquaint": 5912,
      "inger": 5913,
      "Ġpleased": 5914,
      "som": 5915,
      "Ġabandon": 5916,
      "Ġmighty": 5917,
      "Ph": 5918,
      "Ġconcepts": 5919,
      "Ġforb": 5920,
      "Ġheere": 5921,
      "Ġhouses": 5922,
      "asters": 5923,
      "Ġhonesty": 5924,
      "Ġcab": 5925,
      "Ġbitter": 5926,
      "ĠTill": 5927,
      "Ġ40": 5928,
      "Ġliterature": 5929,
      "ault": 5930,
      "Ġbeast": 5931,
      "Ġshew": 5932,
      "From": 5933,
      "Ġdocument": 5934,
      "nov": 5935,
      "itting": 5936,
      "Ġbell": 5937,
      "ĠRa": 5938,
      "Ġcher": 5939,
      "ĊĠĠĠĠĠĠĠĠĠĠĠ": 5940,
      "Ġbegins": 5941,
      "ls": 5942,
      "Ġalthough": 5943,
      "ornia": 5944,
      "IG": 5945,
      "Ġthrowing": 5946,
      "Ġcreature": 5947,
      "ipe": 5948,
      "Ġprofit": 5949,
      "Ġstates": 5950,
      "ĠKy": 5951,
      "Ġswing": 5952,
      "Ġcareless": 5953,
      "Ġelement": 5954,
      "eased": 5955,
      "Ġdowntown": 5956,
      "Ġsole": 5957,
      "ĠRoman": 5958,
      "ounce": 5959,
      "Ġlegal": 5960,
      "Ġjoining": 5961,
      "Ġfilled": 5962,
      "Ġconven": 5963,
      "Ġacted": 5964,
      "Ġbuck": 5965,
      "Ġrelieved": 5966,
      "ĠSil": 5967,
      "ĠRep": 5968,
      "Doctor": 5969,
      "Ġ26": 5970,
      "erous": 5971,
      "Ġsolid": 5972,
      "ĠMen": 5973,
      "ifornia": 5974,
      "anda": 5975,
      "ĠCaesar": 5976,
      "can": 5977,
      "ishing": 5978,
      "Ġhectic": 5979,
      "Ġeager": 5980,
      "Ġreaders": 5981,
      "500": 5982,
      "ula": 5983,
      "Ġfought": 5984,
      "Ġjudgment": 5985,
      "Ġconsum": 5986,
      "Ġstrategy": 5987,
      "working": 5988,
      "Ġdriven": 5989,
      "ĠAnyway": 5990,
      "Ġscenes": 5991,
      "pected": 5992,
      "Ġspoken": 5993,
      "ĠEmm": 5994,
      "Ġcig": 5995,
      "bits": 5996,
      "reate": 5997,
      "=,": 5998,
      "ĠAND": 5999,
      "Ġaltern": 6000,
      "ttps": 6001,
      "sm": 6002,
      "Ġlazy": 6003,
      "Ġslave": 6004,
      "Ġselfish": 6005,
      "Ġinspiration": 6006,
      "Ġeffectively": 6007,
      "gic": 6008,
      "Ġgroups": 6009,
      "Ġcontain": 6010,
      "Ġwheel": 6011,
      "eady": 6012,
      "Ġ159": 6013,
      "Ġheare": 6014,
      "ept": 6015,
      "bon": 6016,
      "ĠLad": 6017,
      "Ġglory": 6018,
      "ãģ": 6019,
      "23": 6020,
      "ĠCall": 6021,
      "Ġfinds": 6022,
      "Ġcarried": 6023,
      "erior": 6024,
      "Ġtriumph": 6025,
      "Um": 6026,
      "Ġsurface": 6027,
      "ĠEliz": 6028,
      "ĠCont": 6029,
      "Ġsilent": 6030,
      "ĠEll": 6031,
      "alys": 6032,
      "ĠEr": 6033,
      "osen": 6034,
      "Ġdisplay": 6035,
      "Ġexercises": 6036,
      "ĠOut": 6037,
      "thus": 6038,
      "ĠRobert": 6039,
      "stairs": 6040,
      "Ġspeake": 6041,
      "Ġmuse": 6042,
      "CT": 6043,
      "andra": 6044,
      "ĠMex": 6045,
      "ĠNature": 6046,
      "ici": 6047,
      "Sometimes": 6048,
      "Ġtel": 6049,
      "UN": 6050,
      "igning": 6051,
      "Ġactor": 6052,
      "Ġhomes": 6053,
      "Ġcope": 6054,
      "Ġscorn": 6055,
      "Ġhonestly": 6056,
      "Ġspo": 6057,
      "Ġsnack": 6058,
      "Ġcro": 6059,
      "ĠDam": 6060,
      "Whoa": 6061,
      "Ġwithd": 6062,
      "ĠTom": 6063,
      "Ġpayment": 6064,
      "Ġgut": 6065,
      "ION": 6066,
      "RS": 6067,
      "wood": 6068,
      "Ġisland": 6069,
      "Ġkindness": 6070,
      "Ġwisdom": 6071,
      "Ġlarger": 6072,
      "Ġshining": 6073,
      "Ġhistorical": 6074,
      "anged": 6075,
      "Ġmerry": 6076,
      "Ġequation": 6077,
      "bes": 6078,
      "andom": 6079,
      "kins": 6080,
      "ĠOnly": 6081,
      "ika": 6082,
      "Ġphilosophy": 6083,
      "yen": 6084,
      "ria": 6085,
      "ressed": 6086,
      "Ġspecies": 6087,
      "umber": 6088,
      "Ġaid": 6089,
      "Ġroyal": 6090,
      "Ġpassage": 6091,
      "Ġvp": 6092,
      "Ġmerely": 6093,
      "Ġdesperate": 6094,
      "orses": 6095,
      "ĠII": 6096,
      "Ġaccurate": 6097,
      "Ġexch": 6098,
      "Ġbrief": 6099,
      "Ġenemies": 6100,
      "Ġinstrument": 6101,
      "icted": 6102,
      "ĠJew": 6103,
      "ological": 6104,
      "ĠJonson": 6105,
      "ĠMAR": 6106,
      "Ġimagination": 6107,
      "ashed": 6108,
      "izations": 6109,
      "Ġgranted": 6110,
      "Ġfund": 6111,
      "ĠKar": 6112,
      "ĠEdward": 6113,
      "Ġfailing": 6114,
      "Ġtrial": 6115,
      "Ġmotion": 6116,
      "ox": 6117,
      "Ġhorri": 6118,
      "Ġdemanding": 6119,
      "ĠAp": 6120,
      "ĠRight": 6121,
      "gged": 6122,
      "Ġplus": 6123,
      "Ġtruck": 6124,
      "Ġdramat": 6125,
      "Ġsatisfaction": 6126,
      "Ġfiles": 6127,
      "ashing": 6128,
      "Ġsen": 6129,
      "aper": 6130,
      "ĠAg": 6131,
      "Ġcards": 6132,
      "Ġproviding": 6133,
      "Bl": 6134,
      "Ġreasonable": 6135,
      "Ġstyles": 6136,
      "Ġmiserable": 6137,
      "AY": 6138,
      "Ġnerves": 6139,
      "Ġdeny": 6140,
      "ĠNever": 6141,
      "Ġoccur": 6142,
      "=\"": 6143,
      "Ġimproved": 6144,
      "ser": 6145,
      "Ġwarning": 6146,
      "--\"": 6147,
      "Ġdifferences": 6148,
      "Ġpatter": 6149,
      "ĠCalifornia": 6150,
      "ĠMel": 6151,
      "ENT": 6152,
      "Ġdesert": 6153,
      "Ġwallet": 6154,
      "ĠAsh": 6155,
      "Ġrecover": 6156,
      "Ġbeneficial": 6157,
      "Ġclimate": 6158,
      "Ġmessed": 6159,
      "rary": 6160,
      "Ġthrew": 6161,
      "Ġflex": 6162,
      "Ġcommitment": 6163,
      "epher": 6164,
      "nesse": 6165,
      "iry": 6166,
      "Ġplane": 6167,
      "iar": 6168,
      "Ã¨": 6169,
      "Ġcheated": 6170,
      "ĠLou": 6171,
      "Ġspirits": 6172,
      "arant": 6173,
      "Ġpretend": 6174,
      "Ġmystery": 6175,
      "Ġje": 6176,
      "Ġaffecting": 6177,
      "twas": 6178,
      "Ġcoward": 6179,
      "rough": 6180,
      "Ġassure": 6181,
      "Int": 6182,
      "cred": 6183,
      "eline": 6184,
      "Ġlock": 6185,
      "Ġlover": 6186,
      "eaking": 6187,
      "Ġvictim": 6188,
      "ĠHim": 6189,
      "Ġpresident": 6190,
      "ĊĠĠ": 6191,
      "ilst": 6192,
      "Ġbeer": 6193,
      "Ġopens": 6194,
      "Ġaffection": 6195,
      "Ġclosely": 6196,
      "Ġstrict": 6197,
      "itty": 6198,
      "Ġwishes": 6199,
      "Ġdarkness": 6200,
      "Ġcamera": 6201,
      "Our": 6202,
      "14": 6203,
      "Ġoutput": 6204,
      "Ġ23": 6205,
      "Ġkilling": 6206,
      "icke": 6207,
      "Ġinvited": 6208,
      "ĠEach": 6209,
      "Ġpacked": 6210,
      "Ġyield": 6211,
      "this": 6212,
      "ĠRoy": 6213,
      "Ġgraph": 6214,
      "Ġhealthier": 6215,
      "Ġoffered": 6216,
      "Ġadapt": 6217,
      "Ġkidding": 6218,
      "Ind": 6219,
      "iver": 6220,
      "ĠHall": 6221,
      "chief": 6222,
      "ells": 6223,
      "Ġconsent": 6224,
      "Ġtooth": 6225,
      "Ġremains": 6226,
      "Ġcaring": 6227,
      "adem": 6228,
      "Ġpackage": 6229,
      "okes": 6230,
      "ĠLat": 6231,
      "ronic": 6232,
      "(\"": 6233,
      "Ġcure": 6234,
      "ĠAlthough": 6235,
      "Ġtheatre": 6236,
      "Ġnicer": 6237,
      "Ġnightm": 6238,
      "Ġunexpected": 6239,
      "ĠIN": 6240,
      "Ġworship": 6241,
      "entially": 6242,
      "ĠYOU": 6243,
      "Ġguests": 6244,
      "Ġapology": 6245,
      "Ġaccomplishment": 6246,
      "Ġoath": 6247,
      "illa": 6248,
      "aph": 6249,
      "ĠStr": 6250,
      "Ġfem": 6251,
      "aren": 6252,
      "Ġoffers": 6253,
      "cles": 6254,
      "Ġstring": 6255,
      "Ġinjured": 6256,
      "aha": 6257,
      "ĠChurch": 6258,
      "ĠSecondly": 6259,
      "Ġsacrifice": 6260,
      "Ġiron": 6261,
      "Ġtro": 6262,
      "Ġslipping": 6263,
      "Ġloyal": 6264,
      "Ġwings": 6265,
      "enter": 6266,
      "Ġchildhood": 6267,
      "Ġestab": 6268,
      "rees": 6269,
      "Ġgrie": 6270,
      "Ġate": 6271,
      "guyen": 6272,
      "Ġdeveloping": 6273,
      "org": 6274,
      "Ġbrown": 6275,
      "Ġvictory": 6276,
      "urt": 6277,
      "ĠTherefore": 6278,
      "Ġconscience": 6279,
      "unge": 6280,
      "uf": 6281,
      "cia": 6282,
      "ĠPaul": 6283,
      "Ġusers": 6284,
      "ĠNguyen": 6285,
      "ĠKay": 6286,
      ".=": 6287,
      "rid": 6288,
      "otic": 6289,
      "ĠLuc": 6290,
      "Ġseparate": 6291,
      "aints": 6292,
      "Ġpatterns": 6293,
      "ĠMin": 6294,
      "Ġtale": 6295,
      "Ġcelebrate": 6296,
      "olar": 6297,
      "Ġreck": 6298,
      "Ġheadache": 6299,
      "bre": 6300,
      "Ġstable": 6301,
      "ĠUS": 6302,
      "Ġmember": 6303,
      "Ġnap": 6304,
      "Ġalb": 6305,
      "aze": 6306,
      "Ġdetermination": 6307,
      "Ġprotest": 6308,
      "OW": 6309,
      "Ġdim": 6310,
      "Ġsustain": 6311,
      "olf": 6312,
      "Ġgrandma": 6313,
      "Ġpin": 6314,
      "ĠBry": 6315,
      "Ġcheek": 6316,
      "Ġreturns": 6317,
      "Ġbarely": 6318,
      "Ġpaperwork": 6319,
      "Ġgre": 6320,
      "Ġwhe": 6321,
      "even": 6322,
      "Ġincredibly": 6323,
      "ĠRom": 6324,
      "PH": 6325,
      "atory": 6326,
      "Ġmeals": 6327,
      "ĠMaria": 6328,
      "ront": 6329,
      "Ġimpression": 6330,
      "ĠEmily": 6331,
      "Ġcurse": 6332,
      "Ġmanaged": 6333,
      "zie": 6334,
      "Ġbelieving": 6335,
      "arn": 6336,
      "ĠJer": 6337,
      "Ġwand": 6338,
      "Ġawake": 6339,
      "ĠWind": 6340,
      "Ġstretch": 6341,
      "ĠRed": 6342,
      "Ġprinted": 6343,
      "Ġremove": 6344,
      "Ġresponsibilities": 6345,
      "iveness": 6346,
      "Ġsuggestion": 6347,
      "Ġimpl": 6348,
      "ĠUpon": 6349,
      "Take": 6350,
      "Ġwave": 6351,
      "gypt": 6352,
      "Ġobserv": 6353,
      "going": 6354,
      "ĠHold": 6355,
      "ĠBas": 6356,
      "earer": 6357,
      "Ġlifes": 6358,
      "Ġfinances": 6359,
      "Ġappropriate": 6360,
      "bered": 6361,
      "Ġsoldiers": 6362,
      "elled": 6363,
      "ARD": 6364,
      "**:": 6365,
      "Which": 6366,
      "ĠSpain": 6367,
      "Ġavoiding": 6368,
      "Ġvase": 6369,
      "Ġbaking": 6370,
      "Ġindividuals": 6371,
      "jo": 6372,
      "Ġsoldier": 6373,
      "Co": 6374,
      "Ġbodies": 6375,
      "Ġpoll": 6376,
      "mates": 6377,
      "erences": 6378,
      "Ġengaged": 6379,
      "Ġdisrespect": 6380,
      "Qu": 6381,
      "Ġthirst": 6382,
      "Ġtempt": 6383,
      "Ġ27": 6384,
      "Ġignor": 6385,
      "name": 6386,
      "elp": 6387,
      "Ġartists": 6388,
      "Ġreputation": 6389,
      "Ġast": 6390,
      "ille": 6391,
      "Ġshy": 6392,
      "Ġwretched": 6393,
      "Ġrum": 6394,
      "ĠIr": 6395,
      "Ã¡": 6396,
      "ete": 6397,
      "Ġsights": 6398,
      "Ġtail": 6399,
      "Ġreader": 6400,
      "ĠGods": 6401,
      "Ġblocks": 6402,
      "ral": 6403,
      "Ġunb": 6404,
      "mn": 6405,
      "Ġguarant": 6406,
      "Ġshr": 6407,
      "reh": 6408,
      "Ġintroduce": 6409,
      "Her": 6410,
      "ĠGreece": 6411,
      "Ġtypically": 6412,
      "Ġconclusion": 6413,
      "Ġfab": 6414,
      "Ġfallen": 6415,
      "Sc": 6416,
      "Ġserver": 6417,
      "Ġtag": 6418,
      "agn": 6419,
      "Ġrelease": 6420,
      "ESS": 6421,
      "anne": 6422,
      "there": 6423,
      "ĠSer": 6424,
      "Ġclouds": 6425,
      "owing": 6426,
      "acles": 6427,
      "Ġdefinit": 6428,
      "ĠKal": 6429,
      "ceived": 6430,
      "Ġdisci": 6431,
      "Ġorganization": 6432,
      "Ġtidy": 6433,
      "alysis": 6434,
      "Ġvib": 6435,
      "Ġcontem": 6436,
      "new": 6437,
      "Ġarchit": 6438,
      "UT": 6439,
      "Ġdepartment": 6440,
      "Ġverse": 6441,
      "acke": 6442,
      "Ġmarch": 6443,
      "Ġfocusing": 6444,
      "ĠPerhaps": 6445,
      "cons": 6446,
      "ĠLear": 6447,
      "Ġlapt": 6448,
      "Ġneglect": 6449,
      "13": 6450,
      "Ġemerg": 6451,
      "Ġroses": 6452,
      "Ġstrategies": 6453,
      "ĠBoy": 6454,
      "Ġwatched": 6455,
      "Ġflies": 6456,
      "Con": 6457,
      "Ġjewel": 6458,
      "Ġincludes": 6459,
      "ĠHath": 6460,
      "iance": 6461,
      "Ġmotivation": 6462,
      "Ġmail": 6463,
      "udd": 6464,
      "Ġworker": 6465,
      "Ġadvanced": 6466,
      "Ġfame": 6467,
      "Ġutter": 6468,
      "Ġinsist": 6469,
      "ĠUse": 6470,
      "Ġrhy": 6471,
      "Ġgenius": 6472,
      "Ġwa": 6473,
      "Ġpriest": 6474,
      "Ġbroad": 6475,
      "ĠNorth": 6476,
      "care": 6477,
      "Ġtun": 6478,
      "Ġclosed": 6479,
      "Ġwoe": 6480,
      "Ġgracious": 6481,
      "Ġedition": 6482,
      "Give": 6483,
      "etheless": 6484,
      "mp": 6485,
      "orus": 6486,
      "acc": 6487,
      "Ġaver": 6488,
      "Ġracing": 6489,
      "OV": 6490,
      "Excuse": 6491,
      "look": 6492,
      "Ġpill": 6493,
      "Alas": 6494,
      "Ġsomewhat": 6495,
      "Ġviews": 6496,
      "sey": 6497,
      "istant": 6498,
      "Ġstol": 6499,
      "Ġnod": 6500,
      "Ġpour": 6501,
      "Ġneat": 6502,
      ";--": 6503,
      "rad": 6504,
      "Ġpound": 6505,
      "Ġchamp": 6506,
      "Ġcomplain": 6507,
      "Ġfulfilling": 6508,
      "Ġvoices": 6509,
      "Ġunn": 6510,
      "Ġgenerate": 6511,
      "ĠEgypt": 6512,
      "Ġobst": 6513,
      "Ġagreed": 6514,
      "Ġextremely": 6515,
      "Ġfold": 6516,
      "Ġessay": 6517,
      "ĠGold": 6518,
      "Ġinterrupt": 6519,
      "Ġarrange": 6520,
      "Ġvast": 6521,
      "Ġlicense": 6522,
      "vity": 6523,
      "ola": 6524,
      "Ġsauce": 6525,
      "Ġshoulder": 6526,
      "Ġordinary": 6527,
      "umn": 6528,
      "cast": 6529,
      "ca": 6530,
      "Ġow": 6531,
      "Ġhug": 6532,
      "Ġ160": 6533,
      "Ġclo": 6534,
      "Ġdevice": 6535,
      "ĠOff": 6536,
      "ĠMama": 6537,
      "ager": 6538,
      "Ġgiue": 6539,
      "anging": 6540,
      "ĠDen": 6541,
      "iate": 6542,
      "ĠMust": 6543,
      "gging": 6544,
      "berg": 6545,
      "Ġchillin": 6546,
      "ĠRevolution": 6547,
      "Ġtrigg": 6548,
      "yes": 6549,
      "Ġyard": 6550,
      "Ġski": 6551,
      "ĠEv": 6552,
      "Ugh": 6553,
      "Ġhaste": 6554,
      "ero": 6555,
      "Ġhee": 6556,
      "Ġstayed": 6557,
      "Ġconsiderate": 6558,
      "orse": 6559,
      "Ġprecious": 6560,
      "Ġcounting": 6561,
      "Ġbasically": 6562,
      "Ġnay": 6563,
      "Ġroot": 6564,
      "nis": 6565,
      "Ġinvolves": 6566,
      "Ġemotional": 6567,
      "Ġsum": 6568,
      "====": 6569,
      "ĠTea": 6570,
      "force": 6571,
      "usive": 6572,
      "Ġprincess": 6573,
      "lines": 6574,
      "Ġpulled": 6575,
      "charge": 6576,
      "ulty": 6577,
      "ĠAfric": 6578,
      "Ġsunset": 6579,
      "ĠFriday": 6580,
      "Ġexhib": 6581,
      "Ġuncertain": 6582,
      "Ġpitch": 6583,
      "Ġlust": 6584,
      "Ġprob": 6585,
      "angle": 6586,
      "Ġleaders": 6587,
      "ĠKait": 6588,
      "Ġendea": 6589,
      "istr": 6590,
      "Ġconvert": 6591,
      "owne": 6592,
      "Ġexcl": 6593,
      "Ġtricks": 6594,
      "Ġ35": 6595,
      "cking": 6596,
      "ĠAlso": 6597,
      "rep": 6598,
      "ĠEither": 6599,
      "Ġcapital": 6600,
      "Ġresolve": 6601,
      "CE": 6602,
      "ez": 6603,
      "Ġinvolve": 6604,
      "Ġkingdom": 6605,
      "ĠAnton": 6606,
      "print": 6607,
      "Ġnonetheless": 6608,
      "Ġsew": 6609,
      "Ġapplied": 6610,
      "</": 6611,
      "Ġunknown": 6612,
      "don": 6613,
      "Ġmilitary": 6614,
      "Ġchosen": 6615,
      "Ġrecovery": 6616,
      "Ġkiddo": 6617,
      "chant": 6618,
      "Ġvow": 6619,
      "Ġpolitics": 6620,
      "Ġain": 6621,
      "ĠBus": 6622,
      "Ġhitting": 6623,
      "ĠBAR": 6624,
      "ĠBoth": 6625,
      "mo": 6626,
      "Ġrandom": 6627,
      "Ġoblig": 6628,
      "erer": 6629,
      "uls": 6630,
      "lings": 6631,
      "Another": 6632,
      "Ġcritical": 6633,
      "Ġstaff": 6634,
      "Love": 6635,
      "iue": 6636,
      "Ġours": 6637,
      "Ġcharity": 6638,
      "ĠDeath": 6639,
      "iation": 6640,
      "Ġdism": 6641,
      "Ġcomputers": 6642,
      "Ġselect": 6643,
      "aire": 6644,
      "reme": 6645,
      "Ġcycle": 6646,
      "ĠAunt": 6647,
      "ĠAtt": 6648,
      "Ġattending": 6649,
      "aun": 6650,
      "Ġimages": 6651,
      "Ġpregnant": 6652,
      "arian": 6653,
      "ĠMont": 6654,
      "ĠPerson": 6655,
      "Ġ28": 6656,
      "Ġmathem": 6657,
      "Ġplaced": 6658,
      "point": 6659,
      "ounter": 6660,
      "standing": 6661,
      "rics": 6662,
      "cribe": 6663,
      "Ġgraduated": 6664,
      "Ġtickets": 6665,
      "ĠHanmer": 6666,
      "Ġventure": 6667,
      "itors": 6668,
      "order": 6669,
      "Ġpurp": 6670,
      "Ġpresently": 6671,
      "Ġpalace": 6672,
      "agon": 6673,
      "Ġbrows": 6674,
      "Ġflour": 6675,
      "Ġincreasing": 6676,
      "Ġcrimin": 6677,
      "Ġserved": 6678,
      "NE": 6679,
      "Ġlou": 6680,
      "rice": 6681,
      "Ġknees": 6682,
      "Ġmonster": 6683,
      "Ġblessed": 6684,
      "Pretty": 6685,
      "ĠReg": 6686,
      "Ġparticip": 6687,
      "Ġautom": 6688,
      "ĠYe": 6689,
      "IST": 6690,
      "Ġthorough": 6691,
      "dess": 6692,
      "Ġgrandmother": 6693,
      "iev": 6694,
      "porary": 6695,
      "PT": 6696,
      "Ġprovided": 6697,
      "Ġfans": 6698,
      "Ġfaint": 6699,
      "Ġyellow": 6700,
      "ĠLast": 6701,
      "Ġhabits": 6702,
      "ĠMajesty": 6703,
      "Ġsufficient": 6704,
      "ja": 6705,
      "Ġsurreal": 6706,
      "ĠSunday": 6707,
      "AB": 6708,
      "Ġsolar": 6709,
      "Ġtechnique": 6710,
      "eus": 6711,
      "Ġpunch": 6712,
      "Ġalarm": 6713,
      "Ġmedium": 6714,
      "ube": 6715,
      ".âĢĻ": 6716,
      "ĠIbs": 6717,
      "Ġshared": 6718,
      "ĠIV": 6719,
      "Ġfarewell": 6720,
      "Ġneuer": 6721,
      "ĠElizabeth": 6722,
      "Ġwicked": 6723,
      "Ġhorses": 6724,
      "Ġapplying": 6725,
      "Ġaffected": 6726,
      "ĠUni": 6727,
      "ein": 6728,
      "ta": 6729,
      "Ġrecy": 6730,
      "erent": 6731,
      "Ġmotions": 6732,
      "ĠLand": 6733,
      "ĊĠĠĠĠĠ": 6734,
      "kin": 6735,
      "âĢľ": 6736,
      "Ġthankful": 6737,
      "vertis": 6738,
      "tr": 6739,
      "Ġliking": 6740,
      "Ġknight": 6741,
      "Ġretirement": 6742,
      "Ġbeneath": 6743,
      "ĠGerman": 6744,
      "Ġwebsites": 6745,
      "onent": 6746,
      "ieur": 6747,
      "sell": 6748,
      "Ġenthus": 6749,
      "Ġquarter": 6750,
      "Ġstandard": 6751,
      "Ġstatement": 6752,
      "ĠServ": 6753,
      "ception": 6754,
      "Ġspect": 6755,
      "Ġapologizing": 6756,
      "ĠProf": 6757,
      "Ġcarp": 6758,
      "Ġinvite": 6759,
      "Ġauthors": 6760,
      "Ġrub": 6761,
      "ERT": 6762,
      "lying": 6763,
      "Ġsigns": 6764,
      "Ġminim": 6765,
      "Ġstrive": 6766,
      "Ġfantasy": 6767,
      "arently": 6768,
      "Ġclothing": 6769,
      "Ġtur": 6770,
      "Ġmanners": 6771,
      "ĠConst": 6772,
      "ales": 6773,
      "ĠLong": 6774,
      "Got": 6775,
      "ĠHist": 6776,
      "Ġproduced": 6777,
      "Ġsensitive": 6778,
      "ĠDan": 6779,
      "Ġsacred": 6780,
      "osite": 6781,
      "Ġcontext": 6782,
      "icating": 6783,
      "Ġnurse": 6784,
      "inal": 6785,
      "Ġstole": 6786,
      "ously": 6787,
      "Ġbackyard": 6788,
      "Ġsail": 6789,
      "ĠOl": 6790,
      "Would": 6791,
      "ĠThink": 6792,
      "Ġmurd": 6793,
      "Ġglasses": 6794,
      "Ġhumble": 6795,
      "ancis": 6796,
      "Ġowne": 6797,
      "Ġhotel": 6798,
      "gly": 6799,
      "Ġestate": 6800,
      "Ġarrived": 6801,
      "ĠTri": 6802,
      "onsense": 6803,
      "40": 6804,
      "cely": 6805,
      "Ġbeside": 6806,
      "Ġisol": 6807,
      "ĠPeter": 6808,
      "ucking": 6809,
      "Ġpractical": 6810,
      "Ġbee": 6811,
      "Ġclient": 6812,
      "Ġshore": 6813,
      "Ġscare": 6814,
      "Ġdepth": 6815,
      "ĠKnow": 6816,
      "Ġpatch": 6817,
      "Ġirre": 6818,
      "oni": 6819,
      "unders": 6820,
      "Ġlifesaver": 6821,
      "uten": 6822,
      "ĠTH": 6823,
      "Ġcas": 6824,
      "icro": 6825,
      "Ġforced": 6826,
      "Ġphotography": 6827,
      "Ġschem": 6828,
      "Ġdrown": 6829,
      "Ġchamber": 6830,
      "Ġstruck": 6831,
      "Ġbutton": 6832,
      "Ne": 6833,
      "Ġcompliment": 6834,
      "Ġpredict": 6835,
      "life": 6836,
      "Ġsecrets": 6837,
      "Ġetern": 6838,
      "Ġhiring": 6839,
      "----------------": 6840,
      "eration": 6841,
      "Ġreached": 6842,
      "Ġgrandp": 6843,
      "ĠCy": 6844,
      "Ġoccup": 6845,
      "ĠRy": 6846,
      "Ġ22": 6847,
      "Ġorders": 6848,
      "Ġinstinct": 6849,
      "Ġtrend": 6850,
      "ĠWin": 6851,
      "Ġapple": 6852,
      "Ġmessy": 6853,
      "Pr": 6854,
      "rier": 6855,
      "Ġtransform": 6856,
      "DE": 6857,
      "Ġassum": 6858,
      "Ġpow": 6859,
      "Ġtutor": 6860,
      "Ġregardless": 6861,
      "Ġdepression": 6862,
      "Ġsevere": 6863,
      "Ġdetermine": 6864,
      "Ġremembered": 6865,
      "Ġaverage": 6866,
      "Ġalbum": 6867,
      "After": 6868,
      "ĠJes": 6869,
      "Ġunp": 6870,
      "Ġstraw": 6871,
      "arted": 6872,
      "Ġblush": 6873,
      "ĠSl": 6874,
      "ĠEst": 6875,
      "Ġsouls": 6876,
      "Ġpersonality": 6877,
      "Ġpants": 6878,
      "ĠCast": 6879,
      "Ġforgetting": 6880,
      "obald": 6881,
      "Ġlords": 6882,
      "Ġsending": 6883,
      "Ġjournal": 6884,
      "Ġgraduate": 6885,
      "Ġagreement": 6886,
      "Ġshout": 6887,
      "Ġstocks": 6888,
      "Ġcolon": 6889,
      "Ġhunt": 6890,
      "Ġaffordable": 6891,
      "Ġbreaths": 6892,
      "Ġiii": 6893,
      "erate": 6894,
      "Ġbesee": 6895,
      "oming": 6896,
      "Ġvolume": 6897,
      "ĠJones": 6898,
      "craft": 6899,
      "Ġenvironmental": 6900,
      "Ġexistence": 6901,
      "Tot": 6902,
      "kward": 6903,
      "ifications": 6904,
      "SON": 6905,
      "Ġtragic": 6906,
      "ingu": 6907,
      "Ġfemale": 6908,
      "Ġpromote": 6909,
      "ĠTower": 6910,
      "Ġhyp": 6911,
      "word": 6912,
      "Ġfee": 6913,
      "Ġclock": 6914,
      "based": 6915,
      "itable": 6916,
      "Ġbears": 6917,
      "Ġdiss": 6918,
      "Ġrage": 6919,
      "bbing": 6920,
      "Ġcells": 6921,
      "ĠMexico": 6922,
      "ĠKat": 6923,
      "Ġknee": 6924,
      "Ġchilling": 6925,
      "ada": 6926,
      "eases": 6927,
      "Ġdowns": 6928,
      "Ġhighest": 6929,
      "rical": 6930,
      "60": 6931,
      "INE": 6932,
      "Ġpunishment": 6933,
      "Ġdiscipl": 6934,
      "itter": 6935,
      "Ġdistribut": 6936,
      "Ġfacts": 6937,
      "Ġhobby": 6938,
      "Ġbeseech": 6939,
      "Ġsalad": 6940,
      "Ġchose": 6941,
      "Ġeconomic": 6942,
      "Ġbleeding": 6943,
      "levant": 6944,
      "ĠGentleman": 6945,
      "Ġbloody": 6946,
      "Ġprayer": 6947,
      "Over": 6948,
      "ĠPal": 6949,
      "Ġsupporting": 6950,
      "Ġgrass": 6951,
      "after": 6952,
      "amar": 6953,
      "Ġremark": 6954,
      "Ġrefuse": 6955,
      "Ġjudging": 6956,
      "fined": 6957,
      "Ġdeeper": 6958,
      "Ġfle": 6959,
      "Ġcaut": 6960,
      "Ġgate": 6961,
      "Ġlottery": 6962,
      "Ġspark": 6963,
      "Ġscream": 6964,
      "Ġerrands": 6965,
      "Ġdrugs": 6966,
      "Ġnative": 6967,
      "\":": 6968,
      "Ġwelcoming": 6969,
      "Ġ?": 6970,
      "ĠVir": 6971,
      "Ġheav": 6972,
      "ĠMS": 6973,
      "ulting": 6974,
      "ĠState": 6975,
      "Ġcorn": 6976,
      "Ġjacket": 6977,
      "urd": 6978,
      "Ġlaptop": 6979,
      "ams": 6980,
      "icity": 6981,
      "Ġcompar": 6982,
      "UL": 6983,
      "Ġgoe": 6984,
      "True": 6985,
      "Ġbon": 6986,
      "Ġabroad": 6987,
      "ĠJos": 6988,
      "Ġsympath": 6989,
      "Ġconvinced": 6990,
      "Ġdelay": 6991,
      "Ġspite": 6992,
      "free": 6993,
      "ĠPol": 6994,
      "Ġmeditation": 6995,
      "Ġtoler": 6996,
      "elve": 6997,
      "Ġadvertis": 6998,
      "Ġthunder": 6999,
      "Ġcommend": 7000,
      "Ġconsideration": 7001,
      "Ġhorrible": 7002,
      "Ġinformed": 7003,
      "Ġjest": 7004,
      "Ġnights": 7005,
      "Ġbathroom": 7006,
      "ĠTe": 7007,
      "Ġinnov": 7008,
      "ecess": 7009,
      "Ġcoin": 7010,
      "Ġbrow": 7011,
      "Ġwrapped": 7012,
      "ky": 7013,
      "ĠIbsen": 7014,
      "Ġtire": 7015,
      "Ġawkward": 7016,
      "Ġauthority": 7017,
      "ĠÐ": 7018,
      "istics": 7019,
      "Ġvary": 7020,
      "import": 7021,
      "Ġactual": 7022,
      "Ġrepair": 7023,
      "Ġsunlight": 7024,
      "Ġsink": 7025,
      "Ġblog": 7026,
      "Ġbones": 7027,
      "Ġqualified": 7028,
      "aust": 7029,
      "obal": 7030,
      "Ġconvenient": 7031,
      "Ġactors": 7032,
      "azz": 7033,
      "Ġprinciples": 7034,
      "Ãģ": 7035,
      "Ġgrandfather": 7036,
      "eriously": 7037,
      "Ġdiscouraged": 7038,
      "ĠKa": 7039,
      "bro": 7040,
      "Ġguilt": 7041,
      "ials": 7042,
      "ĠBrother": 7043,
      "Ġdistracted": 7044,
      "arts": 7045,
      "ĠAz": 7046,
      "Ġtransfer": 7047,
      "alf": 7048,
      "Ġrises": 7049,
      "Anything": 7050,
      "Ġsons": 7051,
      "ĠEmp": 7052,
      "Ġsuspicious": 7053,
      "ĠAle": 7054,
      "Ġdial": 7055,
      "Ġages": 7056,
      "oard": 7057,
      "Ġdur": 7058,
      "asia": 7059,
      "ĠTyl": 7060,
      "May": 7061,
      "Ġodd": 7062,
      "Ġfract": 7063,
      "Ġexcitement": 7064,
      "olio": 7065,
      "Ġsalary": 7066,
      "Ġequally": 7067,
      "ago": 7068,
      "Ġassociated": 7069,
      ",âĢĶ": 7070,
      "Ġrice": 7071,
      "Ġjoined": 7072,
      "ĠAP": 7073,
      "Ġcaptain": 7074,
      "Ġmelt": 7075,
      "ĠBur": 7076,
      "Ġrank": 7077,
      "Ġdiam": 7078,
      "Ġkissing": 7079,
      "Ġlamp": 7080,
      "Ġincor": 7081,
      "Madam": 7082,
      "Ġcraft": 7083,
      "Ġtort": 7084,
      "OH": 7085,
      "add": 7086,
      "Ġcompassion": 7087,
      "Ġ11": 7088,
      "eam": 7089,
      "ĠJen": 7090,
      "Yet": 7091,
      "erties": 7092,
      "down": 7093,
      "Ġintelligent": 7094,
      "ĠInstead": 7095,
      "Ġalternative": 7096,
      "quis": 7097,
      "Ġcheaper": 7098,
      "taking": 7099,
      "OD": 7100,
      "ĠSurely": 7101,
      "alu": 7102,
      "ĠPray": 7103,
      "Totally": 7104,
      "Ġfoul": 7105,
      "Ġfifty": 7106,
      "ugust": 7107,
      "ĠNight": 7108,
      "Ġcontest": 7109,
      "Ġlux": 7110,
      "Ġtennis": 7111,
      "Ġscientific": 7112,
      "IV": 7113,
      "Rem": 7114,
      "ĠMc": 7115,
      "ĠDa": 7116,
      "Ġappet": 7117,
      "ector": 7118,
      "Ġthrown": 7119,
      "Ġthrows": 7120,
      "Mostly": 7121,
      "rance": 7122,
      "pons": 7123,
      "ĠLeon": 7124,
      "Ġpermission": 7125,
      "athan": 7126,
      "Ġconstruction": 7127,
      "ATH": 7128,
      "%.": 7129,
      "Ġdirections": 7130,
      "enced": 7131,
      "Ġay": 7132,
      "Ġugly": 7133,
      "Ġalgorithm": 7134,
      "berry": 7135,
      "Ġsearching": 7136,
      "Ġwond": 7137,
      "Ġhomeless": 7138,
      "osity": 7139,
      "ĠTit": 7140,
      "Ġsequ": 7141,
      "ĠCarm": 7142,
      "nto": 7143,
      "Ġagaine": 7144,
      "ample": 7145,
      "ĠTheobald": 7146,
      "Ġcherish": 7147,
      "Mother": 7148,
      "Ġpersu": 7149,
      "uted": 7150,
      "ĠFrank": 7151,
      "Ġlabor": 7152,
      "Ġvolunteering": 7153,
      "ĠSCENE": 7154,
      "Ġsed": 7155,
      "ĠWoman": 7156,
      "Ġ//": 7157,
      "!!": 7158,
      "Ġhill": 7159,
      "Ġreports": 7160,
      "ĠGeneral": 7161,
      "mind": 7162,
      "Ġgoodbye": 7163,
      "Ġanaly": 7164,
      "Ġcities": 7165,
      "Ġassistant": 7166,
      "Ġdelicate": 7167,
      "cur": 7168,
      "Ġfairly": 7169,
      "Ġrecipes": 7170,
      "bbed": 7171,
      "Ġclever": 7172,
      "ĠGab": 7173,
      "Ġquantum": 7174,
      "ĠMak": 7175,
      "Ġresc": 7176,
      "ĠUnder": 7177,
      "80": 7178,
      "Ġreject": 7179,
      "Ġfactor": 7180,
      "Ġgifts": 7181,
      "esis": 7182,
      "Ġerrors": 7183,
      "ALL": 7184,
      "nie": 7185,
      "Ġclick": 7186,
      "Ġcanst": 7187,
      "ĠListen": 7188,
      "Ġargue": 7189,
      "Ġemotionally": 7190,
      "case": 7191,
      "isms": 7192,
      "Ġreveal": 7193,
      "ĠMed": 7194,
      "Ġsweat": 7195,
      "Ġfest": 7196,
      "Ġvolunteer": 7197,
      "va": 7198,
      "ĠNat": 7199,
      "Ġ60": 7200,
      "andal": 7201,
      "ĠDram": 7202,
      "Ġbranch": 7203,
      "Ġmagical": 7204,
      "Ġexchange": 7205,
      "lan": 7206,
      "Ġheading": 7207,
      "Ġcandidate": 7208,
      "Ġdifficulty": 7209,
      "Ġdistinct": 7210,
      "Pray": 7211,
      "sa": 7212,
      "Ġencouragement": 7213,
      "Ġanalysis": 7214,
      "Ġcrossing": 7215,
      "ua": 7216,
      "ĠMany": 7217,
      "Ġbride": 7218,
      "Ġcloset": 7219,
      "Ġvideos": 7220,
      "yr": 7221,
      "Ġdies": 7222,
      "osal": 7223,
      "Ġfeare": 7224,
      "amm": 7225,
      "Ġmetal": 7226,
      "ĠFrancis": 7227,
      "rog": 7228,
      "Ġproph": 7229,
      "Ġpromoted": 7230,
      "Ġconsult": 7231,
      "Ġstab": 7232,
      "oga": 7233,
      "Ġstopping": 7234,
      "Ġchoosing": 7235,
      "RY": 7236,
      "sar": 7237,
      "rain": 7238,
      "Ġrul": 7239,
      "ĠTrying": 7240,
      "Ġpron": 7241,
      "Ġdiscount": 7242,
      "mond": 7243,
      "Ġintent": 7244,
      "Ġliberty": 7245,
      "boy": 7246,
      "abel": 7247,
      "ĠCatch": 7248,
      "Ġstandards": 7249,
      "Ġfluids": 7250,
      "mble": 7251,
      "Ġ:": 7252,
      "Ġpromises": 7253,
      "Ġmathemat": 7254,
      "win": 7255,
      "~~": 7256,
      "ping": 7257,
      "Ġer": 7258,
      "Ġdefe": 7259,
      "Ġcompreh": 7260,
      "ĠSte": 7261,
      "onents": 7262,
      "ĠGar": 7263,
      "Ġbags": 7264,
      "Ġstolen": 7265,
      "mber": 7266,
      "Ġefficiently": 7267,
      "cest": 7268,
      "ĠLords": 7269,
      "owed": 7270,
      "rict": 7271,
      "ĠPage": 7272,
      "Ġincon": 7273,
      "vo": 7274,
      "shi": 7275,
      "ĠFortune": 7276,
      "Ġlatter": 7277,
      "Ġplanets": 7278,
      "ogle": 7279,
      "ĠJerry": 7280,
      "Ġrat": 7281,
      "Ġappeared": 7282,
      "ĠHum": 7283,
      "Ġarts": 7284,
      "Ġcreativity": 7285,
      "sed": 7286,
      "isc": 7287,
      "Ġpursuing": 7288,
      "90": 7289,
      "unting": 7290,
      "ĠOct": 7291,
      "Ġdign": 7292,
      "ĠJose": 7293,
      "Ġpayments": 7294,
      "Ġsolving": 7295,
      "Ġpause": 7296,
      "ional": 7297,
      "Ġsubs": 7298,
      "Ġpainted": 7299,
      "Ġdestroyed": 7300,
      "Ġreturned": 7301,
      "24": 7302,
      "Ġsisters": 7303,
      "Ġpsychology": 7304,
      "orable": 7305,
      "def": 7306,
      "Ġdiz": 7307,
      "Everything": 7308,
      "Ġwithdraw": 7309,
      "eb": 7310,
      "ĠAly": 7311,
      "Ġcooked": 7312,
      "Ġproperties": 7313,
      "Ġprices": 7314,
      "Ġpushed": 7315,
      "Ġclimbing": 7316,
      "Ġarticles": 7317,
      "SE": 7318,
      "Ġchain": 7319,
      "vens": 7320,
      "ĠIre": 7321,
      "Ġdrives": 7322,
      "Ġcorrupt": 7323,
      "Ġburned": 7324,
      "Ġendeav": 7325,
      "Ġtries": 7326,
      "inese": 7327,
      "Ġhumor": 7328,
      "box": 7329,
      "ĠHamlet": 7330,
      "Ġshorter": 7331,
      "Mrs": 7332,
      "ups": 7333,
      "ĠConf": 7334,
      "Ġrelevant": 7335,
      "Ġconference": 7336,
      "Ġconversations": 7337,
      "equ": 7338,
      "Ġwrap": 7339,
      "ania": 7340,
      "Ġpoore": 7341,
      "Ġflav": 7342,
      "Ġthyself": 7343,
      "Life": 7344,
      "ĠCat": 7345,
      "ante": 7346,
      "Ġclimb": 7347,
      "ala": 7348,
      "Ġsupply": 7349,
      "Ġassert": 7350,
      "Ġassignment": 7351,
      "Ġperspectives": 7352,
      "Ġexact": 7353,
      "Ġped": 7354,
      "Ġclassical": 7355,
      "TON": 7356,
      "Ġfortunate": 7357,
      "Ġdespair": 7358,
      "Ġlifetime": 7359,
      "utch": 7360,
      "uis": 7361,
      "ĠMid": 7362,
      "cont": 7363,
      "udge": 7364,
      "Ġsuggested": 7365,
      "Ġbattery": 7366,
      "Ġfeast": 7367,
      "ĠMia": 7368,
      "Ġlandsc": 7369,
      "].": 7370,
      "ĠKaitlyn": 7371,
      "Ġfits": 7372,
      "Ġengineer": 7373,
      "ĠGentlemen": 7374,
      "ĠOth": 7375,
      "Ġemployee": 7376,
      "Ġoft": 7377,
      "peror": 7378,
      "Ġtesting": 7379,
      "Ġgardening": 7380,
      "ĠPre": 7381,
      "Listen": 7382,
      "Ġshooting": 7383,
      "Ġopposite": 7384,
      "Ġcompetitive": 7385,
      "otes": 7386,
      "Ġmeets": 7387,
      "aws": 7388,
      "Indeed": 7389,
      "ĠHaving": 7390,
      "Ġrepeat": 7391,
      "Ġstaring": 7392,
      "Ġteachers": 7393,
      "Ġ190": 7394,
      "Ġroast": 7395,
      "Ġengineering": 7396,
      "Ġpersons": 7397,
      "Next": 7398,
      "zo": 7399,
      "Ġrooms": 7400,
      "ĠKey": 7401,
      "Ġprotection": 7402,
      "Ġvillage": 7403,
      "ishop": 7404,
      "Ġmusician": 7405,
      "Ġmessing": 7406,
      "Ġlimited": 7407,
      "ĠSen": 7408,
      "Ġdetect": 7409,
      "Ġhumour": 7410,
      "amin": 7411,
      "Ġintended": 7412,
      "Br": 7413,
      "Ġdeeds": 7414,
      "Ġnewsp": 7415,
      "Ġadults": 7416,
      "ĠHaw": 7417,
      "Ġslip": 7418,
      "ĠHu": 7419,
      "Ġpacking": 7420,
      "anta": 7421,
      "Ġasp": 7422,
      "Ġrefer": 7423,
      "oral": 7424,
      "Ġvert": 7425,
      "ĠPort": 7426,
      "agger": 7427,
      "Ġscul": 7428,
      "Ġcharming": 7429,
      "Ġvisual": 7430,
      "Ġdumb": 7431,
      "aches": 7432,
      "KE": 7433,
      "Ġspa": 7434,
      "Ġtie": 7435,
      "Ġgrows": 7436,
      "Ġcompromise": 7437,
      "olute": 7438,
      "emon": 7439,
      "ĠCollier": 7440,
      "ario": 7441,
      "acing": 7442,
      "Ġgoods": 7443,
      "ĠFriends": 7444,
      "ĠSign": 7445,
      "Ġdarling": 7446,
      "Ġbind": 7447,
      "Ġrend": 7448,
      "Ġgenu": 7449,
      "Twas": 7450,
      "Ġconquer": 7451,
      "Ġdesc": 7452,
      "Ġdeals": 7453,
      "Ġunivers": 7454,
      "Ġnic": 7455,
      "Ġdemon": 7456,
      "ĠFre": 7457,
      "Ġcalmly": 7458,
      "Ġlaunch": 7459,
      "minded": 7460,
      "Ġiv": 7461,
      "Ġseal": 7462,
      "Ġmission": 7463,
      "Ġaffair": 7464,
      "MAN": 7465,
      "log": 7466,
      "rooms": 7467,
      "then": 7468,
      "ĠMine": 7469,
      "Ġdidst": 7470,
      "Ġlocked": 7471,
      "ifferent": 7472,
      "anes": 7473,
      "Ġhopeful": 7474,
      "Ġrepresents": 7475,
      "epherd": 7476,
      "eps": 7477,
      "Ġmall": 7478,
      "phas": 7479,
      "Ġconceal": 7480,
      "rase": 7481,
      "Ġrash": 7482,
      "Ġexisting": 7483,
      "aus": 7484,
      "cknow": 7485,
      "Ġinjury": 7486,
      "Ġder": 7487,
      "ĠJess": 7488,
      "Ġbowl": 7489,
      "aded": 7490,
      "El": 7491,
      "anges": 7492,
      "Ġaunt": 7493,
      "Ġrefresh": 7494,
      "Ġpresents": 7495,
      "Ġthirty": 7496,
      "Ġillness": 7497,
      "ĠSaunders": 7498,
      "elin": 7499,
      "Ġworn": 7500,
      "Ġdesired": 7501,
      "Ġborne": 7502,
      "Ġforeign": 7503,
      "âĸ": 7504,
      "Ġbeard": 7505,
      "Ġroute": 7506,
      "ĠFar": 7507,
      "Ġharsh": 7508,
      "ĠDor": 7509,
      "ĠNext": 7510,
      "Ġprayers": 7511,
      "Ġcastle": 7512,
      "Ġinh": 7513,
      "ĠMath": 7514,
      "Ġacts": 7515,
      "Ġhunting": 7516,
      "Ġrecommended": 7517,
      "oding": 7518,
      "Ġdestination": 7519,
      "ĠKnight": 7520,
      "osit": 7521,
      "Ġdisgu": 7522,
      "Ġblessing": 7523,
      "Ġfed": 7524,
      "Ġpig": 7525,
      "ĠCath": 7526,
      "Ġ200": 7527,
      "Ġchapter": 7528,
      "22": 7529,
      "ĠMil": 7530,
      "ĠFal": 7531,
      "ĠTem": 7532,
      "Ġprivacy": 7533,
      "Cool": 7534,
      "semb": 7535,
      "Ġmale": 7536,
      "Ġhorror": 7537,
      "elynn": 7538,
      "Write": 7539,
      "Ġscen": 7540,
      "ĠUncle": 7541,
      "Ġawareness": 7542,
      "ÃŃ": 7543,
      "OHN": 7544,
      "Â·": 7545,
      "Ġfigures": 7546,
      "ubs": 7547,
      "von": 7548,
      "ĠMarg": 7549,
      "imp": 7550,
      "Ġbosom": 7551,
      "Ġcharm": 7552,
      "Ġdetailed": 7553,
      "gers": 7554,
      "Ġnoticing": 7555,
      "Ġpets": 7556,
      "acity": 7557,
      "FF": 7558,
      "Ġreference": 7559,
      "ano": 7560,
      "Ġwriters": 7561,
      "Ġdancer": 7562,
      "Ġdiscussion": 7563,
      "Ġrequirements": 7564,
      "Ġexpanding": 7565,
      "uct": 7566,
      "ĠRes": 7567,
      "Ġaccidentally": 7568,
      "Ġentertainment": 7569,
      "ĠPed": 7570,
      "Ġcleaned": 7571,
      "Even": 7572,
      "ĊĊ": 7573,
      "Ġattractive": 7574,
      "Ġstrengths": 7575,
      "ĠRuss": 7576,
      "Ġperceive": 7577,
      "Ġcreepy": 7578,
      "ĠThree": 7579,
      "ĠCÃ¦": 7580,
      "ublic": 7581,
      "Ġalt": 7582,
      "Ġacadem": 7583,
      "field": 7584,
      "Ġpros": 7585,
      "ĠExit": 7586,
      "ĠOR": 7587,
      "Ġslipped": 7588,
      "Ġincluded": 7589,
      "Ġmutual": 7590,
      "Ġcenturies": 7591,
      "Ġsoil": 7592,
      "Ġwealthy": 7593,
      "ĠChild": 7594,
      "ĠChinese": 7595,
      "ĠJava": 7596,
      "Ġcrash": 7597,
      "SC": 7598,
      "Ġevident": 7599,
      "Ġdevices": 7600,
      "Ġmorrow": 7601,
      "ĠAlas": 7602,
      "easant": 7603,
      "Ġconstruct": 7604,
      "Ġmuscles": 7605,
      "Ġteen": 7606,
      "from": 7607,
      "Ġangel": 7608,
      "ij": 7609,
      "Ġexceed": 7610,
      "Ġtrained": 7611,
      "ĠMons": 7612,
      "ĠStay": 7613,
      "Ġseeking": 7614,
      "Ġrow": 7615,
      "ordin": 7616,
      "Ġcris": 7617,
      "Man": 7618,
      "Ġpit": 7619,
      "Ġ\\": 7620,
      "edge": 7621,
      "ĠRye": 7622,
      "THE": 7623,
      "Ġstrongly": 7624,
      "ĠWhether": 7625,
      "which": 7626,
      "Ġquarrel": 7627,
      "Ġtransportation": 7628,
      "Ġgenerations": 7629,
      "ĠSeeing": 7630,
      "Ġhook": 7631,
      "Ġequip": 7632,
      "Ġmortal": 7633,
      "Ġbuildings": 7634,
      "Ġdowne": 7635,
      "abella": 7636,
      "rupting": 7637,
      "Ġinfection": 7638,
      "Ġbake": 7639,
      "they": 7640,
      "ĠTor": 7641,
      "ĠRec": 7642,
      "ificial": 7643,
      "itz": 7644,
      "Ġaggress": 7645,
      "eresting": 7646,
      "Ġmentally": 7647,
      "Ãį": 7648,
      "andy": 7649,
      "Ġscholar": 7650,
      "Ġlifted": 7651,
      "Ġchores": 7652,
      "Ġformula": 7653,
      "55": 7654,
      "Ġaffairs": 7655,
      "Ġcounselor": 7656,
      "Ġchess": 7657,
      "ĠPet": 7658,
      "Ġovernight": 7659,
      "Ġdollar": 7660,
      "Ġearnest": 7661,
      "AP": 7662,
      "ðŁ": 7663,
      "ĠMain": 7664,
      "Ġrecommendation": 7665,
      "Ġembrace": 7666,
      "Ġbustle": 7667,
      "Ġeuer": 7668,
      "osis": 7669,
      "Ġinjuries": 7670,
      "Ġbeating": 7671,
      "Ġnaked": 7672,
      "Ġstamp": 7673,
      "eral": 7674,
      "Ġunre": 7675,
      "ĠVer": 7676,
      "Ġfaithful": 7677,
      "Ġliqu": 7678,
      "Ġresource": 7679,
      "Ġinvention": 7680,
      "ĠJim": 7681,
      "ĠTheatre": 7682,
      "ĠÂ·": 7683,
      "Ġarchitecture": 7684,
      "utus": 7685,
      "Ġrelaxation": 7686,
      "ĠTur": 7687,
      "erce": 7688,
      "cho": 7689,
      "ĠRel": 7690,
      "Ġreaction": 7691,
      "Ġsculpt": 7692,
      "Ke": 7693,
      "sters": 7694,
      "ĠCarl": 7695,
      "Ġfunctions": 7696,
      "Ġsought": 7697,
      "ĠTony": 7698,
      "Coach": 7699,
      "pan": 7700,
      "zing": 7701,
      "Ġpoems": 7702,
      "Ġnav": 7703,
      "Ġconvent": 7704,
      "worthy": 7705,
      "Ġarrested": 7706,
      "Never": 7707,
      "ĠWife": 7708,
      "Ġinstant": 7709,
      "arents": 7710,
      "AV": 7711,
      "Ġaboard": 7712,
      "ĠRomeo": 7713,
      "Ġwhilst": 7714,
      "Ġevol": 7715,
      "ĠHonor": 7716,
      "Ġacknow": 7717,
      "ĠRh": 7718,
      "ĠUniversity": 7719,
      "Ġsib": 7720,
      "Ġmessages": 7721,
      "Ġmee": 7722,
      "Ġminor": 7723,
      "ipt": 7724,
      "ĠEve": 7725,
      "Ġcounts": 7726,
      "EM": 7727,
      "Ġdoom": 7728,
      "Ġlabour": 7729,
      "Ġrecognized": 7730,
      "oney": 7731,
      "Ġincident": 7732,
      "Ġcontinued": 7733,
      "Ġconcentrate": 7734,
      "itution": 7735,
      "Ġreign": 7736,
      "alls": 7737,
      "Ġcompete": 7738,
      "Ġjeans": 7739,
      "Ġpages": 7740,
      "Ġge": 7741,
      "Ġglobal": 7742,
      "Ġarguments": 7743,
      "stic": 7744,
      "Ġlaughed": 7745,
      "Ġcolour": 7746,
      "Ġguarantee": 7747,
      "eous": 7748,
      "ima": 7749,
      "Ġelection": 7750,
      "Ġincreased": 7751,
      "Ġbridge": 7752,
      "lie": 7753,
      "Ġcultural": 7754,
      "Ġtune": 7755,
      "Ġinfinit": 7756,
      "Ġpenny": 7757,
      "Ġvoc": 7758,
      "Ġtwelve": 7759,
      "ĠLuci": 7760,
      "Ġnightmare": 7761,
      "IO": 7762,
      "mes": 7763,
      "omb": 7764,
      "Ġglo": 7765,
      "Ġbasis": 7766,
      "ĠTam": 7767,
      "Ġdonate": 7768,
      "Ġsinger": 7769,
      "bitious": 7770,
      "ointing": 7771,
      "Ġintri": 7772,
      "Ġdivine": 7773,
      "Ġinspire": 7774,
      "Ġpunct": 7775,
      "tm": 7776,
      "Ġcomposition": 7777,
      "Ġmeaningful": 7778,
      "Ġnegot": 7779,
      "Ġmud": 7780,
      "roll": 7781,
      "Ġengaging": 7782,
      "Ġsplend": 7783,
      "iciency": 7784,
      "ĠSaint": 7785,
      "law": 7786,
      "ĠPresident": 7787,
      "ORD": 7788,
      "Ġnovels": 7789,
      ".âĢĶ": 7790,
      "ĠSher": 7791,
      ",,": 7792,
      "ĠEarl": 7793,
      "Ġscale": 7794,
      "Ġcried": 7795,
      "Say": 7796,
      "Ġkings": 7797,
      "Ġsite": 7798,
      "Ġrestaurants": 7799,
      "Ġlod": 7800,
      "Ġspiritual": 7801,
      "Ġwing": 7802,
      "Ġbru": 7803,
      "Ġcontains": 7804,
      "Ġnause": 7805,
      "Ġforces": 7806,
      "erial": 7807,
      "Ġdefine": 7808,
      "enger": 7809,
      "ieu": 7810,
      "ĠBlack": 7811,
      "Ġburnt": 7812,
      "Ġvulner": 7813,
      "ĠID": 7814,
      "Ġupstairs": 7815,
      "Ġweekends": 7816,
      "Ġgarb": 7817,
      "ĠAugust": 7818,
      "Ġvibrant": 7819,
      "34": 7820,
      "IP": 7821,
      "ĠPe": 7822,
      "Ġpattern": 7823,
      "vell": 7824,
      "Ġbedroom": 7825,
      "Ġnine": 7826,
      "Ġvari": 7827,
      "usions": 7828,
      "Ġpover": 7829,
      "Ġcozy": 7830,
      "inations": 7831,
      "ĠMount": 7832,
      "Ġthread": 7833,
      "Ġthirsty": 7834,
      "Ġcrap": 7835,
      "ĠRod": 7836,
      "Ġheavens": 7837,
      "Ġservants": 7838,
      "Ġpencil": 7839,
      "Ġmajesty": 7840,
      "Haha": 7841,
      "Ġworlds": 7842,
      "Ġpoverty": 7843,
      "Ġimpat": 7844,
      "Ġhighlight": 7845,
      "Ð¾": 7846,
      "Ġwitch": 7847,
      "Ġemphas": 7848,
      "Ġrecon": 7849,
      "Ġeaten": 7850,
      "Ġperman": 7851,
      "Ġneighbors": 7852,
      "some": 7853,
      "ĠMRS": 7854,
      "ĠPut": 7855,
      "ĠArch": 7856,
      "Ġignoring": 7857,
      "Ġformal": 7858,
      "Ġbands": 7859,
      "Ġattracted": 7860,
      "inent": 7861,
      "ĠMir": 7862,
      "ĠJas": 7863,
      "ĠSteph": 7864,
      "Ġuniversity": 7865,
      "Ġadvertising": 7866,
      "each": 7867,
      "eren": 7868,
      "Ġpolic": 7869,
      "Ġpurposes": 7870,
      "Ġcompat": 7871,
      "Ġdesires": 7872,
      "Probably": 7873,
      "ĠLay": 7874,
      "Ġrecognize": 7875,
      "Ġhumanity": 7876,
      "Ġfootball": 7877,
      "Ġgenres": 7878,
      "give": 7879,
      "nor": 7880,
      "oure": 7881,
      "ĠThrough": 7882,
      "Ġburied": 7883,
      "Ġhaircut": 7884,
      "Ġtoil": 7885,
      "Ġtastes": 7886,
      "xy": 7887,
      "Ġinte": 7888,
      "Ġentered": 7889,
      "umps": 7890,
      "Ġliterary": 7891,
      "Ġwasting": 7892,
      "Ġcriminal": 7893,
      "Ooh": 7894,
      "Ġtheat": 7895,
      "Ġdiamond": 7896,
      "bow": 7897,
      "Ġpotentially": 7898,
      "Ġfixing": 7899,
      "Ġmisery": 7900,
      "oked": 7901,
      "ĠToo": 7902,
      "Ġath": 7903,
      "Ġsuffered": 7904,
      "Ġattached": 7905,
      "elly": 7906,
      "Ġswift": 7907,
      "Ġorganizations": 7908,
      "your": 7909,
      "Ġwashing": 7910,
      "Ġspell": 7911,
      "Ġthrone": 7912,
      "iley": 7913,
      "Ġmenu": 7914,
      "ĠCatcher": 7915,
      "Ġoverth": 7916,
      "Father": 7917,
      "Ġcontinues": 7918,
      "Ġdisagree": 7919,
      "Ġglorious": 7920,
      "Ġcompleted": 7921,
      "ĠMars": 7922,
      "Ġfrequently": 7923,
      "Ġstores": 7924,
      "ĠProfessor": 7925,
      "ĠÎ": 7926,
      "uce": 7927,
      "Ġpec": 7928,
      "ĠStill": 7929,
      "Lo": 7930,
      "Ġsuits": 7931,
      "Ġalas": 7932,
      "Ġchann": 7933,
      "Ġhustle": 7934,
      "ĠSol": 7935,
      "Ġstylish": 7936,
      "Ġpic": 7937,
      "Ġmagaz": 7938,
      "ĠHo": 7939,
      "Ġdegrees": 7940,
      "ĠJuliet": 7941,
      "AG": 7942,
      "Ġbutt": 7943,
      "Ġ34": 7944,
      "Ġhorn": 7945,
      "Ġstops": 7946,
      "Ġcircle": 7947,
      "Ġ36": 7948,
      "Ġdiscussing": 7949,
      "Ġnauseous": 7950,
      "Ġknave": 7951,
      "ĠStart": 7952,
      "Ġtread": 7953,
      "made": 7954,
      "oration": 7955,
      "Ġgest": 7956,
      "ĠMarch": 7957,
      "Ġrising": 7958,
      "ĠLadies": 7959,
      "Ġfoundation": 7960,
      "Ġabandoned": 7961,
      "ali": 7962,
      "ĠJane": 7963,
      "Ġtouched": 7964,
      "ĠBelieve": 7965,
      "aunt": 7966,
      "ĠNoble": 7967,
      "Ġflash": 7968,
      "Ġwished": 7969,
      "Ġappetite": 7970,
      "kle": 7971,
      "Ġtense": 7972,
      "clock": 7973,
      "Dear": 7974,
      "onte": 7975,
      "Ġmisunder": 7976,
      "Ġcabin": 7977,
      "HT": 7978,
      "person": 7979,
      "Ġcitizens": 7980,
      "Ġperformed": 7981,
      "looking": 7982,
      "Ġsurroundings": 7983,
      "ckets": 7984,
      "Ġendless": 7985,
      "sha": 7986,
      "Ġscarce": 7987,
      "Ġupdate": 7988,
      "Ġtalks": 7989,
      "Ġmole": 7990,
      "ĠDi": 7991,
      "rag": 7992,
      "Ġbehave": 7993,
      "Ġscheme": 7994,
      "ĉĉ": 7995,
      "staff": 7996,
      "Ġdisaster": 7997,
      "Ġjokes": 7998,
      "Ġec": 7999,
      "Ġpasses": 8000,
      "Ġresort": 8001,
      "Ġdwelling": 8002,
      "Ġupdated": 8003,
      "Ġcheap": 8004,
      "oli": 8005,
      "Ġproced": 8006,
      "ĠFace": 8007,
      "Ġhandy": 8008,
      "ni": 8009,
      "Ġprosp": 8010,
      "Ġcollabor": 8011,
      "ĠDevil": 8012,
      "bar": 8013,
      "abilities": 8014,
      "Ġflavors": 8015,
      "77": 8016,
      "ingly": 8017,
      "ĠSet": 8018,
      "rows": 8019,
      "Ġjewelry": 8020,
      "Could": 8021,
      "Ġfence": 8022,
      "Ġdressing": 8023,
      "Ġdisgust": 8024,
      "af": 8025,
      "Ġequipment": 8026,
      "Ġlun": 8027,
      "Ġlooke": 8028,
      "iber": 8029,
      "ĠIII": 8030,
      "anie": 8031,
      "Ġgonna": 8032,
      "ĠNic": 8033,
      "ĠCÃ¦sar": 8034,
      "Ġeu": 8035,
      "Ġidentity": 8036,
      "ĠHelen": 8037,
      "cuss": 8038,
      "Ġmerit": 8039,
      "Ken": 8040,
      "Ġpink": 8041,
      "Ġpunished": 8042,
      "Ġintroduced": 8043,
      "ĠPoet": 8044,
      "Ġmock": 8045,
      "Ġportra": 8046,
      "OUR": 8047,
      "Ġlaughter": 8048,
      "Ġsuggesting": 8049,
      "ICE": 8050,
      "Nor": 8051,
      "nic": 8052,
      "Ġambitious": 8053,
      "Ġflame": 8054,
      "Ġrepent": 8055,
      "ros": 8056,
      "Ġsof": 8057,
      "Ġillustr": 8058,
      "Ġinher": 8059,
      "Ġcrush": 8060,
      "Ġtu": 8061,
      "Ġdu": 8062,
      "Ġlimits": 8063,
      "pass": 8064,
      "Ġperiods": 8065,
      "Get": 8066,
      "Ġfain": 8067,
      "Ġmagn": 8068,
      "Ġdialogue": 8069,
      "pal": 8070,
      "ĠRose": 8071,
      "Ġdreamed": 8072,
      "Ġbree": 8073,
      "Ġgained": 8074,
      "ĠCheck": 8075,
      "rich": 8076,
      "ĠWish": 8077,
      "geance": 8078,
      "ĠHy": 8079,
      "Ġdizzy": 8080,
      "rust": 8081,
      "Ġpotatoes": 8082,
      "ĠLeave": 8083,
      "Ġpuzzle": 8084,
      "inda": 8085,
      "Ġcriticism": 8086,
      "ĠFam": 8087,
      "din": 8088,
      "ĠBo": 8089,
      "Ġkicked": 8090,
      "osure": 8091,
      "Ġmeetings": 8092,
      "ĠAsia": 8093,
      "Ġpasta": 8094,
      "ĠScot": 8095,
      "Ġwrath": 8096,
      "Ġreminder": 8097,
      "Ġmixed": 8098,
      "ĠAssistant": 8099,
      "adays": 8100,
      "Ġgradually": 8101,
      "Ġphoto": 8102,
      "Help": 8103,
      "acon": 8104,
      "arett": 8105,
      "ĠWow": 8106,
      "Ġoutcome": 8107,
      "Ġlistened": 8108,
      "Ġrespectful": 8109,
      "shit": 8110,
      "Ġdrew": 8111,
      "Ġformed": 8112,
      "Ġhoriz": 8113,
      "Ġfilling": 8114,
      "Ġunnecess": 8115,
      "ĠBARK": 8116,
      "Ġpil": 8117,
      "ĠMaid": 8118,
      "ologies": 8119,
      "Ġpresented": 8120,
      "Ġdeadlines": 8121,
      "ĠMod": 8122,
      "ĠPot": 8123,
      "being": 8124,
      "ĠChina": 8125,
      "Ġlion": 8126,
      "thur": 8127,
      "Ġwarn": 8128,
      "Ġindependence": 8129,
      "oubt": 8130,
      "itate": 8131,
      "Ġresume": 8132,
      "Ġphase": 8133,
      "Ġpuppy": 8134,
      "Ġforbid": 8135,
      "Ġgreatly": 8136,
      "Ġperfection": 8137,
      "beth": 8138,
      "Ġswings": 8139,
      "Ġcurt": 8140,
      "Ġcomed": 8141,
      "))": 8142,
      "Ġ45": 8143,
      "bot": 8144,
      "Ġwest": 8145,
      "Ġdiagn": 8146,
      "Âł": 8147,
      "Ġcries": 8148,
      "itten": 8149,
      "Ġrap": 8150,
      "Ġterror": 8151,
      "Ġseconds": 8152,
      "Ġtoll": 8153,
      "utic": 8154,
      "Hold": 8155,
      "ded": 8156,
      "orie": 8157,
      "aline": 8158,
      "Ġendure": 8159,
      "Ġresolution": 8160,
      "ĠStud": 8161,
      "Ġdresses": 8162,
      "bra": 8163,
      "Ġyonder": 8164,
      "Ġhardest": 8165,
      "ĠAnth": 8166,
      "Ġthief": 8167,
      "Ġconvey": 8168,
      "Ġprepar": 8169,
      "Ġbars": 8170,
      "gues": 8171,
      "Ġsouth": 8172,
      "Ġbackpack": 8173,
      "Ġdreadful": 8174,
      "py": 8175,
      "Ġviolin": 8176,
      "Ġinqu": 8177,
      "eenth": 8178,
      "ado": 8179,
      "ocks": 8180,
      "stop": 8181,
      "Ġpoets": 8182,
      "Ġcooped": 8183,
      "itie": 8184,
      "Ġpy": 8185,
      "Ġweary": 8186,
      "Ġraising": 8187,
      "Ġviolent": 8188,
      "Ġitem": 8189,
      "ĠJon": 8190,
      "Ġslain": 8191,
      "łĢâ": 8192,
      "Ġwench": 8193,
      "ancing": 8194,
      "Ġstairs": 8195,
      "Ġprisoner": 8196,
      "Ġreply": 8197,
      "Ġphrase": 8198,
      "maybe": 8199,
      "Ġsis": 8200,
      "Ġmask": 8201,
      "Ġcourses": 8202,
      "Ġspinning": 8203,
      "tha": 8204,
      "Ġsmiling": 8205,
      "Em": 8206,
      "anny": 8207,
      "Ġabst": 8208,
      "ĠMess": 8209,
      "âĢĶâĢĶ": 8210,
      "Ġburst": 8211,
      "Ġtransition": 8212,
      "Ġphilosoph": 8213,
      "react": 8214,
      "leen": 8215,
      "EV": 8216,
      "Ġted": 8217,
      "Ġcunning": 8218,
      "stal": 8219,
      "roph": 8220,
      "Ġsovere": 8221,
      "Ġumb": 8222,
      "Ġtrim": 8223,
      "Ġ29": 8224,
      "Ġdisturb": 8225,
      "Ġagent": 8226,
      "Ġobed": 8227,
      "Ġpolicies": 8228,
      "Ġpiling": 8229,
      "quet": 8230,
      "Ġoffic": 8231,
      "Ġdisrupt": 8232,
      "erring": 8233,
      "ĠHell": 8234,
      "Ġeverybody": 8235,
      "Ġcharges": 8236,
      "Ġentreat": 8237,
      "Ġrabb": 8238,
      "Ġsolemn": 8239,
      "Ġpassions": 8240,
      "Ġstarters": 8241,
      "Ġoven": 8242,
      "ĠDy": 8243,
      "who": 8244,
      "Ġlink": 8245,
      "ĠBible": 8246,
      "ician": 8247,
      "Ġrepro": 8248,
      "Ġformat": 8249,
      "Ġcrack": 8250,
      "anoid": 8251,
      "Ġphysics": 8252,
      "Ġlawn": 8253,
      "ted": 8254,
      "erald": 8255,
      "UM": 8256,
      "Ġtiny": 8257,
      "Ġmax": 8258,
      "ĠMerc": 8259,
      "ĠDavid": 8260,
      "Remember": 8261,
      "rim": 8262,
      "Ġmart": 8263,
      "bles": 8264,
      "Ġtherape": 8265,
      "Ġslack": 8266,
      "Ġlyrics": 8267,
      "UE": 8268,
      "Ġrecharge": 8269,
      "Ġshade": 8270,
      "Ġachieved": 8271,
      "Ġsiblings": 8272,
      "woman": 8273,
      "Ġrein": 8274,
      "Ġpractices": 8275,
      "Ġzone": 8276,
      "Ġhire": 8277,
      "Ġbully": 8278,
      "Ġextreme": 8279,
      "Ġpor": 8280,
      "Ġbeans": 8281,
      "ĠBook": 8282,
      "Ġeleg": 8283,
      "Ġinsult": 8284,
      "ĠSomeone": 8285,
      "Ġordered": 8286,
      "Ġtherapeutic": 8287,
      "sen": 8288,
      "ĠSus": 8289,
      "ĠRead": 8290,
      "Ġwars": 8291,
      "LY": 8292,
      "Ġrecords": 8293,
      "Ġfulfilled": 8294,
      "ĠFollow": 8295,
      "UD": 8296,
      "Ġdispl": 8297,
      "Ġalike": 8298,
      "laim": 8299,
      "75": 8300,
      "Ġpositions": 8301,
      "mitted": 8302,
      "Ġsober": 8303,
      "ardo": 8304,
      "ummer": 8305,
      "Ġfoe": 8306,
      "mony": 8307,
      "Ġpa": 8308,
      "\"?": 8309,
      "Ġ80": 8310,
      "Ġpublish": 8311,
      "ĠName": 8312,
      "Ġconfusion": 8313,
      "Ġphotograph": 8314,
      "Ġdesigns": 8315,
      "omet": 8316,
      "Ġbegging": 8317,
      "keep": 8318,
      "Ġhilar": 8319,
      "Ġsushi": 8320,
      "Ġflag": 8321,
      "ĠÃĨ": 8322,
      "ĠAfrica": 8323,
      "Ġconsp": 8324,
      "Ġrepresented": 8325,
      "Ġshed": 8326,
      "bury": 8327,
      "Ġnation": 8328,
      "Ġrepairs": 8329,
      "asha": 8330,
      "Ġcock": 8331,
      "via": 8332,
      "Ġtheme": 8333,
      "ĠEver": 8334,
      "Ġ21": 8335,
      "Ġpreparing": 8336,
      "ĠGoogle": 8337,
      "ynth": 8338,
      "Ġweapons": 8339,
      "ĠDest": 8340,
      "Ġcheering": 8341,
      "Ġgoddess": 8342,
      "mate": 8343,
      "onsider": 8344,
      "Ġgeneration": 8345,
      "Ġwaking": 8346,
      "Ġinner": 8347,
      "Ġsan": 8348,
      "Ġclar": 8349,
      "Ġfreely": 8350,
      "Ġrespected": 8351,
      "Ġfare": 8352,
      "ĠHor": 8353,
      "--(": 8354,
      "ĠHistory": 8355,
      "Ġarray": 8356,
      "accept": 8357,
      "Out": 8358,
      "Ġplead": 8359,
      "Ġanswered": 8360,
      "Ġweapon": 8361,
      "TE": 8362,
      "Ġearned": 8363,
      "rete": 8364,
      "Ġintellect": 8365,
      "ensions": 8366,
      "ĠMistress": 8367,
      "Ġwheels": 8368,
      "ievable": 8369,
      "ĠStar": 8370,
      "Ġankle": 8371,
      "ĠBrown": 8372,
      "Ġdirt": 8373,
      "Ġpaths": 8374,
      "long": 8375,
      "Ġdye": 8376,
      "Ġserving": 8377,
      "Ġlocated": 8378,
      "ĠPark": 8379,
      "abet": 8380,
      "Ġdistingu": 8381,
      "Ġbul": 8382,
      "Ġumbrell": 8383,
      "orage": 8384,
      "Ġwhoever": 8385,
      "Ġbreed": 8386,
      "ships": 8387,
      "Ġshortly": 8388,
      "Ġparanoid": 8389,
      "Ġfools": 8390,
      "Ġarrive": 8391,
      "Ġjuice": 8392,
      "Ġdearest": 8393,
      "ĠAud": 8394,
      "Ġreplaced": 8395,
      "Ġinconven": 8396,
      "Ġnails": 8397,
      "ĠWatch": 8398,
      "ĠAc": 8399,
      "uliar": 8400,
      "ssa": 8401,
      "ĠGover": 8402,
      "lessly": 8403,
      "aters": 8404,
      "Ġleaue": 8405,
      "Ġsustainable": 8406,
      "Ġmas": 8407,
      "Ġdecent": 8408,
      "Ġfrank": 8409,
      "Ġshapes": 8410,
      "Ġstrangers": 8411,
      "Ġdut": 8412,
      "Ġallerg": 8413,
      "Ġprocessing": 8414,
      "ucks": 8415,
      "Ġfabric": 8416,
      "Ġbeef": 8417,
      "unction": 8418,
      "ĠMarl": 8419,
      "88": 8420,
      "Ġtip": 8421,
      "OB": 8422,
      "ongest": 8423,
      "Ġdatab": 8424,
      "ĠMonsieur": 8425,
      "PE": 8426,
      "Ġorange": 8427,
      "Ġheed": 8428,
      "Ġidle": 8429,
      "Ġinterf": 8430,
      "Ġoperations": 8431,
      "ĠRet": 8432,
      "ivia": 8433,
      "Ġswall": 8434,
      "Ġ33": 8435,
      "Wait": 8436,
      "Ġcovers": 8437,
      "lay": 8438,
      "Ġdestiny": 8439,
      "Ġcontributing": 8440,
      "Ġbush": 8441,
      "Ġhilarious": 8442,
      "uan": 8443,
      "Ġgreet": 8444,
      "ĠMill": 8445,
      "Ġworkload": 8446,
      "ĠPen": 8447,
      "ĠBrutus": 8448,
      "Ġbullshit": 8449,
      "Ġsnacks": 8450,
      "Ġpossession": 8451,
      "Ġyoga": 8452,
      "ĠRam": 8453,
      "Ġfolly": 8454,
      "Ġrisky": 8455,
      "ĠMusic": 8456,
      "Ġrecyc": 8457,
      "Ġflexible": 8458,
      "Ġathlet": 8459,
      "Ġbeare": 8460,
      "ĠBer": 8461,
      "Ġknocked": 8462,
      "UC": 8463,
      "ĠCollege": 8464,
      "Ġsurf": 8465,
      "ĠSpeak": 8466,
      "Ġweights": 8467,
      "Seriously": 8468,
      "Ġcarbon": 8469,
      "Ġexhausting": 8470,
      "Ġwherever": 8471,
      "ucle": 8472,
      "Ġhealing": 8473,
      "Ġnaught": 8474,
      "Ġpriority": 8475,
      "Ġfeature": 8476,
      "rian": 8477,
      "Ġabsence": 8478,
      "ĠIts": 8479,
      "quan": 8480,
      "olph": 8481,
      "ĠTen": 8482,
      "Ġconnecting": 8483,
      "Ġprivile": 8484,
      "En": 8485,
      "Ġslightly": 8486,
      "Ġemergency": 8487,
      "uy": 8488,
      "Ġlest": 8489,
      "Ġshine": 8490,
      "ĠTro": 8491,
      "ĠEast": 8492,
      "Ġgram": 8493,
      "Ġpeculiar": 8494,
      "Ġdil": 8495,
      "Ġstubb": 8496,
      "aughters": 8497,
      "Ġdreaming": 8498,
      "Ġguest": 8499,
      "Ġtrends": 8500,
      "Ġsheep": 8501,
      "ĠWarw": 8502,
      "Was": 8503,
      "isse": 8504,
      "odes": 8505,
      "Ġtalents": 8506,
      "olk": 8507,
      "Ġtrump": 8508,
      "aleigh": 8509,
      "www": 8510,
      "Ġvile": 8511,
      "ĠAntonio": 8512,
      "ĠIreland": 8513,
      "Interesting": 8514,
      "Ġboast": 8515,
      "Ġfled": 8516,
      "encies": 8517,
      "Ġcancel": 8518,
      "ĠEs": 8519,
      "Ġescap": 8520,
      "Ġunwind": 8521,
      "RAN": 8522,
      "vas": 8523,
      "eries": 8524,
      "Ġtrif": 8525,
      "Fair": 8526,
      "Ġcustoms": 8527,
      "Ġwounds": 8528,
      "Ġbothers": 8529,
      "ĠTrans": 8530,
      "Ġattacks": 8531,
      "Ġadmin": 8532,
      "Ġsignal": 8533,
      "met": 8534,
      "ĠJoy": 8535,
      "Ġabuse": 8536,
      "Ġrapid": 8537,
      "Ġcontempt": 8538,
      "Ġapprove": 8539,
      "Ġconfirm": 8540,
      "ĠWhite": 8541,
      "Ġexams": 8542,
      "Ġcondem": 8543,
      "Ġtap": 8544,
      "ĠAustr": 8545,
      "Ġboost": 8546,
      "Ġfellows": 8547,
      "Ġaccordingly": 8548,
      "Ġcrowded": 8549,
      "alynn": 8550,
      "Ġwee": 8551,
      "ĠArthur": 8552,
      "upp": 8553,
      "Ġtheories": 8554,
      "Ġreh": 8555,
      "ĠCharl": 8556,
      "Ġcloak": 8557,
      "Ġsubt": 8558,
      "Shall": 8559,
      "Ġbeings": 8560,
      "Ġtorn": 8561,
      "Ġinnocence": 8562,
      "Ġveh": 8563,
      "Ġcrossed": 8564,
      "?...": 8565,
      "igate": 8566,
      "Ġgrandparents": 8567,
      "Le": 8568,
      "udes": 8569,
      "Ġreturning": 8570,
      "Ġfascinated": 8571,
      "Ġcommands": 8572,
      "Ġgravity": 8573,
      "Ġghosts": 8574,
      "Ġmild": 8575,
      "ived": 8576,
      "Ġhumili": 8577,
      "friendly": 8578,
      "Ġappealing": 8579,
      "Ġtension": 8580,
      "Ġflood": 8581,
      "Ġcuts": 8582,
      "Ġanybody": 8583,
      "Ġfac": 8584,
      "Ġcurtain": 8585,
      "etti": 8586,
      "isible": 8587,
      "ĠOK": 8588,
      "ortion": 8589,
      "ĠPeace": 8590,
      "achel": 8591,
      "Ġobserve": 8592,
      "Ġmanip": 8593,
      "Ġqualifications": 8594,
      "Ġconsistent": 8595,
      "ĠMichael": 8596,
      "Ġrelat": 8597,
      "!âĢĿ": 8598,
      "Ġdece": 8599,
      "olic": 8600,
      "Ġoffend": 8601,
      "Ġsmiles": 8602,
      "Ġrevere": 8603,
      "ads": 8604,
      "Ġcomment": 8605,
      "Re": 8606,
      "Ġou": 8607,
      "Ġtent": 8608,
      "Ġmasters": 8609,
      "athon": 8610,
      "ĠFlor": 8611,
      "Ġvit": 8612,
      "Ġsnake": 8613,
      "Ġsticking": 8614,
      "Ġplague": 8615,
      "ĠGot": 8616,
      "Ġhandled": 8617,
      "Ġproposal": 8618,
      "bel": 8619,
      "lea": 8620,
      "ĠAren": 8621,
      "Ġstare": 8622,
      "ĠHelp": 8623,
      "eevens": 8624,
      "Ġlake": 8625,
      "ayla": 8626,
      "Ġartificial": 8627,
      "Ġdrops": 8628,
      "Make": 8629,
      "anches": 8630,
      "ĠPH": 8631,
      "fall": 8632,
      "Ġnicely": 8633,
      "!'": 8634,
      "ĠDep": 8635,
      "acceptable": 8636,
      "Ġreads": 8637,
      "Ġpersonally": 8638,
      "ĠScene": 8639,
      "ĠAthens": 8640,
      "ĠIrish": 8641,
      "Ġproved": 8642,
      "Ġthrust": 8643,
      "weight": 8644,
      "Ġresign": 8645,
      "Ġfullest": 8646,
      "Ġrepay": 8647,
      "Ġportion": 8648,
      "ĠSupp": 8649,
      "Ġcollecting": 8650,
      "arettes": 8651,
      "Ġentrance": 8652,
      "ĠAna": 8653,
      "Ġpartners": 8654,
      "Ġdraws": 8655,
      "SS": 8656,
      "Ġtied": 8657,
      "Ġmile": 8658,
      "ayne": 8659,
      "Ġhaunt": 8660,
      "Ġrust": 8661,
      "ressing": 8662,
      "Ġcommunicating": 8663,
      "spond": 8664,
      "Ġsworn": 8665,
      "conscious": 8666,
      "omy": 8667,
      "Ġdivide": 8668,
      "Ġneighbour": 8669,
      "ternal": 8670,
      "Ġdisgrace": 8671,
      "Once": 8672,
      "ĠAbb": 8673,
      "Ġclubs": 8674,
      "ĠStand": 8675,
      "Ġcomplaining": 8676,
      "Ġachieving": 8677,
      "Ġtheater": 8678,
      "Ġcave": 8679,
      "plain": 8680,
      "Ġcandidates": 8681,
      "Ġchaotic": 8682,
      "arter": 8683,
      "Ġunacceptable": 8684,
      "Ġcompatible": 8685,
      "Ġpatients": 8686,
      "beat": 8687,
      "Ġmachines": 8688,
      "ĠBell": 8689,
      "ĠWed": 8690,
      "ankind": 8691,
      "Ġconce": 8692,
      "ĠPers": 8693,
      "Ġsecondly": 8694,
      "Ġancest": 8695,
      "Ġexists": 8696,
      "ĠJulia": 8697,
      "Ġdigital": 8698,
      "Ġstrain": 8699,
      "Ġtouching": 8700,
      "Ġpromoting": 8701,
      "Ġdivided": 8702,
      "Ġceremony": 8703,
      "Ġtat": 8704,
      "ĠAra": 8705,
      "ĠSn": 8706,
      "uded": 8707,
      "list": 8708,
      "Ġforty": 8709,
      "ĠShow": 8710,
      "Ġcharged": 8711,
      "Ġdescribed": 8712,
      "ithee": 8713,
      "Ġdestruction": 8714,
      "Ġreminds": 8715,
      "Ġreleased": 8716,
      "Ġmelanch": 8717,
      "Ġestablish": 8718,
      "inn": 8719,
      "Ġdozen": 8720,
      "ĠKend": 8721,
      "Ġcontrary": 8722,
      "ĠQueene": 8723,
      "Ġincorpor": 8724,
      "Ġstones": 8725,
      "angel": 8726,
      "ĠAbout": 8727,
      "Ġtables": 8728,
      "ĠMadame": 8729,
      "Ġfift": 8730,
      "Ġscrewing": 8731,
      "ini": 8732,
      "Ġclassmates": 8733,
      "\")": 8734,
      "aina": 8735,
      "HA": 8736,
      "erving": 8737,
      "Ġdares": 8738,
      "Ġpepper": 8739,
      "Ġplatforms": 8740,
      "Ġbone": 8741,
      "ĠLinux": 8742,
      "Faith": 8743,
      "Ġfarther": 8744,
      "Ġaffects": 8745,
      "Des": 8746,
      "atural": 8747,
      "sect": 8748,
      "Ġrasc": 8749,
      "........": 8750,
      "Ġgates": 8751,
      "ilia": 8752,
      "Ġrushing": 8753,
      "Ġfighter": 8754,
      "Ġextract": 8755,
      "ĠLatin": 8756,
      "Ġhood": 8757,
      "aria": 8758,
      "Ġstubborn": 8759,
      "Bel": 8760,
      "ĠSel": 8761,
      "Ġpreced": 8762,
      "ĠZeus": 8763,
      "Ġalgorithms": 8764,
      "oqu": 8765,
      "ĠHT": 8766,
      "Ġdip": 8767,
      "when": 8768,
      "Ġfights": 8769,
      "('": 8770,
      "note": 8771,
      "ĠPrincess": 8772,
      "Ġgoss": 8773,
      "inder": 8774,
      "ĠĠĠĠĠĠĠ": 8775,
      "ocol": 8776,
      "ĠCoun": 8777,
      "Ġkisses": 8778,
      "Ġtack": 8779,
      "Ġentit": 8780,
      "Ġsubmit": 8781,
      "Ġinfl": 8782,
      "ĠMass": 8783,
      "ĠLight": 8784,
      "Ġcared": 8785,
      "Ġbeaten": 8786,
      "Ġtraditions": 8787,
      "Ġaccounts": 8788,
      "letcher": 8789,
      "Ġsyn": 8790,
      "ĠSpirit": 8791,
      "Ġpanic": 8792,
      "Ġgarbage": 8793,
      "ĠLA": 8794,
      "ĠHonour": 8795,
      "Ġbore": 8796,
      "Ġsteel": 8797,
      "Ġmaiden": 8798,
      "ĠImp": 8799,
      "Ġwhence": 8800,
      "Ġmeasures": 8801,
      "Ġaggressive": 8802,
      "Welcome": 8803,
      "Ã¼": 8804,
      "Ġ~": 8805,
      "ivered": 8806,
      "ounced": 8807,
      "ĠJesus": 8808,
      "onda": 8809,
      "Ġpains": 8810,
      "iii": 8811,
      "ryn": 8812,
      "Ġchasing": 8813,
      "Ġcontinuing": 8814,
      "Ġreminding": 8815,
      "ĠBasically": 8816,
      "Ġtab": 8817,
      "Ġpolite": 8818,
      "Ġanyways": 8819,
      "Ġhoped": 8820,
      "Ġdignity": 8821,
      "Ġkindly": 8822,
      "Ġeternal": 8823,
      "ĠPedro": 8824,
      "łĢâłĢâ": 8825,
      "ĠPR": 8826,
      "Ġeast": 8827,
      "Ġsupper": 8828,
      "Ġattacked": 8829,
      "ĠGermany": 8830,
      "ĠEnd": 8831,
      "Ġstrongest": 8832,
      "Ġtrail": 8833,
      "Ġcreation": 8834,
      "ĠEmpire": 8835,
      "Ġalter": 8836,
      "Ġtremb": 8837,
      "Ġfrost": 8838,
      "overs": 8839,
      "Ġdates": 8840,
      "ĠLar": 8841,
      "Ġoffence": 8842,
      "Ġdisrespectful": 8843,
      "Ġâ": 8844,
      "icit": 8845,
      "rate": 8846,
      "ercial": 8847,
      "ĠCL": 8848,
      "ĠJere": 8849,
      "Ġhealthcare": 8850,
      "war": 8851,
      "ĠSur": 8852,
      "Ġconnections": 8853,
      "Ġengage": 8854,
      "Ġwits": 8855,
      "ayah": 8856,
      "ĠMah": 8857,
      "Ġvaliant": 8858,
      "ĠJove": 8859,
      "inted": 8860,
      "Ġcush": 8861,
      "Ġrenew": 8862,
      "ulse": 8863,
      "Ġpretending": 8864,
      "ynam": 8865,
      "Ġgenuine": 8866,
      "Ġpump": 8867,
      "Ġleap": 8868,
      "Ġbehavi": 8869,
      "Ġwoo": 8870,
      "ĠId": 8871,
      "Ġraining": 8872,
      "Ġbatt": 8873,
      "Ġmiracle": 8874,
      "21": 8875,
      "bie": 8876,
      "Ġhttps": 8877,
      "Ġmischief": 8878,
      "Overall": 8879,
      "ĠPromise": 8880,
      "Ġvengeance": 8881,
      "tml": 8882,
      "],": 8883,
      "Ġvel": 8884,
      "ĠCivil": 8885,
      "fortunate": 8886,
      "ĠBost": 8887,
      "cepting": 8888,
      "Ġloop": 8889,
      "drated": 8890,
      "Peace": 8891,
      "ĠJar": 8892,
      "Ġamuse": 8893,
      "Ġmodest": 8894,
      "Ġinsights": 8895,
      "ĠSav": 8896,
      "Ġyourselves": 8897,
      "ĠPoor": 8898,
      "Ġvig": 8899,
      "Ġexcess": 8900,
      "too": 8901,
      "?âĢĿ": 8902,
      "Ġbatter": 8903,
      "Ġreducing": 8904,
      "][": 8905,
      "ĠSea": 8906,
      "ĠWomen": 8907,
      "Ġplunge": 8908,
      "hearted": 8909,
      "Ġstruggles": 8910,
      "Boss": 8911,
      "onic": 8912,
      "Ġrogue": 8913,
      "rial": 8914,
      "lesse": 8915,
      "Ġlistener": 8916,
      "Ġprinciple": 8917,
      "ĠFlore": 8918,
      "Ġrelatively": 8919,
      "occ": 8920,
      "ĠJak": 8921,
      "Ġapparently": 8922,
      "Ġraises": 8923,
      "Ġcomparison": 8924,
      "Ġlovers": 8925,
      "Ġheir": 8926,
      "stone": 8927,
      "Ġchase": 8928,
      "Ġprem": 8929,
      "Ġitch": 8930,
      "ollo": 8931,
      "text": 8932,
      "Ġtrails": 8933,
      "Ġdragon": 8934,
      "Ġexcell": 8935,
      "Ġ70": 8936,
      "Ġintegr": 8937,
      "Ġtwist": 8938,
      "Ġhousehold": 8939,
      "ĠTyler": 8940,
      "born": 8941,
      "ulated": 8942,
      "Ġremote": 8943,
      "Ġwidely": 8944,
      "Ġdent": 8945,
      "ĠVery": 8946,
      "Ġexercising": 8947,
      "annah": 8948,
      "Ġnucle": 8949,
      "ĠGetting": 8950,
      "Ġjoint": 8951,
      "Ġpipe": 8952,
      "selfe": 8953,
      "Ġintend": 8954,
      "issions": 8955,
      "ĠOverall": 8956,
      "Ġfri": 8957,
      "ivers": 8958,
      "ĠMur": 8959,
      "ĠDream": 8960,
      "Ġexecution": 8961,
      "ĠPhilip": 8962,
      "Ġspots": 8963,
      "Ġintr": 8964,
      "Ġtraitor": 8965,
      "Ġencounter": 8966,
      "uns": 8967,
      "Ġiniti": 8968,
      "Ġinvestments": 8969,
      "vail": 8970,
      "ĠDer": 8971,
      "ĠLie": 8972,
      "---": 8973,
      "Ġdiseases": 8974,
      "alled": 8975,
      "Ġdawn": 8976,
      "fty": 8977,
      "Ġgrammar": 8978,
      "EO": 8979,
      "nings": 8980,
      "outs": 8981,
      "Ġligh": 8982,
      "Ġseats": 8983,
      "Ġunit": 8984,
      "Ġta": 8985,
      "Ġfid": 8986,
      "Ġintentionally": 8987,
      "Ġirrit": 8988,
      "Ġgam": 8989,
      "Ġasks": 8990,
      "Ġholiday": 8991,
      "Ġcorpor": 8992,
      "Ġparticles": 8993,
      "Ġtemp": 8994,
      "Ġpreferences": 8995,
      "ML": 8996,
      "ĠMik": 8997,
      "ĠNik": 8998,
      "Ġcompanions": 8999,
      "Ġrefreshed": 9000,
      "ĶĢâ": 9001,
      "Ġteams": 9002,
      "Ġefficiency": 9003,
      "ĠSpeaking": 9004,
      "ĠGP": 9005,
      "https": 9006,
      "top": 9007,
      "Ġchips": 9008,
      "Ġgenre": 9009,
      "70": 9010,
      "asse": 9011,
      "Ġwouldst": 9012,
      "ĠCur": 9013,
      "Ġcoast": 9014,
      "Ġprocesses": 9015,
      "Ġliar": 9016,
      "ĠLib": 9017,
      "Ġcreates": 9018,
      "ĠAR": 9019,
      "uming": 9020,
      "ĠLastly": 9021,
      "Ġtum": 9022,
      "uts": 9023,
      "Ġlov": 9024,
      "ĠSan": 9025,
      "Ġharmless": 9026,
      "Ġdebts": 9027,
      "ĠVenice": 9028,
      "Ġstroke": 9029,
      "date": 9030,
      "istry": 9031,
      "ĠKim": 9032,
      "Ġobserved": 9033,
      "hi": 9034,
      "Ġhaz": 9035,
      "EST": 9036,
      "ĠMonday": 9037,
      "Ġwasted": 9038,
      "attle": 9039,
      "isor": 9040,
      "Ġsmartest": 9041,
      "Ġfolk": 9042,
      "Ġrecognition": 9043,
      "Ġencourage": 9044,
      "Ġfathers": 9045,
      "ĠBill": 9046,
      "Ġfortunes": 9047,
      "allel": 9048,
      "rix": 9049,
      "Ġprose": 9050,
      "Ġadds": 9051,
      "Ġscru": 9052,
      "Ġpreserve": 9053,
      "aniel": 9054,
      "Ġambition": 9055,
      "Ġcautious": 9056,
      "Ġdemonstr": 9057,
      "easure": 9058,
      "atives": 9059,
      "lers": 9060,
      "Ġbanish": 9061,
      "Ġopponent": 9062,
      "Ġsafer": 9063,
      "ADY": 9064,
      "ho": 9065,
      "Ġpier": 9066,
      "esy": 9067,
      "Ġshaking": 9068,
      "ĠVict": 9069,
      "Ġrope": 9070,
      "UST": 9071,
      "Ġrepresentation": 9072,
      "ĠFletcher": 9073,
      "Ġparam": 9074,
      "Ġsenses": 9075,
      "eli": 9076,
      "Ġangle": 9077,
      "Ġcough": 9078,
      "esc": 9079,
      "ĠEp": 9080,
      "Ġabstract": 9081,
      "Ġvice": 9082,
      "cribed": 9083,
      "Dam": 9084,
      "Ġmode": 9085,
      "ĠRon": 9086,
      "Ġconfront": 9087,
      "Ġassume": 9088,
      "ĠLore": 9089,
      "ĠValent": 9090,
      "ĠWhom": 9091,
      "Ġfitness": 9092,
      "Ġinitial": 9093,
      "mers": 9094,
      "Ġax": 9095,
      "Ġgently": 9096,
      "Ġinstantly": 9097,
      "Ġtomatoes": 9098,
      "Ġcookie": 9099,
      "ĠProv": 9100,
      "Ġsteak": 9101,
      "ĠGen": 9102,
      "Ġinsight": 9103,
      "Ġgallant": 9104,
      "Ġsovereign": 9105,
      "\"--": 9106,
      "ori": 9107,
      "Ġups": 9108,
      "Ġoffended": 9109,
      "Ġroles": 9110,
      "Ġmusical": 9111,
      "Ġwisely": 9112,
      "rine": 9113,
      "Ġmistaken": 9114,
      "Ġleadership": 9115,
      "Ġimpatient": 9116,
      "Ã³": 9117,
      "Ġcontrast": 9118,
      "ĠVill": 9119,
      "Ġgap": 9120,
      "ĠInto": 9121,
      "Thy": 9122,
      "ĠKrist": 9123,
      "Ġdramatist": 9124,
      "ĠPower": 9125,
      "ĠAnne": 9126,
      "Ġcostume": 9127,
      "Ġmechanics": 9128,
      "More": 9129,
      "Ġrates": 9130,
      "ĠFour": 9131,
      "Ġcareers": 9132,
      "Ġclosing": 9133,
      "ĠAL": 9134,
      "Ġpluck": 9135,
      "Ġexhilar": 9136,
      "Ġodds": 9137,
      "Ġcigarettes": 9138,
      "Ġignorant": 9139,
      "Still": 9140,
      "rin": 9141,
      "uary": 9142,
      "Ġoverdo": 9143,
      "Ðµ": 9144,
      "Goodnight": 9145,
      "Ġflattering": 9146,
      "Ġfatig": 9147,
      "Ġunnecessary": 9148,
      "Ġprocl": 9149,
      "angers": 9150,
      "Ġsplit": 9151,
      "Ġvom": 9152,
      "****": 9153,
      "ĠTown": 9154,
      "Ġgray": 9155,
      "tenance": 9156,
      "Ġslope": 9157,
      "ĠJah": 9158,
      "Ġoverreact": 9159,
      "ĠVol": 9160,
      "Ġfourth": 9161,
      "Ġcollected": 9162,
      "ĠHast": 9163,
      "Ġlayer": 9164,
      "âĢĺ": 9165,
      "ĠSold": 9166,
      "Ġdiscovery": 9167,
      "Ġcorrespond": 9168,
      "ĠJapanese": 9169,
      "Ġinfinite": 9170,
      "ois": 9171,
      "Ġchip": 9172,
      "gre": 9173,
      "ĠAk": 9174,
      "Ġamongst": 9175,
      "vi": 9176,
      "Ġstability": 9177,
      "Ġmyth": 9178,
      "Ġlas": 9179,
      "Ġniece": 9180,
      "bus": 9181,
      "ĠFOR": 9182,
      "Ġbonds": 9183,
      "Ġwhisper": 9184,
      "Neither": 9185,
      "Ow": 9186,
      "Ġhamm": 9187,
      "Ġstorage": 9188,
      "Ġsincere": 9189,
      "astard": 9190,
      "eaded": 9191,
      "Ġromance": 9192,
      "gent": 9193,
      "lar": 9194,
      "aning": 9195,
      "Ġpropose": 9196,
      "ĠHeart": 9197,
      "Ġdeveloper": 9198,
      "ĠAngeles": 9199,
      "ĠLos": 9200,
      "ĠNobody": 9201,
      "Ġeditor": 9202,
      "Ġcease": 9203,
      "Ġbearing": 9204,
      "ĠUp": 9205,
      "Ġtranslation": 9206,
      "ĠVirgin": 9207,
      "Ġjugg": 9208,
      "Ġ32": 9209,
      "ĠHal": 9210,
      "Ġnorth": 9211,
      "ghetti": 9212,
      "Ġchatting": 9213,
      "Ġbelongs": 9214,
      "Ġstain": 9215,
      "Ġsuspic": 9216,
      "Ġfatal": 9217,
      "Ġnutri": 9218,
      "Ġmuseum": 9219,
      "AIN": 9220,
      "riel": 9221,
      "ĠSqu": 9222,
      "apping": 9223,
      "Ġsummary": 9224,
      "AI": 9225,
      "oping": 9226,
      "Ġmirror": 9227,
      "ĠAPI": 9228,
      "Ġentitled": 9229,
      "ĠFore": 9230,
      "Ġmadness": 9231,
      "Yea": 9232,
      "mark": 9233,
      "Ġspreading": 9234,
      "Ġtroubled": 9235,
      "data": 9236,
      "idays": 9237,
      "Ġflames": 9238,
      "Ġilleg": 9239,
      "Ġbrighten": 9240,
      "ICK": 9241,
      "lished": 9242,
      "ĠChamber": 9243,
      "IB": 9244,
      "fold": 9245,
      "Ġumbrella": 9246,
      "Ġperf": 9247,
      "Ġconvince": 9248,
      "Ġstepped": 9249,
      "alley": 9250,
      "Ġmarked": 9251,
      "Ġoperating": 9252,
      "Ġdismiss": 9253,
      "pet": 9254,
      "Ġwou": 9255,
      "Ġcens": 9256,
      "ĠLittle": 9257,
      "ĠLee": 9258,
      "ĠRust": 9259,
      "Ġtreatments": 9260,
      "Ġvariable": 9261,
      "Ġshots": 9262,
      "Ġwaited": 9263,
      "Does": 9264,
      "Ġprescribe": 9265,
      "Ġdesigner": 9266,
      "Ġscientists": 9267,
      "UB": 9268,
      "essert": 9269,
      "Ġreson": 9270,
      "Ġmotor": 9271,
      "ĠIndeed": 9272,
      "ĠAgainst": 9273,
      "enance": 9274,
      "Ġexpressing": 9275,
      "Ġelabor": 9276,
[...]
